{
  "version": "1.0",
  "truncation": null,
  "padding": null,
  "added_tokens": [
    {
      "id": 0,
      "content": "<pad>",
      "single_word": false,
      "lstrip": false,
      "rstrip": false,
      "normalized": false,
      "special": true
    },
    {
      "id": 1,
      "content": "<unk>",
      "single_word": false,
      "lstrip": false,
      "rstrip": false,
      "normalized": false,
      "special": true
    },
    {
      "id": 2,
      "content": "<bos>",
      "single_word": false,
      "lstrip": false,
      "rstrip": false,
      "normalized": false,
      "special": true
    },
    {
      "id": 3,
      "content": "<eos>",
      "single_word": false,
      "lstrip": false,
      "rstrip": false,
      "normalized": false,
      "special": true
    },
    {
      "id": 4,
      "content": "<mask>",
      "single_word": false,
      "lstrip": false,
      "rstrip": false,
      "normalized": false,
      "special": true
    }
  ],
  "normalizer": null,
  "pre_tokenizer": {
    "type": "Whitespace"
  },
  "post_processor": null,
  "decoder": null,
  "model": {
    "type": "BPE",
    "dropout": null,
    "unk_token": null,
    "continuing_subword_prefix": null,
    "end_of_word_suffix": null,
    "fuse_unk": false,
    "byte_fallback": false,
    "ignore_merges": false,
    "vocab": {
      "<pad>": 0,
      "<unk>": 1,
      "<bos>": 2,
      "<eos>": 3,
      "<mask>": 4,
      "!": 5,
      "\"": 6,
      "#": 7,
      "%": 8,
      "&": 9,
      "'": 10,
      "(": 11,
      ")": 12,
      "*": 13,
      "+": 14,
      ",": 15,
      "-": 16,
      ".": 17,
      "/": 18,
      "0": 19,
      "1": 20,
      "2": 21,
      "3": 22,
      "4": 23,
      "5": 24,
      "6": 25,
      "7": 26,
      "8": 27,
      "9": 28,
      ":": 29,
      ";": 30,
      "<": 31,
      "=": 32,
      ">": 33,
      "?": 34,
      "@": 35,
      "A": 36,
      "B": 37,
      "C": 38,
      "D": 39,
      "E": 40,
      "F": 41,
      "G": 42,
      "H": 43,
      "I": 44,
      "J": 45,
      "K": 46,
      "L": 47,
      "M": 48,
      "N": 49,
      "O": 50,
      "P": 51,
      "Q": 52,
      "R": 53,
      "S": 54,
      "T": 55,
      "U": 56,
      "V": 57,
      "W": 58,
      "X": 59,
      "Y": 60,
      "Z": 61,
      "[": 62,
      "\\": 63,
      "]": 64,
      "^": 65,
      "_": 66,
      "`": 67,
      "a": 68,
      "b": 69,
      "c": 70,
      "d": 71,
      "e": 72,
      "f": 73,
      "g": 74,
      "h": 75,
      "i": 76,
      "j": 77,
      "k": 78,
      "l": 79,
      "m": 80,
      "n": 81,
      "o": 82,
      "p": 83,
      "q": 84,
      "r": 85,
      "s": 86,
      "t": 87,
      "u": 88,
      "v": 89,
      "w": 90,
      "x": 91,
      "y": 92,
      "z": 93,
      "{": 94,
      "|": 95,
      "}": 96,
      "~": 97,
      "°": 98,
      "²": 99,
      "´": 100,
      "·": 101,
      "×": 102,
      "˂": 103,
      "˃": 104,
      "ˈ": 105,
      "ˊ": 106,
      "ˋ": 107,
      "̆": 108,
      "̈": 109,
      "̑": 110,
      "̣": 111,
      "̥": 112,
      "̫": 113,
      "̴": 114,
      "̵": 115,
      "̶": 116,
      "̷": 117,
      "͈": 118,
      "д": 119,
      "и": 120,
      "к": 121,
      "п": 122,
      "р": 123,
      "у": 124,
      "֊": 125,
      "ࡇ": 126,
      "ૢ": 127,
      "ෆ": 128,
      "๑": 129,
      "ლ": 130,
      "ღ": 131,
      "ᆢ": 132,
      "ᐟ": 133,
      "ᩚ": 134,
      "ᴗ": 135,
      "ᵒ": 136,
      "ᵕ": 137,
      "—": 138,
      "‘": 139,
      "’": 140,
      "“": 141,
      "”": 142,
      "•": 143,
      "…": 144,
      "‧": 145,
      "※": 146,
      "‿": 147,
      "⁎": 148,
      "⁺": 149,
      "₩": 150,
      "→": 151,
      "╹": 152,
      "■": 153,
      "▽": 154,
      "○": 155,
      "●": 156,
      "◟": 157,
      "◠": 158,
      "◡": 159,
      "★": 160,
      "☆": 161,
      "☜": 162,
      "☞": 163,
      "♡": 164,
      "♧": 165,
      "♩": 166,
      "♪": 167,
      "♬": 168,
      "《": 169,
      "》": 170,
      "ㄱ": 171,
      "ㄴ": 172,
      "ㄷ": 173,
      "ㄹ": 174,
      "ㅁ": 175,
      "ㅂ": 176,
      "ㅅ": 177,
      "ㅆ": 178,
      "ㅇ": 179,
      "ㅈ": 180,
      "ㅉ": 181,
      "ㅊ": 182,
      "ㅋ": 183,
      "ㅌ": 184,
      "ㅍ": 185,
      "ㅎ": 186,
      "ㅏ": 187,
      "ㅒ": 188,
      "ㅖ": 189,
      "ㅗ": 190,
      "ㅜ": 191,
      "ㅠ": 192,
      "ㅡ": 193,
      "ㆍ": 194,
      "㎡": 195,
      "乃": 196,
      "前": 197,
      "故": 198,
      "永": 199,
      "ꈍ": 200,
      "가": 201,
      "각": 202,
      "간": 203,
      "갇": 204,
      "갈": 205,
      "갉": 206,
      "갊": 207,
      "감": 208,
      "갑": 209,
      "값": 210,
      "갓": 211,
      "갔": 212,
      "강": 213,
      "갖": 214,
      "갗": 215,
      "같": 216,
      "갚": 217,
      "갛": 218,
      "개": 219,
      "객": 220,
      "갠": 221,
      "갤": 222,
      "갬": 223,
      "갭": 224,
      "갯": 225,
      "갰": 226,
      "갱": 227,
      "갸": 228,
      "갹": 229,
      "갼": 230,
      "걀": 231,
      "걋": 232,
      "걍": 233,
      "걔": 234,
      "걘": 235,
      "걜": 236,
      "거": 237,
      "걱": 238,
      "건": 239,
      "걷": 240,
      "걸": 241,
      "걺": 242,
      "검": 243,
      "겁": 244,
      "것": 245,
      "겄": 246,
      "겅": 247,
      "겆": 248,
      "겉": 249,
      "겊": 250,
      "겋": 251,
      "게": 252,
      "겐": 253,
      "겔": 254,
      "겜": 255,
      "겝": 256,
      "겟": 257,
      "겠": 258,
      "겡": 259,
      "겨": 260,
      "격": 261,
      "겪": 262,
      "견": 263,
      "겯": 264,
      "결": 265,
      "겸": 266,
      "겹": 267,
      "겻": 268,
      "겼": 269,
      "경": 270,
      "곁": 271,
      "계": 272,
      "곈": 273,
      "곌": 274,
      "곕": 275,
      "곗": 276,
      "고": 277,
      "곡": 278,
      "곤": 279,
      "곧": 280,
      "골": 281,
      "곪": 282,
      "곬": 283,
      "곯": 284,
      "곰": 285,
      "곱": 286,
      "곳": 287,
      "공": 288,
      "곶": 289,
      "과": 290,
      "곽": 291,
      "관": 292,
      "괄": 293,
      "괆": 294,
      "괌": 295,
      "괍": 296,
      "괏": 297,
      "광": 298,
      "괜": 299,
      "괭": 300,
      "괸": 301,
      "괼": 302,
      "굅": 303,
      "굇": 304,
      "굉": 305,
      "교": 306,
      "굔": 307,
      "굘": 308,
      "굡": 309,
      "굣": 310,
      "구": 311,
      "국": 312,
      "군": 313,
      "굳": 314,
      "굴": 315,
      "굵": 316,
      "굶": 317,
      "굻": 318,
      "굼": 319,
      "굽": 320,
      "굿": 321,
      "궁": 322,
      "궂": 323,
      "궉": 324,
      "권": 325,
      "궜": 326,
      "궤": 327,
      "궷": 328,
      "귀": 329,
      "귁": 330,
      "귄": 331,
      "귈": 332,
      "귐": 333,
      "귑": 334,
      "귓": 335,
      "규": 336,
      "균": 337,
      "귤": 338,
      "그": 339,
      "극": 340,
      "근": 341,
      "귿": 342,
      "글": 343,
      "긁": 344,
      "금": 345,
      "급": 346,
      "긋": 347,
      "긍": 348,
      "긔": 349,
      "기": 350,
      "긱": 351,
      "긴": 352,
      "긷": 353,
      "길": 354,
      "긺": 355,
      "김": 356,
      "깁": 357,
      "깃": 358,
      "깅": 359,
      "깆": 360,
      "깊": 361,
      "까": 362,
      "깍": 363,
      "깎": 364,
      "깐": 365,
      "깔": 366,
      "깖": 367,
      "깜": 368,
      "깝": 369,
      "깟": 370,
      "깠": 371,
      "깡": 372,
      "깥": 373,
      "깨": 374,
      "깩": 375,
      "깬": 376,
      "깰": 377,
      "깸": 378,
      "깹": 379,
      "깻": 380,
      "깼": 381,
      "깽": 382,
      "꺄": 383,
      "꺅": 384,
      "꺌": 385,
      "꺼": 386,
      "꺽": 387,
      "꺾": 388,
      "껀": 389,
      "껄": 390,
      "껌": 391,
      "껍": 392,
      "껏": 393,
      "껐": 394,
      "껑": 395,
      "께": 396,
      "껙": 397,
      "껜": 398,
      "껨": 399,
      "껫": 400,
      "껭": 401,
      "껴": 402,
      "껸": 403,
      "껼": 404,
      "꼇": 405,
      "꼈": 406,
      "꼍": 407,
      "꼐": 408,
      "꼬": 409,
      "꼭": 410,
      "꼰": 411,
      "꼲": 412,
      "꼴": 413,
      "꼼": 414,
      "꼽": 415,
      "꼿": 416,
      "꽁": 417,
      "꽂": 418,
      "꽃": 419,
      "꽈": 420,
      "꽉": 421,
      "꽐": 422,
      "꽜": 423,
      "꽝": 424,
      "꽤": 425,
      "꽥": 426,
      "꽹": 427,
      "꾀": 428,
      "꾄": 429,
      "꾈": 430,
      "꾐": 431,
      "꾕": 432,
      "꾜": 433,
      "꾸": 434,
      "꾹": 435,
      "꾼": 436,
      "꿀": 437,
      "꿇": 438,
      "꿈": 439,
      "꿉": 440,
      "꿋": 441,
      "꿍": 442,
      "꿎": 443,
      "꿔": 444,
      "꿜": 445,
      "꿨": 446,
      "꿩": 447,
      "꿰": 448,
      "꿱": 449,
      "꿴": 450,
      "꿸": 451,
      "뀀": 452,
      "뀁": 453,
      "뀄": 454,
      "뀌": 455,
      "뀐": 456,
      "뀔": 457,
      "뀜": 458,
      "뀝": 459,
      "뀨": 460,
      "끄": 461,
      "끅": 462,
      "끈": 463,
      "끊": 464,
      "끌": 465,
      "끎": 466,
      "끓": 467,
      "끔": 468,
      "끕": 469,
      "끗": 470,
      "끙": 471,
      "끝": 472,
      "끼": 473,
      "끽": 474,
      "낀": 475,
      "낄": 476,
      "낌": 477,
      "낍": 478,
      "낏": 479,
      "낑": 480,
      "나": 481,
      "낙": 482,
      "낚": 483,
      "난": 484,
      "낟": 485,
      "날": 486,
      "낡": 487,
      "낢": 488,
      "남": 489,
      "납": 490,
      "낫": 491,
      "났": 492,
      "낭": 493,
      "낮": 494,
      "낯": 495,
      "낱": 496,
      "낳": 497,
      "내": 498,
      "낵": 499,
      "낸": 500,
      "낼": 501,
      "냄": 502,
      "냅": 503,
      "냇": 504,
      "냈": 505,
      "냉": 506,
      "냐": 507,
      "냑": 508,
      "냔": 509,
      "냘": 510,
      "냠": 511,
      "냥": 512,
      "너": 513,
      "넉": 514,
      "넋": 515,
      "넌": 516,
      "널": 517,
      "넒": 518,
      "넓": 519,
      "넘": 520,
      "넙": 521,
      "넛": 522,
      "넜": 523,
      "넝": 524,
      "넣": 525,
      "네": 526,
      "넥": 527,
      "넨": 528,
      "넬": 529,
      "넴": 530,
      "넵": 531,
      "넷": 532,
      "넸": 533,
      "넹": 534,
      "녀": 535,
      "녁": 536,
      "년": 537,
      "녈": 538,
      "념": 539,
      "녑": 540,
      "녔": 541,
      "녕": 542,
      "녘": 543,
      "녜": 544,
      "녠": 545,
      "노": 546,
      "녹": 547,
      "논": 548,
      "놀": 549,
      "놂": 550,
      "놈": 551,
      "놉": 552,
      "놋": 553,
      "농": 554,
      "높": 555,
      "놓": 556,
      "놔": 557,
      "놘": 558,
      "놜": 559,
      "놨": 560,
      "뇜": 561,
      "뇟": 562,
      "뇨": 563,
      "뇩": 564,
      "뇬": 565,
      "뇰": 566,
      "뇹": 567,
      "뇻": 568,
      "뇽": 569,
      "누": 570,
      "눅": 571,
      "눈": 572,
      "눋": 573,
      "눌": 574,
      "눔": 575,
      "눕": 576,
      "눗": 577,
      "눙": 578,
      "눠": 579,
      "눴": 580,
      "눼": 581,
      "뉘": 582,
      "뉜": 583,
      "뉠": 584,
      "뉨": 585,
      "뉩": 586,
      "뉴": 587,
      "뉵": 588,
      "뉼": 589,
      "늄": 590,
      "늅": 591,
      "늉": 592,
      "느": 593,
      "늑": 594,
      "는": 595,
      "늘": 596,
      "늙": 597,
      "늚": 598,
      "늠": 599,
      "늡": 600,
      "늣": 601,
      "능": 602,
      "늦": 603,
      "늪": 604,
      "늬": 605,
      "늰": 606,
      "늴": 607,
      "니": 608,
      "닉": 609,
      "닌": 610,
      "닐": 611,
      "닒": 612,
      "님": 613,
      "닙": 614,
      "닛": 615,
      "닝": 616,
      "닢": 617,
      "다": 618,
      "닥": 619,
      "닦": 620,
      "단": 621,
      "닫": 622,
      "달": 623,
      "닭": 624,
      "닮": 625,
      "닯": 626,
      "닳": 627,
      "담": 628,
      "답": 629,
      "닷": 630,
      "닸": 631,
      "당": 632,
      "닺": 633,
      "닻": 634,
      "닿": 635,
      "대": 636,
      "댁": 637,
      "댄": 638,
      "댈": 639,
      "댐": 640,
      "댑": 641,
      "댓": 642,
      "댔": 643,
      "댕": 644,
      "댜": 645,
      "더": 646,
      "덕": 647,
      "덖": 648,
      "던": 649,
      "덛": 650,
      "덜": 651,
      "덞": 652,
      "덟": 653,
      "덤": 654,
      "덥": 655,
      "덧": 656,
      "덩": 657,
      "덫": 658,
      "덮": 659,
      "데": 660,
      "덱": 661,
      "덴": 662,
      "델": 663,
      "뎀": 664,
      "뎁": 665,
      "뎃": 666,
      "뎄": 667,
      "뎅": 668,
      "뎈": 669,
      "뎌": 670,
      "뎐": 671,
      "뎔": 672,
      "뎠": 673,
      "뎡": 674,
      "뎨": 675,
      "뎬": 676,
      "도": 677,
      "독": 678,
      "돈": 679,
      "돋": 680,
      "돌": 681,
      "돎": 682,
      "돐": 683,
      "돔": 684,
      "돕": 685,
      "돗": 686,
      "동": 687,
      "돛": 688,
      "돝": 689,
      "돼": 690,
      "됐": 691,
      "되": 692,
      "된": 693,
      "될": 694,
      "됨": 695,
      "됩": 696,
      "됫": 697,
      "됴": 698,
      "두": 699,
      "둑": 700,
      "둔": 701,
      "둘": 702,
      "둠": 703,
      "둡": 704,
      "둣": 705,
      "둥": 706,
      "둬": 707,
      "뒈": 708,
      "뒝": 709,
      "뒤": 710,
      "뒨": 711,
      "뒬": 712,
      "뒵": 713,
      "뒷": 714,
      "뒹": 715,
      "듀": 716,
      "듄": 717,
      "듈": 718,
      "듐": 719,
      "듕": 720,
      "드": 721,
      "득": 722,
      "든": 723,
      "듣": 724,
      "들": 725,
      "듦": 726,
      "듬": 727,
      "듭": 728,
      "듯": 729,
      "등": 730,
      "디": 731,
      "딕": 732,
      "딘": 733,
      "딛": 734,
      "딜": 735,
      "딤": 736,
      "딥": 737,
      "딧": 738,
      "딨": 739,
      "딩": 740,
      "딪": 741,
      "따": 742,
      "딱": 743,
      "딴": 744,
      "딸": 745,
      "땀": 746,
      "땁": 747,
      "땃": 748,
      "땄": 749,
      "땅": 750,
      "땋": 751,
      "때": 752,
      "땍": 753,
      "땐": 754,
      "땔": 755,
      "땜": 756,
      "땝": 757,
      "땟": 758,
      "땠": 759,
      "땡": 760,
      "떠": 761,
      "떡": 762,
      "떤": 763,
      "떨": 764,
      "떪": 765,
      "떫": 766,
      "떰": 767,
      "떱": 768,
      "떳": 769,
      "떴": 770,
      "떵": 771,
      "떻": 772,
      "떼": 773,
      "떽": 774,
      "뗀": 775,
      "뗄": 776,
      "뗌": 777,
      "뗍": 778,
      "뗏": 779,
      "뗐": 780,
      "뗑": 781,
      "뗘": 782,
      "뗬": 783,
      "또": 784,
      "똑": 785,
      "똔": 786,
      "똘": 787,
      "똥": 788,
      "똭": 789,
      "뙇": 790,
      "뙈": 791,
      "뙤": 792,
      "뙨": 793,
      "뚜": 794,
      "뚝": 795,
      "뚠": 796,
      "뚤": 797,
      "뚫": 798,
      "뚬": 799,
      "뚱": 800,
      "뛔": 801,
      "뛰": 802,
      "뛴": 803,
      "뛸": 804,
      "뜀": 805,
      "뜁": 806,
      "뜅": 807,
      "뜨": 808,
      "뜩": 809,
      "뜬": 810,
      "뜯": 811,
      "뜰": 812,
      "뜸": 813,
      "뜹": 814,
      "뜻": 815,
      "띈": 816,
      "띠": 817,
      "띤": 818,
      "띨": 819,
      "띰": 820,
      "띱": 821,
      "띳": 822,
      "띵": 823,
      "라": 824,
      "락": 825,
      "란": 826,
      "랄": 827,
      "람": 828,
      "랍": 829,
      "랏": 830,
      "랐": 831,
      "랑": 832,
      "랒": 833,
      "랖": 834,
      "랗": 835,
      "래": 836,
      "랙": 837,
      "랜": 838,
      "랠": 839,
      "램": 840,
      "랩": 841,
      "랫": 842,
      "랬": 843,
      "랭": 844,
      "랴": 845,
      "략": 846,
      "랸": 847,
      "럇": 848,
      "량": 849,
      "러": 850,
      "럭": 851,
      "런": 852,
      "럴": 853,
      "럼": 854,
      "럽": 855,
      "럿": 856,
      "렀": 857,
      "렁": 858,
      "렇": 859,
      "레": 860,
      "렉": 861,
      "렌": 862,
      "렐": 863,
      "렘": 864,
      "렙": 865,
      "렛": 866,
      "렝": 867,
      "려": 868,
      "력": 869,
      "련": 870,
      "렬": 871,
      "렴": 872,
      "렵": 873,
      "렷": 874,
      "렸": 875,
      "령": 876,
      "례": 877,
      "롄": 878,
      "롑": 879,
      "롓": 880,
      "로": 881,
      "록": 882,
      "론": 883,
      "롤": 884,
      "롬": 885,
      "롭": 886,
      "롯": 887,
      "롱": 888,
      "뢍": 889,
      "뢰": 890,
      "뢴": 891,
      "뢸": 892,
      "룃": 893,
      "료": 894,
      "룐": 895,
      "룔": 896,
      "룝": 897,
      "룟": 898,
      "룡": 899,
      "루": 900,
      "룩": 901,
      "룬": 902,
      "룰": 903,
      "룸": 904,
      "룹": 905,
      "룻": 906,
      "룽": 907,
      "뤠": 908,
      "뤼": 909,
      "뤽": 910,
      "륀": 911,
      "륄": 912,
      "륌": 913,
      "륏": 914,
      "륑": 915,
      "류": 916,
      "륙": 917,
      "륜": 918,
      "률": 919,
      "륨": 920,
      "륩": 921,
      "륫": 922,
      "륭": 923,
      "르": 924,
      "륵": 925,
      "른": 926,
      "를": 927,
      "름": 928,
      "릅": 929,
      "릇": 930,
      "릉": 931,
      "릊": 932,
      "릍": 933,
      "릎": 934,
      "리": 935,
      "릭": 936,
      "린": 937,
      "릴": 938,
      "림": 939,
      "립": 940,
      "릿": 941,
      "링": 942,
      "마": 943,
      "막": 944,
      "만": 945,
      "많": 946,
      "맏": 947,
      "말": 948,
      "맑": 949,
      "맒": 950,
      "맘": 951,
      "맙": 952,
      "맛": 953,
      "망": 954,
      "맞": 955,
      "맡": 956,
      "맣": 957,
      "매": 958,
      "맥": 959,
      "맨": 960,
      "맬": 961,
      "맴": 962,
      "맵": 963,
      "맷": 964,
      "맸": 965,
      "맹": 966,
      "맺": 967,
      "먀": 968,
      "먁": 969,
      "먈": 970,
      "먕": 971,
      "머": 972,
      "먹": 973,
      "먼": 974,
      "멀": 975,
      "멂": 976,
      "멈": 977,
      "멉": 978,
      "멋": 979,
      "멍": 980,
      "멎": 981,
      "멓": 982,
      "메": 983,
      "멕": 984,
      "멘": 985,
      "멜": 986,
      "멤": 987,
      "멥": 988,
      "멧": 989,
      "멨": 990,
      "멩": 991,
      "며": 992,
      "멱": 993,
      "면": 994,
      "멸": 995,
      "몃": 996,
      "몄": 997,
      "명": 998,
      "몇": 999,
      "몌": 1000,
      "모": 1001,
      "목": 1002,
      "몫": 1003,
      "몬": 1004,
      "몰": 1005,
      "몲": 1006,
      "몸": 1007,
      "몹": 1008,
      "못": 1009,
      "몽": 1010,
      "묘": 1011,
      "묜": 1012,
      "묠": 1013,
      "묩": 1014,
      "묫": 1015,
      "무": 1016,
      "묵": 1017,
      "묶": 1018,
      "문": 1019,
      "묻": 1020,
      "물": 1021,
      "묽": 1022,
      "묾": 1023,
      "뭄": 1024,
      "뭅": 1025,
      "뭇": 1026,
      "뭉": 1027,
      "뭍": 1028,
      "뭏": 1029,
      "뭐": 1030,
      "뭔": 1031,
      "뭘": 1032,
      "뭡": 1033,
      "뭣": 1034,
      "뭬": 1035,
      "뮈": 1036,
      "뮌": 1037,
      "뮐": 1038,
      "뮤": 1039,
      "뮨": 1040,
      "뮬": 1041,
      "뮴": 1042,
      "뮷": 1043,
      "므": 1044,
      "믄": 1045,
      "믈": 1046,
      "믐": 1047,
      "믓": 1048,
      "미": 1049,
      "믹": 1050,
      "민": 1051,
      "믿": 1052,
      "밀": 1053,
      "밂": 1054,
      "밈": 1055,
      "밉": 1056,
      "밋": 1057,
      "밌": 1058,
      "밍": 1059,
      "및": 1060,
      "밑": 1061,
      "바": 1062,
      "박": 1063,
      "밖": 1064,
      "밗": 1065,
      "반": 1066,
      "받": 1067,
      "발": 1068,
      "밝": 1069,
      "밞": 1070,
      "밟": 1071,
      "밤": 1072,
      "밥": 1073,
      "밧": 1074,
      "방": 1075,
      "밭": 1076,
      "배": 1077,
      "백": 1078,
      "밴": 1079,
      "밸": 1080,
      "뱀": 1081,
      "뱁": 1082,
      "뱃": 1083,
      "뱄": 1084,
      "뱅": 1085,
      "뱉": 1086,
      "뱌": 1087,
      "뱍": 1088,
      "뱐": 1089,
      "뱝": 1090,
      "버": 1091,
      "벅": 1092,
      "번": 1093,
      "벋": 1094,
      "벌": 1095,
      "벎": 1096,
      "범": 1097,
      "법": 1098,
      "벗": 1099,
      "벙": 1100,
      "벚": 1101,
      "베": 1102,
      "벡": 1103,
      "벤": 1104,
      "벧": 1105,
      "벨": 1106,
      "벰": 1107,
      "벱": 1108,
      "벳": 1109,
      "벴": 1110,
      "벵": 1111,
      "벼": 1112,
      "벽": 1113,
      "변": 1114,
      "별": 1115,
      "볍": 1116,
      "볏": 1117,
      "볐": 1118,
      "병": 1119,
      "볕": 1120,
      "볘": 1121,
      "볜": 1122,
      "보": 1123,
      "복": 1124,
      "볶": 1125,
      "본": 1126,
      "볼": 1127,
      "봄": 1128,
      "봅": 1129,
      "봇": 1130,
      "봉": 1131,
      "봐": 1132,
      "봔": 1133,
      "봤": 1134,
      "봬": 1135,
      "뵀": 1136,
      "뵐": 1137,
      "뵙": 1138,
      "뵤": 1139,
      "뵨": 1140,
      "부": 1141,
      "북": 1142,
      "분": 1143,
      "붇": 1144,
      "불": 1145,
      "붉": 1146,
      "붊": 1147,
      "붐": 1148,
      "붑": 1149,
      "붓": 1150,
      "붕": 1151,
      "붙": 1152,
      "붚": 1153,
      "붸": 1154,
      "뷔": 1155,
      "뷕": 1156,
      "뷘": 1157,
      "뷜": 1158,
      "뷩": 1159,
      "뷰": 1160,
      "뷴": 1161,
      "뷸": 1162,
      "븀": 1163,
      "븃": 1164,
      "븅": 1165,
      "브": 1166,
      "븍": 1167,
      "븐": 1168,
      "블": 1169,
      "븜": 1170,
      "븝": 1171,
      "븟": 1172,
      "비": 1173,
      "빅": 1174,
      "빈": 1175,
      "빌": 1176,
      "빎": 1177,
      "빔": 1178,
      "빕": 1179,
      "빗": 1180,
      "빙": 1181,
      "빚": 1182,
      "빛": 1183,
      "빠": 1184,
      "빡": 1185,
      "빤": 1186,
      "빨": 1187,
      "빪": 1188,
      "빰": 1189,
      "빱": 1190,
      "빳": 1191,
      "빴": 1192,
      "빵": 1193,
      "빻": 1194,
      "빼": 1195,
      "빽": 1196,
      "뺀": 1197,
      "뺄": 1198,
      "뺌": 1199,
      "뺍": 1200,
      "뺏": 1201,
      "뺐": 1202,
      "뺑": 1203,
      "뺘": 1204,
      "뺙": 1205,
      "뺨": 1206,
      "뻐": 1207,
      "뻑": 1208,
      "뻔": 1209,
      "뻗": 1210,
      "뻘": 1211,
      "뻠": 1212,
      "뻣": 1213,
      "뻤": 1214,
      "뻥": 1215,
      "뻬": 1216,
      "뼁": 1217,
      "뼈": 1218,
      "뼉": 1219,
      "뼘": 1220,
      "뼙": 1221,
      "뼛": 1222,
      "뼜": 1223,
      "뼝": 1224,
      "뽀": 1225,
      "뽁": 1226,
      "뽄": 1227,
      "뽈": 1228,
      "뽐": 1229,
      "뽑": 1230,
      "뽕": 1231,
      "뾰": 1232,
      "뿅": 1233,
      "뿌": 1234,
      "뿍": 1235,
      "뿐": 1236,
      "뿔": 1237,
      "뿜": 1238,
      "뿟": 1239,
      "뿡": 1240,
      "쀼": 1241,
      "쁑": 1242,
      "쁘": 1243,
      "쁜": 1244,
      "쁠": 1245,
      "쁨": 1246,
      "쁩": 1247,
      "삐": 1248,
      "삑": 1249,
      "삔": 1250,
      "삘": 1251,
      "삠": 1252,
      "삡": 1253,
      "삣": 1254,
      "삥": 1255,
      "사": 1256,
      "삭": 1257,
      "삯": 1258,
      "산": 1259,
      "삳": 1260,
      "살": 1261,
      "삵": 1262,
      "삶": 1263,
      "삼": 1264,
      "삽": 1265,
      "삿": 1266,
      "샀": 1267,
      "상": 1268,
      "샅": 1269,
      "새": 1270,
      "색": 1271,
      "샌": 1272,
      "샐": 1273,
      "샘": 1274,
      "샙": 1275,
      "샛": 1276,
      "샜": 1277,
      "생": 1278,
      "샤": 1279,
      "샥": 1280,
      "샨": 1281,
      "샬": 1282,
      "샴": 1283,
      "샵": 1284,
      "샷": 1285,
      "샹": 1286,
      "샾": 1287,
      "섀": 1288,
      "섄": 1289,
      "섈": 1290,
      "섐": 1291,
      "섕": 1292,
      "서": 1293,
      "석": 1294,
      "섞": 1295,
      "섟": 1296,
      "선": 1297,
      "섣": 1298,
      "설": 1299,
      "섦": 1300,
      "섧": 1301,
      "섬": 1302,
      "섭": 1303,
      "섯": 1304,
      "섰": 1305,
      "성": 1306,
      "섶": 1307,
      "세": 1308,
      "섹": 1309,
      "센": 1310,
      "셀": 1311,
      "셈": 1312,
      "셉": 1313,
      "셋": 1314,
      "셌": 1315,
      "셍": 1316,
      "셔": 1317,
      "셕": 1318,
      "션": 1319,
      "셜": 1320,
      "셤": 1321,
      "셥": 1322,
      "셧": 1323,
      "셨": 1324,
      "셩": 1325,
      "셰": 1326,
      "셴": 1327,
      "셸": 1328,
      "솅": 1329,
      "소": 1330,
      "속": 1331,
      "솎": 1332,
      "손": 1333,
      "솔": 1334,
      "솖": 1335,
      "솜": 1336,
      "솝": 1337,
      "솟": 1338,
      "송": 1339,
      "솥": 1340,
      "쇄": 1341,
      "쇈": 1342,
      "쇔": 1343,
      "쇘": 1344,
      "쇠": 1345,
      "쇤": 1346,
      "쇨": 1347,
      "쇰": 1348,
      "쇱": 1349,
      "쇳": 1350,
      "쇼": 1351,
      "쇽": 1352,
      "숀": 1353,
      "숄": 1354,
      "숌": 1355,
      "숍": 1356,
      "숏": 1357,
      "숑": 1358,
      "수": 1359,
      "숙": 1360,
      "순": 1361,
      "숟": 1362,
      "술": 1363,
      "숨": 1364,
      "숩": 1365,
      "숫": 1366,
      "숭": 1367,
      "숯": 1368,
      "숱": 1369,
      "숲": 1370,
      "쉐": 1371,
      "쉑": 1372,
      "쉔": 1373,
      "쉘": 1374,
      "쉠": 1375,
      "쉥": 1376,
      "쉬": 1377,
      "쉭": 1378,
      "쉰": 1379,
      "쉴": 1380,
      "쉼": 1381,
      "쉽": 1382,
      "쉿": 1383,
      "슁": 1384,
      "슈": 1385,
      "슉": 1386,
      "슐": 1387,
      "슘": 1388,
      "슛": 1389,
      "슝": 1390,
      "스": 1391,
      "슥": 1392,
      "슨": 1393,
      "슬": 1394,
      "슭": 1395,
      "슴": 1396,
      "습": 1397,
      "슷": 1398,
      "승": 1399,
      "시": 1400,
      "식": 1401,
      "신": 1402,
      "싣": 1403,
      "실": 1404,
      "싫": 1405,
      "심": 1406,
      "십": 1407,
      "싯": 1408,
      "싱": 1409,
      "싶": 1410,
      "싸": 1411,
      "싹": 1412,
      "싻": 1413,
      "싼": 1414,
      "쌀": 1415,
      "쌈": 1416,
      "쌉": 1417,
      "쌌": 1418,
      "쌍": 1419,
      "쌓": 1420,
      "쌔": 1421,
      "쌕": 1422,
      "쌘": 1423,
      "쌜": 1424,
      "쌤": 1425,
      "쌥": 1426,
      "쌨": 1427,
      "쌩": 1428,
      "썅": 1429,
      "써": 1430,
      "썩": 1431,
      "썬": 1432,
      "썰": 1433,
      "썲": 1434,
      "썸": 1435,
      "썹": 1436,
      "썼": 1437,
      "썽": 1438,
      "쎄": 1439,
      "쎈": 1440,
      "쎌": 1441,
      "쎕": 1442,
      "쏀": 1443,
      "쏘": 1444,
      "쏙": 1445,
      "쏜": 1446,
      "쏟": 1447,
      "쏠": 1448,
      "쏢": 1449,
      "쏨": 1450,
      "쏩": 1451,
      "쏭": 1452,
      "쐐": 1453,
      "쐤": 1454,
      "쐬": 1455,
      "쐰": 1456,
      "쐴": 1457,
      "쐼": 1458,
      "쐽": 1459,
      "쑈": 1460,
      "쑤": 1461,
      "쑥": 1462,
      "쑨": 1463,
      "쑬": 1464,
      "쑴": 1465,
      "쑵": 1466,
      "쑹": 1467,
      "쒜": 1468,
      "쒸": 1469,
      "쒼": 1470,
      "쓩": 1471,
      "쓰": 1472,
      "쓱": 1473,
      "쓴": 1474,
      "쓸": 1475,
      "쓺": 1476,
      "쓿": 1477,
      "씀": 1478,
      "씁": 1479,
      "씌": 1480,
      "씔": 1481,
      "씨": 1482,
      "씩": 1483,
      "씬": 1484,
      "씰": 1485,
      "씸": 1486,
      "씹": 1487,
      "씻": 1488,
      "씽": 1489,
      "아": 1490,
      "악": 1491,
      "안": 1492,
      "앉": 1493,
      "않": 1494,
      "알": 1495,
      "앍": 1496,
      "앎": 1497,
      "앓": 1498,
      "암": 1499,
      "압": 1500,
      "앗": 1501,
      "았": 1502,
      "앙": 1503,
      "앝": 1504,
      "앞": 1505,
      "애": 1506,
      "액": 1507,
      "앤": 1508,
      "앨": 1509,
      "앰": 1510,
      "앱": 1511,
      "앳": 1512,
      "앴": 1513,
      "앵": 1514,
      "야": 1515,
      "약": 1516,
      "얀": 1517,
      "얄": 1518,
      "얇": 1519,
      "얌": 1520,
      "얍": 1521,
      "얏": 1522,
      "양": 1523,
      "얕": 1524,
      "얗": 1525,
      "얘": 1526,
      "얜": 1527,
      "얠": 1528,
      "얩": 1529,
      "어": 1530,
      "억": 1531,
      "언": 1532,
      "얹": 1533,
      "얻": 1534,
      "얼": 1535,
      "얽": 1536,
      "얾": 1537,
      "엄": 1538,
      "업": 1539,
      "없": 1540,
      "엇": 1541,
      "었": 1542,
      "엉": 1543,
      "엊": 1544,
      "엌": 1545,
      "엎": 1546,
      "에": 1547,
      "엑": 1548,
      "엔": 1549,
      "엘": 1550,
      "엠": 1551,
      "엡": 1552,
      "엣": 1553,
      "엥": 1554,
      "여": 1555,
      "역": 1556,
      "엮": 1557,
      "연": 1558,
      "열": 1559,
      "엶": 1560,
      "엷": 1561,
      "염": 1562,
      "엽": 1563,
      "엾": 1564,
      "엿": 1565,
      "였": 1566,
      "영": 1567,
      "옅": 1568,
      "옆": 1569,
      "옇": 1570,
      "예": 1571,
      "옌": 1572,
      "옐": 1573,
      "옘": 1574,
      "옙": 1575,
      "옛": 1576,
      "옜": 1577,
      "오": 1578,
      "옥": 1579,
      "온": 1580,
      "올": 1581,
      "옭": 1582,
      "옮": 1583,
      "옰": 1584,
      "옳": 1585,
      "옴": 1586,
      "옵": 1587,
      "옷": 1588,
      "옹": 1589,
      "옻": 1590,
      "와": 1591,
      "왁": 1592,
      "완": 1593,
      "왈": 1594,
      "왐": 1595,
      "왑": 1596,
      "왓": 1597,
      "왔": 1598,
      "왕": 1599,
      "왜": 1600,
      "왝": 1601,
      "왠": 1602,
      "왤": 1603,
      "왬": 1604,
      "왯": 1605,
      "왱": 1606,
      "외": 1607,
      "왹": 1608,
      "왼": 1609,
      "욀": 1610,
      "욈": 1611,
      "욉": 1612,
      "욋": 1613,
      "욍": 1614,
      "요": 1615,
      "욕": 1616,
      "욘": 1617,
      "욜": 1618,
      "욤": 1619,
      "욥": 1620,
      "욧": 1621,
      "용": 1622,
      "우": 1623,
      "욱": 1624,
      "운": 1625,
      "울": 1626,
      "욹": 1627,
      "욺": 1628,
      "움": 1629,
      "웁": 1630,
      "웃": 1631,
      "웅": 1632,
      "워": 1633,
      "웍": 1634,
      "원": 1635,
      "월": 1636,
      "웜": 1637,
      "웝": 1638,
      "웠": 1639,
      "웡": 1640,
      "웨": 1641,
      "웩": 1642,
      "웬": 1643,
      "웰": 1644,
      "웸": 1645,
      "웹": 1646,
      "웽": 1647,
      "위": 1648,
      "윅": 1649,
      "윈": 1650,
      "윌": 1651,
      "윔": 1652,
      "윕": 1653,
      "윗": 1654,
      "윙": 1655,
      "유": 1656,
      "육": 1657,
      "윤": 1658,
      "율": 1659,
      "윰": 1660,
      "윱": 1661,
      "윳": 1662,
      "융": 1663,
      "윷": 1664,
      "으": 1665,
      "윽": 1666,
      "은": 1667,
      "을": 1668,
      "읊": 1669,
      "음": 1670,
      "읍": 1671,
      "읏": 1672,
      "응": 1673,
      "읒": 1674,
      "읓": 1675,
      "읔": 1676,
      "읕": 1677,
      "읖": 1678,
      "읗": 1679,
      "의": 1680,
      "읜": 1681,
      "읠": 1682,
      "읨": 1683,
      "읫": 1684,
      "이": 1685,
      "익": 1686,
      "인": 1687,
      "일": 1688,
      "읽": 1689,
      "읾": 1690,
      "잃": 1691,
      "임": 1692,
      "입": 1693,
      "잇": 1694,
      "있": 1695,
      "잉": 1696,
      "잊": 1697,
      "잎": 1698,
      "자": 1699,
      "작": 1700,
      "잔": 1701,
      "잖": 1702,
      "잗": 1703,
      "잘": 1704,
      "잚": 1705,
      "잠": 1706,
      "잡": 1707,
      "잣": 1708,
      "잤": 1709,
      "장": 1710,
      "잦": 1711,
      "재": 1712,
      "잭": 1713,
      "잰": 1714,
      "잴": 1715,
      "잼": 1716,
      "잽": 1717,
      "잿": 1718,
      "쟀": 1719,
      "쟁": 1720,
      "쟈": 1721,
      "쟉": 1722,
      "쟌": 1723,
      "쟎": 1724,
      "쟐": 1725,
      "쟘": 1726,
      "쟝": 1727,
      "쟤": 1728,
      "쟨": 1729,
      "쟬": 1730,
      "저": 1731,
      "적": 1732,
      "전": 1733,
      "절": 1734,
      "젊": 1735,
      "점": 1736,
      "접": 1737,
      "젓": 1738,
      "정": 1739,
      "젖": 1740,
      "제": 1741,
      "젝": 1742,
      "젠": 1743,
      "젤": 1744,
      "젬": 1745,
      "젭": 1746,
      "젯": 1747,
      "젱": 1748,
      "져": 1749,
      "젼": 1750,
      "졀": 1751,
      "졈": 1752,
      "졉": 1753,
      "졌": 1754,
      "졍": 1755,
      "졔": 1756,
      "조": 1757,
      "족": 1758,
      "존": 1759,
      "졸": 1760,
      "졺": 1761,
      "좀": 1762,
      "좁": 1763,
      "좃": 1764,
      "종": 1765,
      "좆": 1766,
      "좇": 1767,
      "좋": 1768,
      "좌": 1769,
      "좍": 1770,
      "좔": 1771,
      "좝": 1772,
      "좡": 1773,
      "좨": 1774,
      "좼": 1775,
      "죈": 1776,
      "죗": 1777,
      "죠": 1778,
      "죡": 1779,
      "죤": 1780,
      "죵": 1781,
      "주": 1782,
      "죽": 1783,
      "준": 1784,
      "줄": 1785,
      "줅": 1786,
      "줆": 1787,
      "줌": 1788,
      "줍": 1789,
      "줏": 1790,
      "중": 1791,
      "줬": 1792,
      "줴": 1793,
      "쥐": 1794,
      "쥑": 1795,
      "쥔": 1796,
      "쥘": 1797,
      "쥠": 1798,
      "쥡": 1799,
      "쥣": 1800,
      "쥬": 1801,
      "쥰": 1802,
      "쥴": 1803,
      "쥼": 1804,
      "즈": 1805,
      "즉": 1806,
      "즌": 1807,
      "즐": 1808,
      "즘": 1809,
      "즙": 1810,
      "즛": 1811,
      "증": 1812,
      "지": 1813,
      "직": 1814,
      "진": 1815,
      "짇": 1816,
      "질": 1817,
      "짊": 1818,
      "짐": 1819,
      "집": 1820,
      "짓": 1821,
      "징": 1822,
      "짖": 1823,
      "짙": 1824,
      "짚": 1825,
      "짜": 1826,
      "짝": 1827,
      "짠": 1828,
      "짢": 1829,
      "짤": 1830,
      "짧": 1831,
      "짬": 1832,
      "짭": 1833,
      "짯": 1834,
      "짰": 1835,
      "짱": 1836,
      "째": 1837,
      "짹": 1838,
      "짼": 1839,
      "쨀": 1840,
      "쨈": 1841,
      "쨉": 1842,
      "쨋": 1843,
      "쨌": 1844,
      "쨍": 1845,
      "쨔": 1846,
      "쨘": 1847,
      "쨩": 1848,
      "쩌": 1849,
      "쩍": 1850,
      "쩐": 1851,
      "쩔": 1852,
      "쩜": 1853,
      "쩝": 1854,
      "쩟": 1855,
      "쩠": 1856,
      "쩡": 1857,
      "쩨": 1858,
      "쩽": 1859,
      "쪄": 1860,
      "쪘": 1861,
      "쪼": 1862,
      "쪽": 1863,
      "쫀": 1864,
      "쫄": 1865,
      "쫌": 1866,
      "쫍": 1867,
      "쫏": 1868,
      "쫑": 1869,
      "쫒": 1870,
      "쫓": 1871,
      "쫘": 1872,
      "쫙": 1873,
      "쫠": 1874,
      "쫴": 1875,
      "쬈": 1876,
      "쬐": 1877,
      "쬔": 1878,
      "쬘": 1879,
      "쬠": 1880,
      "쬡": 1881,
      "쭁": 1882,
      "쭈": 1883,
      "쭉": 1884,
      "쭌": 1885,
      "쭐": 1886,
      "쭘": 1887,
      "쭙": 1888,
      "쭝": 1889,
      "쭤": 1890,
      "쭸": 1891,
      "쭹": 1892,
      "쮜": 1893,
      "쮸": 1894,
      "쯔": 1895,
      "쯤": 1896,
      "쯧": 1897,
      "쯩": 1898,
      "찌": 1899,
      "찍": 1900,
      "찐": 1901,
      "찔": 1902,
      "찜": 1903,
      "찝": 1904,
      "찡": 1905,
      "찢": 1906,
      "찧": 1907,
      "차": 1908,
      "착": 1909,
      "찬": 1910,
      "찮": 1911,
      "찰": 1912,
      "참": 1913,
      "찹": 1914,
      "찻": 1915,
      "찼": 1916,
      "창": 1917,
      "찾": 1918,
      "채": 1919,
      "책": 1920,
      "챈": 1921,
      "챌": 1922,
      "챔": 1923,
      "챕": 1924,
      "챗": 1925,
      "챘": 1926,
      "챙": 1927,
      "챠": 1928,
      "챤": 1929,
      "챦": 1930,
      "챨": 1931,
      "챰": 1932,
      "챵": 1933,
      "처": 1934,
      "척": 1935,
      "천": 1936,
      "철": 1937,
      "첨": 1938,
      "첩": 1939,
      "첫": 1940,
      "첬": 1941,
      "청": 1942,
      "체": 1943,
      "첵": 1944,
      "첸": 1945,
      "첼": 1946,
      "쳄": 1947,
      "쳅": 1948,
      "쳇": 1949,
      "쳉": 1950,
      "쳐": 1951,
      "쳔": 1952,
      "쳤": 1953,
      "쳬": 1954,
      "쳰": 1955,
      "촁": 1956,
      "초": 1957,
      "촉": 1958,
      "촌": 1959,
      "촐": 1960,
      "촘": 1961,
      "촙": 1962,
      "촛": 1963,
      "총": 1964,
      "촤": 1965,
      "촬": 1966,
      "촹": 1967,
      "최": 1968,
      "쵝": 1969,
      "쵠": 1970,
      "쵤": 1971,
      "쵬": 1972,
      "쵭": 1973,
      "쵯": 1974,
      "쵱": 1975,
      "쵸": 1976,
      "춈": 1977,
      "추": 1978,
      "축": 1979,
      "춘": 1980,
      "출": 1981,
      "춤": 1982,
      "춥": 1983,
      "춧": 1984,
      "충": 1985,
      "춰": 1986,
      "췄": 1987,
      "췌": 1988,
      "췐": 1989,
      "취": 1990,
      "췬": 1991,
      "췰": 1992,
      "췸": 1993,
      "췹": 1994,
      "췻": 1995,
      "췽": 1996,
      "츄": 1997,
      "츈": 1998,
      "츌": 1999,
      "츔": 2000,
      "츙": 2001,
      "츠": 2002,
      "측": 2003,
      "츤": 2004,
      "츨": 2005,
      "츰": 2006,
      "츱": 2007,
      "츳": 2008,
      "층": 2009,
      "치": 2010,
      "칙": 2011,
      "친": 2012,
      "칟": 2013,
      "칠": 2014,
      "칡": 2015,
      "침": 2016,
      "칩": 2017,
      "칫": 2018,
      "칭": 2019,
      "카": 2020,
      "칵": 2021,
      "칸": 2022,
      "칼": 2023,
      "캄": 2024,
      "캅": 2025,
      "캇": 2026,
      "캉": 2027,
      "캐": 2028,
      "캑": 2029,
      "캔": 2030,
      "캘": 2031,
      "캠": 2032,
      "캡": 2033,
      "캣": 2034,
      "캤": 2035,
      "캥": 2036,
      "캬": 2037,
      "캭": 2038,
      "컁": 2039,
      "커": 2040,
      "컥": 2041,
      "컨": 2042,
      "컫": 2043,
      "컬": 2044,
      "컴": 2045,
      "컵": 2046,
      "컷": 2047,
      "컸": 2048,
      "컹": 2049,
      "케": 2050,
      "켁": 2051,
      "켄": 2052,
      "켈": 2053,
      "켐": 2054,
      "켑": 2055,
      "켓": 2056,
      "켕": 2057,
      "켜": 2058,
      "켠": 2059,
      "켤": 2060,
      "켬": 2061,
      "켭": 2062,
      "켯": 2063,
      "켰": 2064,
      "켱": 2065,
      "켸": 2066,
      "코": 2067,
      "콕": 2068,
      "콘": 2069,
      "콜": 2070,
      "콤": 2071,
      "콥": 2072,
      "콧": 2073,
      "콩": 2074,
      "콰": 2075,
      "콱": 2076,
      "콴": 2077,
      "콸": 2078,
      "쾀": 2079,
      "쾅": 2080,
      "쾌": 2081,
      "쾡": 2082,
      "쾨": 2083,
      "쾰": 2084,
      "쿄": 2085,
      "쿠": 2086,
      "쿡": 2087,
      "쿤": 2088,
      "쿨": 2089,
      "쿰": 2090,
      "쿱": 2091,
      "쿳": 2092,
      "쿵": 2093,
      "쿼": 2094,
      "퀀": 2095,
      "퀄": 2096,
      "퀑": 2097,
      "퀘": 2098,
      "퀭": 2099,
      "퀴": 2100,
      "퀵": 2101,
      "퀸": 2102,
      "퀼": 2103,
      "큄": 2104,
      "큅": 2105,
      "큇": 2106,
      "큉": 2107,
      "큐": 2108,
      "큔": 2109,
      "큘": 2110,
      "큠": 2111,
      "크": 2112,
      "큭": 2113,
      "큰": 2114,
      "클": 2115,
      "큼": 2116,
      "큽": 2117,
      "킁": 2118,
      "키": 2119,
      "킥": 2120,
      "킨": 2121,
      "킬": 2122,
      "킴": 2123,
      "킵": 2124,
      "킷": 2125,
      "킹": 2126,
      "타": 2127,
      "탁": 2128,
      "탄": 2129,
      "탈": 2130,
      "탉": 2131,
      "탐": 2132,
      "탑": 2133,
      "탓": 2134,
      "탔": 2135,
      "탕": 2136,
      "태": 2137,
      "택": 2138,
      "탠": 2139,
      "탤": 2140,
      "탬": 2141,
      "탭": 2142,
      "탯": 2143,
      "탰": 2144,
      "탱": 2145,
      "탸": 2146,
      "턍": 2147,
      "터": 2148,
      "턱": 2149,
      "턴": 2150,
      "털": 2151,
      "턺": 2152,
      "텀": 2153,
      "텁": 2154,
      "텃": 2155,
      "텄": 2156,
      "텅": 2157,
      "테": 2158,
      "텍": 2159,
      "텐": 2160,
      "텔": 2161,
      "템": 2162,
      "텝": 2163,
      "텟": 2164,
      "텡": 2165,
      "텨": 2166,
      "텬": 2167,
      "텼": 2168,
      "톄": 2169,
      "톈": 2170,
      "토": 2171,
      "톡": 2172,
      "톤": 2173,
      "톨": 2174,
      "톰": 2175,
      "톱": 2176,
      "톳": 2177,
      "통": 2178,
      "톺": 2179,
      "퇘": 2180,
      "퇴": 2181,
      "퇸": 2182,
      "툇": 2183,
      "툉": 2184,
      "툐": 2185,
      "투": 2186,
      "툭": 2187,
      "툰": 2188,
      "툴": 2189,
      "툼": 2190,
      "툽": 2191,
      "툿": 2192,
      "퉁": 2193,
      "퉈": 2194,
      "퉜": 2195,
      "퉤": 2196,
      "퉷": 2197,
      "튀": 2198,
      "튁": 2199,
      "튄": 2200,
      "튈": 2201,
      "튐": 2202,
      "튑": 2203,
      "튕": 2204,
      "튜": 2205,
      "튠": 2206,
      "튤": 2207,
      "튬": 2208,
      "튱": 2209,
      "트": 2210,
      "특": 2211,
      "튼": 2212,
      "튿": 2213,
      "틀": 2214,
      "틂": 2215,
      "틈": 2216,
      "틉": 2217,
      "틋": 2218,
      "틔": 2219,
      "티": 2220,
      "틱": 2221,
      "틴": 2222,
      "틸": 2223,
      "팀": 2224,
      "팁": 2225,
      "팃": 2226,
      "팅": 2227,
      "파": 2228,
      "팍": 2229,
      "팎": 2230,
      "판": 2231,
      "팔": 2232,
      "팖": 2233,
      "팜": 2234,
      "팝": 2235,
      "팟": 2236,
      "팠": 2237,
      "팡": 2238,
      "팥": 2239,
      "패": 2240,
      "팩": 2241,
      "팬": 2242,
      "팰": 2243,
      "팸": 2244,
      "팹": 2245,
      "팻": 2246,
      "팼": 2247,
      "팽": 2248,
      "퍄": 2249,
      "퍅": 2250,
      "퍼": 2251,
      "퍽": 2252,
      "펀": 2253,
      "펄": 2254,
      "펌": 2255,
      "펍": 2256,
      "펏": 2257,
      "펐": 2258,
      "펑": 2259,
      "페": 2260,
      "펙": 2261,
      "펜": 2262,
      "펠": 2263,
      "펨": 2264,
      "펩": 2265,
      "펫": 2266,
      "펭": 2267,
      "펴": 2268,
      "편": 2269,
      "펼": 2270,
      "폄": 2271,
      "폅": 2272,
      "폈": 2273,
      "평": 2274,
      "폐": 2275,
      "폘": 2276,
      "폡": 2277,
      "폣": 2278,
      "포": 2279,
      "폭": 2280,
      "폰": 2281,
      "폴": 2282,
      "폼": 2283,
      "폽": 2284,
      "폿": 2285,
      "퐁": 2286,
      "퐈": 2287,
      "퐝": 2288,
      "푄": 2289,
      "표": 2290,
      "푠": 2291,
      "푤": 2292,
      "푭": 2293,
      "푯": 2294,
      "푸": 2295,
      "푹": 2296,
      "푼": 2297,
      "푿": 2298,
      "풀": 2299,
      "풂": 2300,
      "품": 2301,
      "풉": 2302,
      "풋": 2303,
      "풍": 2304,
      "퓌": 2305,
      "퓐": 2306,
      "퓔": 2307,
      "퓜": 2308,
      "퓟": 2309,
      "퓨": 2310,
      "퓬": 2311,
      "퓰": 2312,
      "퓸": 2313,
      "퓻": 2314,
      "퓽": 2315,
      "프": 2316,
      "픈": 2317,
      "플": 2318,
      "픔": 2319,
      "픕": 2320,
      "픗": 2321,
      "피": 2322,
      "픽": 2323,
      "핀": 2324,
      "필": 2325,
      "핌": 2326,
      "핍": 2327,
      "핏": 2328,
      "핑": 2329,
      "하": 2330,
      "학": 2331,
      "한": 2332,
      "할": 2333,
      "핥": 2334,
      "함": 2335,
      "합": 2336,
      "핫": 2337,
      "항": 2338,
      "해": 2339,
      "핵": 2340,
      "핸": 2341,
      "핼": 2342,
      "햄": 2343,
      "햅": 2344,
      "햇": 2345,
      "했": 2346,
      "행": 2347,
      "햐": 2348,
      "향": 2349,
      "허": 2350,
      "헉": 2351,
      "헌": 2352,
      "헐": 2353,
      "헒": 2354,
      "험": 2355,
      "헙": 2356,
      "헛": 2357,
      "헝": 2358,
      "헤": 2359,
      "헥": 2360,
      "헨": 2361,
      "헬": 2362,
      "헴": 2363,
      "헵": 2364,
      "헷": 2365,
      "헹": 2366,
      "혀": 2367,
      "혁": 2368,
      "현": 2369,
      "혈": 2370,
      "혐": 2371,
      "협": 2372,
      "혓": 2373,
      "혔": 2374,
      "형": 2375,
      "혜": 2376,
      "혠": 2377,
      "혤": 2378,
      "혭": 2379,
      "호": 2380,
      "혹": 2381,
      "혼": 2382,
      "홀": 2383,
      "홅": 2384,
      "홈": 2385,
      "홉": 2386,
      "홋": 2387,
      "홍": 2388,
      "홑": 2389,
      "화": 2390,
      "확": 2391,
      "환": 2392,
      "활": 2393,
      "홧": 2394,
      "황": 2395,
      "홰": 2396,
      "홱": 2397,
      "홴": 2398,
      "횃": 2399,
      "횅": 2400,
      "회": 2401,
      "획": 2402,
      "횐": 2403,
      "횔": 2404,
      "횝": 2405,
      "횟": 2406,
      "횡": 2407,
      "효": 2408,
      "횬": 2409,
      "횰": 2410,
      "횹": 2411,
      "횻": 2412,
      "후": 2413,
      "훅": 2414,
      "훈": 2415,
      "훌": 2416,
      "훑": 2417,
      "훔": 2418,
      "훗": 2419,
      "훙": 2420,
      "훤": 2421,
      "훨": 2422,
      "훼": 2423,
      "훽": 2424,
      "휀": 2425,
      "휄": 2426,
      "휑": 2427,
      "휘": 2428,
      "휙": 2429,
      "휜": 2430,
      "휠": 2431,
      "휨": 2432,
      "휩": 2433,
      "휫": 2434,
      "휭": 2435,
      "휴": 2436,
      "휵": 2437,
      "휸": 2438,
      "휼": 2439,
      "흄": 2440,
      "흇": 2441,
      "흉": 2442,
      "흐": 2443,
      "흑": 2444,
      "흔": 2445,
      "흖": 2446,
      "흗": 2447,
      "흘": 2448,
      "흙": 2449,
      "흠": 2450,
      "흡": 2451,
      "흣": 2452,
      "흥": 2453,
      "흩": 2454,
      "희": 2455,
      "흰": 2456,
      "흴": 2457,
      "흼": 2458,
      "흽": 2459,
      "힁": 2460,
      "히": 2461,
      "힉": 2462,
      "힌": 2463,
      "힐": 2464,
      "힘": 2465,
      "힙": 2466,
      "힛": 2467,
      "힝": 2468,
      "힣": 2469,
      "..": 2470,
      "!!": 2471,
      "뉘댜": 2472,
      "...": 2473,
      "ㅋㅋ": 2474,
      "뉘타": 2475,
      "뉘따": 2476,
      "좋았": 2477,
      "ㅎㅎ": 2478,
      "효텔": 2479,
      "~~": 2480,
      "^^": 2481,
      "학교": 2482,
      "00": 2483,
      "좋앝": 2484,
      "효뗄": 2485,
      "ㅠㅠ": 2486,
      "한눈": 2487,
      "씁뉘": 2488,
      "넒뮤": 2489,
      "념뮤": 2490,
      "좋앗": 2491,
      "학꼬": 2492,
      "좋야": 2493,
      "눈뒈": 2494,
      "학코": 2495,
      "좋운": 2496,
      "눈뎨": 2497,
      "눈테": 2498,
      "눈떼": 2499,
      "10": 2500,
      "좋교": 2501,
      "합뉘": 2502,
      "좋얏": 2503,
      "한는": 2504,
      "눼오": 2505,
      "녀뮤": 2506,
      "숩뉘": 2507,
      "햐교": 2508,
      "녜오": 2509,
      "위옹": 2510,
      "는뒈": 2511,
      "췬졀": 2512,
      "여오": 2513,
      "!!!": 2514,
      "는뎨": 2515,
      "있눈": 2516,
      "얘악": 2517,
      "찐졀": 2518,
      "씁뉘댜": 2519,
      "좋은": 2520,
      "췬젊": 2521,
      "졍먈": 2522,
      "옇헹": 2523,
      "췬쩔": 2524,
      "찐철": 2525,
      "는테": 2526,
      "찐젊": 2527,
      "서오": 2528,
      "는떼": 2529,
      "좋얕": 2530,
      "TV": 2531,
      "찐쩔": 2532,
      "췬철": 2533,
      "췬절": 2534,
      "합뉘댜": 2535,
      "찐절": 2536,
      "ㅋㅋㅋㅋ": 2537,
      "햐꼬": 2538,
      "잇눈": 2539,
      "20": 2540,
      "많죡": 2541,
      "방뮨": 2542,
      "팡뮨": 2543,
      "함먼": 2544,
      "숩뉘댜": 2545,
      "좋코": 2546,
      "좋햐": 2547,
      "....": 2548,
      "위용": 2549,
      "000": 2550,
      "좋꼬": 2551,
      "햐코": 2552,
      "잊눈": 2553,
      "햐눈": 2554,
      "씁뉘타": 2555,
      "얾쩡": 2556,
      "뉘탸": 2557,
      "니댜": 2558,
      "닒댜": 2559,
      "짊많": 2560,
      "씁뉘따": 2561,
      "닐댜": 2562,
      "30": 2563,
      "있는": 2564,
      ":)": 2565,
      "얘약": 2566,
      "칼끎": 2567,
      "빵뮨": 2568,
      "좋훈": 2569,
      "좋흖": 2570,
      "ㅜㅜ": 2571,
      "닙댜": 2572,
      "쥑언": 2573,
      "닢댜": 2574,
      "닉댜": 2575,
      "방문": 2576,
      "화쟝": 2577,
      "님댜": 2578,
      "닌댜": 2579,
      "염쩡": 2580,
      "묘텔": 2581,
      "옇행": 2582,
      "졍맑": 2583,
      "많촉": 2584,
      "엣셔": 2585,
      "엣써": 2586,
      ").": 2587,
      "쩡먈": 2588,
      "칼큼": 2589,
      "쥠많": 2590,
      "꺌끎": 2591,
      "옛셔": 2592,
      "청먈": 2593,
      "1쯩": 2594,
      "쥐많": 2595,
      "닝댜": 2596,
      "닛댜": 2597,
      "학꾜": 2598,
      "햐는": 2599,
      "써오": 2600,
      "울료": 2601,
      "학쿄": 2602,
      "옛써": 2603,
      "많쪽": 2604,
      "졍맒": 2605,
      "잊는": 2606,
      "헷써": 2607,
      "ㅋㅋㅋ": 2608,
      "100": 2609,
      "엘립": 2610,
      "객쉴": 2611,
      "좋숩": 2612,
      "함면": 2613,
      "숲뉘": 2614,
      "??": 2615,
      "슉쇼": 2616,
      "좋씁": 2617,
      "합뉘타": 2618,
      "꺌꿈": 2619,
      "숲뉘댜": 2620,
      "칼꿈": 2621,
      "슉쏘": 2622,
      "침많": 2623,
      "1충": 2624,
      "쑥쇼": 2625,
      "쟝뉨": 2626,
      "12": 2627,
      "묘뗄": 2628,
      "찜많": 2629,
      "객씰": 2630,
      "쎄오": 2631,
      "우료": 2632,
      "찍언": 2633,
      "합뉘따": 2634,
      "칙언": 2635,
      "!!!!": 2636,
      "첵끄": 2637,
      "첵쿠": 2638,
      "헤오": 2639,
      "니따": 2640,
      "읊료": 2641,
      "잇는": 2642,
      "좋움": 2643,
      "캑끝": 2644,
      "꺌큼": 2645,
      "쑥쏘": 2646,
      "쥔쨔": 2647,
      "청맒": 2648,
      "했써": 2649,
      "만죡": 2650,
      "빵문": 2651,
      "쟝닒": 2652,
      "쥠만": 2653,
      "헤윤": 2654,
      "엾눈": 2655,
      "츄쳔": 2656,
      "헷셔": 2657,
      "닙따": 2658,
      "닢타": 2659,
      "윕뉘": 2660,
      "학궤": 2661,
      "니타": 2662,
      "숩뉘타": 2663,
      "잎뉘": 2664,
      "짊만": 2665,
      "11": 2666,
      "만촉": 2667,
      "15": 2668,
      "닒따": 2669,
      "캑꿋": 2670,
      "팡문": 2671,
      "한냐": 2672,
      "닌따": 2673,
      "완젼": 2674,
      "쩡맒": 2675,
      "학계": 2676,
      "했셔": 2677,
      "깔끎": 2678,
      "략교": 2679,
      "많한": 2680,
      "싸람": 2681,
      "쌩갹": 2682,
      "찌많": 2683,
      "쩡쇼": 2684,
      "펜선": 2685,
      "셩뷔": 2686,
      "청맑": 2687,
      "치많": 2688,
      "헤써": 2689,
      "객싫": 2690,
      "깖꿈": 2691,
      "쑵뉘": 2692,
      "쩡결": 2693,
      "쭈쩐": 2694,
      "깖끎": 2695,
      "깖큼": 2696,
      "님따": 2697,
      "셔오": 2698,
      "썽뷔": 2699,
      "쥑원": 2700,
      "팡위": 2701,
      "슈엉": 2702,
      "닒타": 2703,
      "닛따": 2704,
      "닛타": 2705,
      "숩뉘따": 2706,
      "콴뤼": 2707,
      "갹걱": 2708,
      "눈톄": 2709,
      "닉타": 2710,
      "눈뛔": 2711,
      "닝타": 2712,
      "펜션": 2713,
      "학께": 2714,
      "슈옇": 2715,
      "쥐만": 2716,
      "닉따": 2717,
      "윕뉘댜": 2718,
      "쩡맑": 2719,
      ",,": 2720,
      "눈퉤": 2721,
      "닝따": 2722,
      "댜움": 2723,
      "쉰눈": 2724,
      "죠쉭": 2725,
      "홅텔": 2726,
      "럼한": 2727,
      "먼써": 2728,
      "샤람": 2729,
      "쥬챠": 2730,
      "찜데": 2731,
      "찜만": 2732,
      "헤셔": 2733,
      "넴쌔": 2734,
      "관뤼": 2735,
      "닐따": 2736,
      "쑤옇": 2737,
      "~~~": 2738,
      "껙꿋": 2739,
      "닢따": 2740,
      "쩡쏘": 2741,
      "쭈쳔": 2742,
      "화창": 2743,
      "좋야오": 2744,
      "광얀": 2745,
      "닌타": 2746,
      "닙타": 2747,
      "쌀람": 2748,
      "윗눈": 2749,
      "괜챦": 2750,
      "껙끝": 2751,
      "있여": 2752,
      "화짱": 2753,
      "완쩐": 2754,
      "쥬짜": 2755,
      "호텔": 2756,
      "혼텔": 2757,
      "빵위": 2758,
      "셰오": 2759,
      "님타": 2760,
      "만쪽": 2761,
      "만한": 2762,
      "먼셔": 2763,
      "방움": 2764,
      "얾청": 2765,
      "잎뉘댜": 2766,
      "쩡걸": 2767,
      "췌약": 2768,
      "췸데": 2769,
      "학케": 2770,
      "홀텔": 2771,
      "깔꿈": 2772,
      "졍됴": 2773,
      "쬐교": 2774,
      "창닒": 2775,
      "홉텔": 2776,
      "~!": 2777,
      "닐타": 2778,
      "염청": 2779,
      "좋숲": 2780,
      "쬐약": 2781,
      "갹격": 2782,
      "괜짢": 2783,
      "깩씰": 2784,
      "단눈": 2785,
      "방위": 2786,
      "힐륑": 2787,
      "ㅎㅎㅎ": 2788,
      "깩쉴": 2789,
      "네오": 2790,
      "엿써": 2791,
      "캑쉴": 2792,
      "홈텔": 2793,
      "5썽": 2794,
      "~^^": 2795,
      "웨셔": 2796,
      "찍원": 2797,
      "캐꿋": 2798,
      "핫씨": 2799,
      "햐오": 2800,
      "홍텔": 2801,
      "--": 2802,
      "야찜": 2803,
      "예셔": 2804,
      "윈떼": 2805,
      "윌랴": 2806,
      "만위": 2807,
      "뵤댜": 2808,
      "짱뉨": 2809,
      "호뗄": 2810,
      "5셩": 2811,
      "뷴둘": 2812,
      "찐쨔": 2813,
      "친젊": 2814,
      "침만": 2815,
      "카쥐": 2816,
      "함머": 2817,
      "깔큼": 2818,
      "많휘": 2819,
      "빻뮨": 2820,
      "윈눈": 2821,
      "츄쩐": 2822,
      "캑씰": 2823,
      "좋음": 2824,
      "쾅얀": 2825,
      "햐먼": 2826,
      "얘오": 2827,
      "짱닒": 2828,
      "창뉨": 2829,
      "친쨔": 2830,
      "펀함": 2831,
      "핫씩": 2832,
      "햐쿄": 2833,
      "혹텔": 2834,
      "씻셜": 2835,
      "옹할": 2836,
      "죠씩": 2837,
      "칙원": 2838,
      "했씁": 2839,
      "헤운": 2840,
      "홑텔": 2841,
      "깩싫": 2842,
      "서써": 2843,
      "슉밗": 2844,
      "욧선": 2845,
      "한뉘": 2846,
      "핫쉬": 2847,
      "홋뗄": 2848,
      "홋텔": 2849,
      "꽝얀": 2850,
      "딴눈": 2851,
      "삶람": 2852,
      "쉿셜": 2853,
      "잇교": 2854,
      "쥔차": 2855,
      "꺄쥐": 2856,
      "께끝": 2857,
      "랴윤": 2858,
      "서셔": 2859,
      "서요": 2860,
      "엎눈": 2861,
      "엿셔": 2862,
      "쫏씩": 2863,
      "팡움": 2864,
      "000언": 2865,
      "★★": 2866,
      "닉꺄": 2867,
      "부갸": 2868,
      "쉿썰": 2869,
      "옻선": 2870,
      "완천": 2871,
      "죠옹": 2872,
      "캑싫": 2873,
      "혹뗄": 2874,
      "홀뗄": 2875,
      "셩피": 2876,
      "여요": 2877,
      "쟝씰": 2878,
      "촛쉭": 2879,
      "씁뉘탸": 2880,
      "뉩댜": 2881,
      "뷴들": 2882,
      "샬람": 2883,
      "예써": 2884,
      "옹햐": 2885,
      "있교": 2886,
      "핫씬": 2887,
      "갼눙": 2888,
      "삵람": 2889,
      "섕갹": 2890,
      "썽삐": 2891,
      "웨써": 2892,
      "좋쿄": 2893,
      "캐끝": 2894,
      "),": 2895,
      "☆☆": 2896,
      "눅뀜": 2897,
      "쑵뉘댜": 2898,
      "씨셜": 2899,
      "야오": 2900,
      "옻션": 2901,
      "움씩": 2902,
      "친차": 2903,
      "홉뗄": 2904,
      "셍갹": 2905,
      "썽피": 2906,
      "어헹": 2907,
      "엉쟝": 2908,
      "쟝쉴": 2909,
      "좋훔": 2910,
      "칵격": 2911,
      "햐쥐": 2912,
      "홑뗄": 2913,
      "객실": 2914,
      "댜음": 2915,
      "뷴듦": 2916,
      "셩삐": 2917,
      "씨썰": 2918,
      "야췸": 2919,
      "예악": 2920,
      "예오": 2921,
      "움쉭": 2922,
      "쩡껼": 2923,
      "치만": 2924,
      "했숩": 2925,
      "숲뉘따": 2926,
      "쉐오": 2927,
      "음쉭": 2928,
      "쥑건": 2929,
      "촛씩": 2930,
      "췌교": 2931,
      "타움": 2932,
      "햇씁": 2933,
      "24": 2934,
      "괜찬": 2935,
      "쉭교": 2936,
      "좇쉭": 2937,
      "햐께": 2938,
      ";;": 2939,
      "껙쿳": 2940,
      "샤옹": 2941,
      "씩갼": 2942,
      "잎뉘타": 2943,
      "초씩": 2944,
      "하교": 2945,
      "한떼": 2946,
      "홍뗄": 2947,
      "ㅡㅡ": 2948,
      "군낭": 2949,
      "넬오": 2950,
      "넴섀": 2951,
      "댜룬": 2952,
      "람먼": 2953,
      "략꼬": 2954,
      "면써": 2955,
      "슉뱍": 2956,
      "엔눈": 2957,
      "잇여": 2958,
      "좋울": 2959,
      "쩡켤": 2960,
      "혼뗄": 2961,
      "홅뗄": 2962,
      "2윈": 2963,
      "께꿋": 2964,
      "눅킴": 2965,
      "는뛔": 2966,
      "뤽교": 2967,
      "많언": 2968,
      "요선": 2969,
      "쥔눈": 2970,
      "쳐움": 2971,
      "깍걱": 2972,
      "넒묽": 2973,
      "쉭갼": 2974,
      "습뉘": 2975,
      "싣셜": 2976,
      "쌩칵": 2977,
      "인눈": 2978,
      "쟝위": 2979,
      "좇씩": 2980,
      "청결": 2981,
      "퇴여": 2982,
      "햇써": 2983,
      "휠륑": 2984,
      "깸삥": 2985,
      "냄쌔": 2986,
      "는퉤": 2987,
      "략코": 2988,
      "룐투": 2989,
      "싸옹": 2990,
      "쌩깍": 2991,
      "씻섧": 2992,
      "윈테": 2993,
      "윕뉘타": 2994,
      "죠흖": 2995,
      "찐차": 2996,
      "찜태": 2997,
      "캑끗": 2998,
      "좋았씁": 2999,
      "괜챤": 3000,
      "랸눈": 3001,
      "륀눈": 3002,
      "메유": 3003,
      "분눈": 3004,
      "쉬셜": 3005,
      "쉬썰": 3006,
      "윗는": 3007,
      "좋눼": 3008,
      "좋핫": 3009,
      "쫏쉭": 3010,
      "찌만": 3011,
      "친쩔": 3012,
      "칵걱": 3013,
      "캑쿳": 3014,
      "쾅앉": 3015,
      "탄눈": 3016,
      "햐댜": 3017,
      "갸걱": 3018,
      "께쿳": 3019,
      "넒문": 3020,
      "녜요": 3021,
      "랴교": 3022,
      "쏘움": 3023,
      "억귀": 3024,
      "업눈": 3025,
      "윌렇": 3026,
      "잊여": 3027,
      "쭈챠": 3028,
      "췸많": 3029,
      "좋햐오": 3030,
      "갸격": 3031,
      "깩실": 3032,
      "뙤여": 3033,
      "뵤타": 3034,
      "쏜뉨": 3035,
      "윕뉘따": 3036,
      "툿슉": 3037,
      "편함": 3038,
      "한댜": 3039,
      "했눈": 3040,
      "확윈": 3041,
      "2쯩": 3042,
      "깍격": 3043,
      "넴오": 3044,
      "락교": 3045,
      "쇼움": 3046,
      "숄뤼": 3047,
      "쑥밗": 3048,
      "얏쉽": 3049,
      "위랴": 3050,
      "윈는": 3051,
      "윈텔": 3052,
      "잊교": 3053,
      "좋쑵": 3054,
      "찜때": 3055,
      "청쏘": 3056,
      "친절": 3057,
      "칼쿰": 3058,
      "탁교": 3059,
      "학귀": 3060,
      "000원": 3061,
      "1밗": 3062,
      "꽝않": 3063,
      "넒물": 3064,
      "넒뭅": 3065,
      "넴세": 3066,
      "닮많": 3067,
      "돼여": 3068,
      "된눈": 3069,
      "립뉘": 3070,
      "많쿰": 3071,
      "부까": 3072,
      "뷴틀": 3073,
      "숲뉘타": 3074,
      "어셔": 3075,
      "요션": 3076,
      "웰립": 3077,
      "위눈": 3078,
      "좆씩": 3079,
      "쥑얹": 3080,
      "챵뮨": 3081,
      "췸태": 3082,
      "친졀": 3083,
      "팡음": 3084,
      "?)": 3085,
      "견뮬": 3086,
      "깥운": 3087,
      "따움": 3088,
      "먀움": 3089,
      "별료": 3090,
      "씬눈": 3091,
      "어써": 3092,
      "위찌": 3093,
      "음씩": 3094,
      "있꼬": 3095,
      "있씁": 3096,
      "짱위": 3097,
      "청쇼": 3098,
      "캐쿳": 3099,
      "켐삥": 3100,
      "펀한": 3101,
      "합뉘탸": 3102,
      ".)": 3103,
      "1뱍": 3104,
      "22": 3105,
      "넒뭍": 3106,
      "넥오": 3107,
      "린눈": 3108,
      "방음": 3109,
      "어오": 3110,
      "욧션": 3111,
      "있였": 3112,
      "젼맣": 3113,
      "좆쉭": 3114,
      "짱뮨": 3115,
      "쬐악": 3116,
      "철렴": 3117,
      "초쉭": 3118,
      "햐꾜": 3119,
      "ㅠㅠㅠ": 3120,
      "2충": 3121,
      "40": 3122,
      "꺄찌": 3123,
      "넵오": 3124,
      "니탸": 3125,
      "딸룬": 3126,
      "뱌료": 3127,
      "싣섦": 3128,
      "싣썰": 3129,
      "씻섦": 3130,
      "씻썰": 3131,
      "얏쒸": 3132,
      "엘뤼": 3133,
      "위였": 3134,
      "위취": 3135,
      "있코": 3136,
      "쟝실": 3137,
      "젼먕": 3138,
      "쩔렴": 3139,
      "쳐음": 3140,
      "친철": 3141,
      "쾅않": 3142,
      "펀햐": 3143,
      "괸짠": 3144,
      "괸짢": 3145,
      "괸챦": 3146,
      "꽝앉": 3147,
      "넷오": 3148,
      "념묶": 3149,
      "는톄": 3150,
      "멘뉘": 3151,
      "묘듀": 3152,
      "셍칵": 3153,
      "쉰는": 3154,
      "쑥뱍": 3155,
      "욘눈": 3156,
      "쥑퀀": 3157,
      "쩌움": 3158,
      "찐눈": 3159,
      "청걸": 3160,
      "추챠": 3161,
      "췸때": 3162,
      "캐끗": 3163,
      "타음": 3164,
      "견묾": 3165,
      "광앉": 3166,
      "넒뭄": 3167,
      "뉜댜": 3168,
      "뉠댜": 3169,
      "댜눈": 3170,
      "락코": 3171,
      "룐뜨": 3172,
      "뤼교": 3173,
      "빨료": 3174,
      "쀼갸": 3175,
      "얀네": 3176,
      "용할": 3177,
      "윈뎨": 3178,
      "윈쥐": 3179,
      "잎뉘따": 3180,
      "쟝싫": 3181,
      "졍또": 3182,
      "좋꾜": 3183,
      "찍갸": 3184,
      "탄는": 3185,
      "팔료": 3186,
      "학곳": 3187,
      "합닙": 3188,
      "핫쉭": 3189,
      "넒묶": 3190,
      "넒뭏": 3191,
      "넴쌕": 3192,
      "념뭍": 3193,
      "둘위": 3194,
      "듦위": 3195,
      "많위": 3196,
      "묫한": 3197,
      "쉿섦": 3198,
      "옹핥": 3199,
      "잇였": 3200,
      "있움": 3201,
      "쩌음": 3202,
      "쪼쉭": 3203,
      "찍건": 3204,
      "췌꼬": 3205,
      "쿠윈": 3206,
      "툿쑥": 3207,
      "햐쉬": 3208,
      "혹깡": 3209,
      "숩뉘탸": 3210,
      "23": 3211,
      "깐눈": 3212,
      "꺄치": 3213,
      "누뀜": 3214,
      "닮먼": 3215,
      "뵤따": 3216,
      "뷰샨": 3217,
      "뷴뜰": 3218,
      "븃샨": 3219,
      "슉팍": 3220,
      "야쉽": 3221,
      "웨오": 3222,
      "윈뒈": 3223,
      "윈찌": 3224,
      "윌련": 3225,
      "졍토": 3226,
      "췌악": 3227,
      "퓬눈": 3228,
      "한뎨": 3229,
      "합닉": 3230,
      "햇눈": 3231,
      "햐냐": 3232,
      "곗쇽": 3233,
      "광않": 3234,
      "괸찬": 3235,
      "군쳐": 3236,
      "넒묵": 3237,
      "넒묻": 3238,
      "넹오": 3239,
      "념물": 3240,
      "눼요": 3241,
      "단는": 3242,
      "렇께": 3243,
      "릭교": 3244,
      "얀뉘": 3245,
      "용한": 3246,
      "위떠": 3247,
      "좋앙": 3248,
      "췌코": 3249,
      "췸규": 3250,
      "펀했": 3251,
      "펜썬": 3252,
      "학끼": 3253,
      "했눈테": 3254,
      "했눈떼": 3255,
      "혹컁": 3256,
      "홈뗄": 3257,
      "50": 3258,
      "끄윈": 3259,
      "넒묾": 3260,
      "념뭄": 3261,
      "렇케": 3262,
      "방욺": 3263,
      "쉭깐": 3264,
      "쑵뉘타": 3265,
      "야윳": 3266,
      "엾는": 3267,
      "옜써": 3268,
      "오쩡": 3269,
      "옥쟝": 3270,
      "위뜨": 3271,
      "잊코": 3272,
      "좋악": 3273,
      "쥐건": 3274,
      "쪼씩": 3275,
      "쬐꼬": 3276,
      "쭈짜": 3277,
      "창쉴": 3278,
      "창위": 3279,
      "탈룬": 3280,
      "탬뮨": 3281,
      "펀위": 3282,
      "했눈뒈": 3283,
      "햐케": 3284,
      "췬졀핫": 3285,
      "첵끄윈": 3286,
      "갊샤": 3287,
      "공갼": 3288,
      "깖쿰": 3289,
      "꺌쿰": 3290,
      "껙끗": 3291,
      "넴섹": 3292,
      "념묵": 3293,
      "념묾": 3294,
      "녜욕": 3295,
      "뉨댜": 3296,
      "뗌뮨": 3297,
      "뜨윈": 3298,
      "람면": 3299,
      "릭갸": 3300,
      "뮤엿": 3301,
      "빵음": 3302,
      "쑥팍": 3303,
      "얀뉜": 3304,
      "여욜": 3305,
      "여욥": 3306,
      "옥씰": 3307,
      "옮먼": 3308,
      "윗샹": 3309,
      "인떼": 3310,
      "쥐눈": 3311,
      "캬윤": 3312,
      "푼둘": 3313,
      "한변": 3314,
      "합닌": 3315,
      "구련": 3316,
      "넛뮤": 3317,
      "넨오": 3318,
      "념묻": 3319,
      "뒈여": 3320,
      "렇궤": 3321,
      "부됴": 3322,
      "습뉘댜": 3323,
      "씁닌": 3324,
      "어행": 3325,
      "왔써": 3326,
      "잇꼬": 3327,
      "좋앎": 3328,
      "쩡됴": 3329,
      "찜규": 3330,
      "취많": 3331,
      "카찌": 3332,
      "칸눙": 3333,
      "팡운": 3334,
      "학키": 3335,
      "헤아": 3336,
      "췬졀햐": 3337,
      "화쟝씰": 3338,
      "구낭": 3339,
      "냔방": 3340,
      "넒뭇": 3341,
      "넒뭉": 3342,
      "넸오": 3343,
      "넹쟝": 3344,
      "눼욜": 3345,
      "닉카": 3346,
      "댜욺": 3347,
      "들위": 3348,
      "따음": 3349,
      "랴운": 3350,
      "려윤": 3351,
      "묘둔": 3352,
      "뷴위": 3353,
      "쉬섧": 3354,
      "쏘뤼": 3355,
      "씁님": 3356,
      "왔셔": 3357,
      "윌런": 3358,
      "잇움": 3359,
      "잊얻": 3360,
      "잊엊": 3361,
      "좋암": 3362,
      "좋흠": 3363,
      "펀뤼": 3364,
      "합닛": 3365,
      "햇숩": 3366,
      "효떼": 3367,
      "휼룽": 3368,
      "19": 3369,
      "갼눈": 3370,
      "군쩌": 3371,
      "념문": 3372,
      "념뭅": 3373,
      "녜욤": 3374,
      "늑킴": 3375,
      "닥교": 3376,
      "델륑": 3377,
      "랴꼬": 3378,
      "뤽갸": 3379,
      "면셔": 3380,
      "부카": 3381,
      "빵움": 3382,
      "샤어": 3383,
      "샤쥔": 3384,
      "서용": 3385,
      "셔셔": 3386,
      "쇼뤼": 3387,
      "쉿섧": 3388,
      "슉빡": 3389,
      "써써": 3390,
      "야웃": 3391,
      "억끼": 3392,
      "여욧": 3393,
      "옌눈": 3394,
      "웬눈": 3395,
      "좋안": 3396,
      "좋앍": 3397,
      "죠훈": 3398,
      "친눈": 3399,
      "탁갸": 3400,
      "투윈": 3401,
      "펀학": 3402,
      "편학": 3403,
      "첵쿠윈": 3404,
      "2인": 3405,
      "깩끝": 3406,
      "깸핑": 3407,
      "께끗": 3408,
      "녜욧": 3409,
      "눼욥": 3410,
      "닳룬": 3411,
      "딱교": 3412,
      "렇계": 3413,
      "뤽코": 3414,
      "많원": 3415,
      "묵였": 3416,
      "받댜": 3417,
      "섕칵": 3418,
      "싸쥔": 3419,
      "쑥쑈": 3420,
      "쑵뉘따": 3421,
      "씁니": 3422,
      "씨갼": 3423,
      "씨섦": 3424,
      "씬는": 3425,
      "앉뉘": 3426,
      "야쒸": 3427,
      "얀닌": 3428,
      "여용": 3429,
      "엾교": 3430,
      "옐립": 3431,
      "옥죠": 3432,
      "위련": 3433,
      "있엊": 3434,
      "젼화": 3435,
      "좋댜": 3436,
      "좋씁뉘": 3437,
      "짱문": 3438,
      "쩌렴": 3439,
      "찍퀀": 3440,
      "췸만": 3441,
      "칙건": 3442,
      "카치": 3443,
      "캅뉘": 3444,
      "포댜": 3445,
      "푸땁": 3446,
      "퓨갸": 3447,
      "퓨까": 3448,
      "할류": 3449,
      "햐계": 3450,
      "햐치": 3451,
      "좋았숩": 3452,
      "괸챤": 3453,
      "껀뮬": 3454,
      "냔한": 3455,
      "념뮨": 3456,
      "녜욜": 3457,
      "닿황": 3458,
      "댈료": 3459,
      "됨먼": 3460,
      "따눈": 3461,
      "뤽꼬": 3462,
      "만휘": 3463,
      "벌료": 3464,
      "뷰싼": 3465,
      "사어": 3466,
      "숀닒": 3467,
      "씁닉": 3468,
      "야쥬": 3469,
      "었써": 3470,
      "엾위": 3471,
      "옹한": 3472,
      "완쳔": 3473,
      "좋압": 3474,
      "좋욺": 3475,
      "쬐코": 3476,
      "칙얹": 3477,
      "카격": 3478,
      "콩갼": 3479,
      "타룬": 3480,
      "탸오": 3481,
      "편한": 3482,
      "편했": 3483,
      "한뒈": 3484,
      "햐궤": 3485,
      "2밗": 3486,
      "넌뮤": 3487,
      "뉠따": 3488,
      "닯룬": 3489,
      "됩뉘": 3490,
      "따오": 3491,
      "뤼눈": 3492,
      "만언": 3493,
      "많족": 3494,
      "맛있": 3495,
      "받닥": 3496,
      "빵운": 3497,
      "뿐듦": 3498,
      "쀼카": 3499,
      "샹때": 3500,
      "셍깍": 3501,
      "얻오": 3502,
      "었셔": 3503,
      "예약": 3504,
      "욤먼": 3505,
      "위텨": 3506,
      "을료": 3507,
      "잇코": 3508,
      "잊였": 3509,
      "좋읊": 3510,
      "캑꿎": 3511,
      "탈른": 3512,
      "편위": 3513,
      "핥류": 3514,
      "함케": 3515,
      "합닝": 3516,
      "햇셔": 3517,
      "햇눈뒈": 3518,
      "햐면": 3519,
      "위옹할": 3520,
      "찐졀햐": 3521,
      "화쟝쉴": 3522,
      "3윌": 3523,
      "곗쏙": 3524,
      "깐는": 3525,
      "깩꿋": 3526,
      "넒뮨": 3527,
      "넜뮤": 3528,
      "녀묶": 3529,
      "눼욕": 3530,
      "뉜타": 3531,
      "뉨타": 3532,
      "뉩따": 3533,
      "딱코": 3534,
      "랴코": 3535,
      "방운": 3536,
      "붙샨": 3537,
      "빻위": 3538,
      "쇼음": 3539,
      "썬오": 3540,
      "쏠뤼": 3541,
      "쑤엉": 3542,
      "씁닛": 3543,
      "씨섧": 3544,
      "앉았": 3545,
      "업는": 3546,
      "여욕": 3547,
      "엶쩡": 3548,
      "예눈": 3549,
      "옥실": 3550,
      "웨눈": 3551,
      "윗쌩": 3552,
      "졍말": 3553,
      "직언": 3554,
      "청켤": 3555,
      "푸싼": 3556,
      "푼듦": 3557,
      "합닢": 3558,
      "핫쎄": 3559,
      "휼륭": 3560,
      "(?)": 3561,
      "**": 3562,
      "괜짠": 3563,
      "군냥": 3564,
      "넋뮤": 3565,
      "넓뮤": 3566,
      "념뭏": 3567,
      "녜욥": 3568,
      "놓교": 3569,
      "닐탸": 3570,
      "닒탸": 3571,
      "닥꼬": 3572,
      "레됴": 3573,
      "론뜨": 3574,
      "릭꼬": 3575,
      "많훈": 3576,
      "븃싼": 3577,
      "뽀함": 3578,
      "뿐둘": 3579,
      "뿐들": 3580,
      "쉬섦": 3581,
      "싣섧": 3582,
      "쌍때": 3583,
      "써셔": 3584,
      "썹오": 3585,
      "씁닝": 3586,
      "얀햐": 3587,
      "얹오": 3588,
      "옜셔": 3589,
      "옥쉴": 3590,
      "옥싫": 3591,
      "옹했": 3592,
      "욕교": 3593,
      "있얻": 3594,
      "잊꼬": 3595,
      "젼허": 3596,
      "창씰": 3597,
      "추짜": 3598,
      "칸눈": 3599,
      "캑실": 3600,
      "푼틀": 3601,
      "퓨카": 3602,
      "학골": 3603,
      "한퉤": 3604,
      "했뎐": 3605,
      "화쨩": 3606,
      "18": 3607,
      "1빡": 3608,
      "1팍": 3609,
      "4썽": 3610,
      "4윈": 3611,
      "까걱": 3612,
      "깝뉘": 3613,
      "눼용": 3614,
      "늑뀜": 3615,
      "닙탸": 3616,
      "닮만": 3617,
      "딱갸": 3618,
      "땀먼": 3619,
      "뙨눈": 3620,
      "룐눈": 3621,
      "뤽까": 3622,
      "립뉘댜": 3623,
      "만운": 3624,
      "분는": 3625,
      "씨는": 3626,
      "씩교": 3627,
      "않앗": 3628,
      "야추": 3629,
      "없오": 3630,
      "엇오": 3631,
      "엎오": 3632,
      "여써": 3633,
      "움먼": 3634,
      "위서": 3635,
      "위투": 3636,
      "윗썼": 3637,
      "윤데": 3638,
      "읾랴": 3639,
      "잃랴": 3640,
      "죠햐": 3641,
      "쥐퀀": 3642,
      "쩡걺": 3643,
      "청됴": 3644,
      "쳐렴": 3645,
      "췬눈": 3646,
      "칙퀀": 3647,
      "토한": 3648,
      "팡은": 3649,
      "합님댜": 3650,
      "효톄": 3651,
      "==": 3652,
      "군썽": 3653,
      "냄섀": 3654,
      "냔빵": 3655,
      "넉뮤": 3656,
      "넙뮤": 3657,
      "녀물": 3658,
      "녜욘": 3659,
      "눼욤": 3660,
      "따룬": 3661,
      "딴는": 3662,
      "뜰위": 3663,
      "많햐": 3664,
      "묘뚜": 3665,
      "묘뜬": 3666,
      "뿐틀": 3667,
      "서욤": 3668,
      "셔써": 3669,
      "쉼먼": 3670,
      "싸쟝뉨": 3671,
      "쌍테": 3672,
      "씩깐": 3673,
      "야뉘": 3674,
      "역껀": 3675,
      "옛악": 3676,
      "온눈": 3677,
      "왓써": 3678,
      "욜레": 3679,
      "욤면": 3680,
      "웬는": 3681,
      "웰뤼": 3682,
      "윈뗄": 3683,
      "윤엉": 3684,
      "인뎨": 3685,
      "읽랴": 3686,
      "있댜": 3687,
      "좋알": 3688,
      "좋앓": 3689,
      "청껼": 3690,
      "청토": 3691,
      "친는": 3692,
      "킨눈": 3693,
      "틋한": 3694,
      "펼료": 3695,
      "표함": 3696,
      "학곡": 3697,
      "학공": 3698,
      "햇눈뎨": 3699,
      "했숲": 3700,
      "했눈뎨": 3701,
      "햐머": 3702,
      "1쭝": 3703,
      "까격": 3704,
      "꺄윤": 3705,
      "껙꿎": 3706,
      "납프": 3707,
      "녀뭏": 3708,
      "뉩타": 3709,
      "닥코": 3710,
      "듦뤼": 3711,
      "려었": 3712,
      "륀는": 3713,
      "맛짚": 3714,
      "받타": 3715,
      "붇싼": 3716,
      "빻문": 3717,
      "뽀댜": 3718,
      "샤쟝뉨": 3719,
      "샨짹": 3720,
      "셩위": 3721,
      "쉬갼": 3722,
      "싸찐": 3723,
      "썲오": 3724,
      "쏜닒": 3725,
      "씁닢": 3726,
      "씩칸": 3727,
      "씸먼": 3728,
      "았쒸": 3729,
      "얽오": 3730,
      "엊오": 3731,
      "엎는": 3732,
      "역귀": 3733,
      "역키": 3734,
      "욘는": 3735,
      "용핥": 3736,
      "운냐": 3737,
      "윕취": 3738,
      "윗찌": 3739,
      "잇얻": 3740,
      "쟝운": 3741,
      "적윈": 3742,
      "짱싫": 3743,
      "챵문": 3744,
      "크련": 3745,
      "핏수": 3746,
      "할교": 3747,
      "해오": 3748,
      "확인": 3749,
      "힐링": 3750,
      ".....": 3751,
      "~~~~": 3752,
      "화쟝싫": 3753,
      "14": 3754,
      "28": 3755,
      "5뷴": 3756,
      "귀눈": 3757,
      "긁련": 3758,
      "깩쿳": 3759,
      "끄련": 3760,
      "냐왔": 3761,
      "널뮤": 3762,
      "넘뮤": 3763,
      "넝뮤": 3764,
      "녀묽": 3765,
      "념뭇": 3766,
      "누킴": 3767,
      "눼욧": 3768,
      "닮면": 3769,
      "댜른": 3770,
      "딱꼬": 3771,
      "락꼬": 3772,
      "란눈": 3773,
      "만족": 3774,
      "붇샨": 3775,
      "섯써": 3776,
      "쉭칸": 3777,
      "썬눈": 3778,
      "않았": 3779,
      "엌오": 3780,
      "엾음": 3781,
      "옌악": 3782,
      "위썼": 3783,
      "윈톄": 3784,
      "잃련": 3785,
      "있숩": 3786,
      "젼활": 3787,
      "좋앉": 3788,
      "좋않": 3789,
      "쪼옹": 3790,
      "충예": 3791,
      "켑슐": 3792,
      "탐먼": 3793,
      "학곬": 3794,
      "핥꼬": 3795,
      "함교": 3796,
      "핫셨": 3797,
      "핫쉰": 3798,
      "햐귀": 3799,
      "향샹": 3800,
      "휠링": 3801,
      "----": 3802,
      "2뱍": 3803,
      "갚뉘": 3804,
      "교오": 3805,
      "껙씰": 3806,
      "난눈": 3807,
      "냐왓": 3808,
      "녀묵": 3809,
      "념묽": 3810,
      "념뭉": 3811,
      "눼욘": 3812,
      "뉨따": 3813,
      "댜교": 3814,
      "데한": 3815,
      "된는": 3816,
      "론투": 3817,
      "뤼꼬": 3818,
      "뤼여": 3819,
      "많흖": 3820,
      "먀음": 3821,
      "방됴": 3822,
      "뷔쓰": 3823,
      "빵은": 3824,
      "뿟싼": 3825,
      "서욥": 3826,
      "섯셔": 3827,
      "쑥빡": 3828,
      "쒸댜": 3829,
      "안았": 3830,
      "야위": 3831,
      "여욤": 3832,
      "요먼": 3833,
      "욺료": 3834,
      "윌탄": 3835,
      "윤옇": 3836,
      "음먼": 3837,
      "잇엊": 3838,
      "있엇": 3839,
      "좋하": 3840,
      "쩐화": 3841,
      "쮸쩐": 3842,
      "첵꾸": 3843,
      "췻쏘": 3844,
      "캅뉘댜": 3845,
      "펀햇": 3846,
      "푼들": 3847,
      "풋싼": 3848,
      "학곱": 3849,
      "학곶": 3850,
      "핫교": 3851,
      "핫셧": 3852,
      "..!": 3853,
      "16": 3854,
      "25": 3855,
      "갊먼": 3856,
      "껙쉴": 3857,
      "냄세": 3858,
      "냄쌕": 3859,
      "녀문": 3860,
      "녀묾": 3861,
      "념무": 3862,
      "녜용": 3863,
      "뉠랴": 3864,
      "닭룬": 3865,
      "뙨는": 3866,
      "랸는": 3867,
      "립뉘타": 3868,
      "못한": 3869,
      "밞료": 3870,
      "빛쓰": 3871,
      "빵읊": 3872,
      "쀼됴": 3873,
      "샤찐": 3874,
      "샹테": 3875,
      "샹황": 3876,
      "서욘": 3877,
      "솖뤼": 3878,
      "숀뉨": 3879,
      "숩님": 3880,
      "숩닢": 3881,
      "쉭닿": 3882,
      "싯셜": 3883,
      "싶운": 3884,
      "싼첵": 3885,
      "써요": 3886,
      "씁닙": 3887,
      "씬켱": 3888,
      "않뉘": 3889,
      "여셔": 3890,
      "우먼": 3891,
      "인테": 3892,
      "읾련": 3893,
      "입옹": 3894,
      "있엿": 3895,
      "쟝젊": 3896,
      "좋앞": 3897,
      "좋한": 3898,
      "쥐햐": 3899,
      "쩐맣": 3900,
      "쩡쑈": 3901,
      "초옹": 3902,
      "췬쨔": 3903,
      "켁꿋": 3904,
      "타눈": 3905,
      "탸윌": 3906,
      "퇸눈": 3907,
      "포따": 3908,
      "학곪": 3909,
      "학곯": 3910,
      "학굡": 3911,
      "합닒댜": 3912,
      "핫써": 3913,
      "햐씨": 3914,
      "횹텔": 3915,
      "..?": 3916,
      "좋야요": 3917,
      "ㅋㅋㅋㅋㅋㅋㅋㅋ": 3918,
      "1윈": 3919,
      "2빡": 3920,
      "갹컥": 3921,
      "귁갸": 3922,
      "규오": 3923,
      "까윤": 3924,
      "넒무": 3925,
      "넣뮤": 3926,
      "녀뭉": 3927,
      "놓휴": 3928,
      "닛쓰": 3929,
      "닥갸": 3930,
      "됩뉘댜": 3931,
      "렴한": 3932,
      "뤽카": 3933,
      "먈할": 3934,
      "방예": 3935,
      "방울": 3936,
      "붙싼": 3937,
      "빵울": 3938,
      "뿌샨": 3939,
      "쀼눈": 3940,
      "살람": 3941,
      "섕깍": 3942,
      "서욜": 3943,
      "션눈": 3944,
      "쉭꼬": 3945,
      "싸쟝닒": 3946,
      "썩오": 3947,
      "썽오": 3948,
      "씩닿": 3949,
      "악칸": 3950,
      "앝쒸": 3951,
      "억오": 3952,
      "업교": 3953,
      "욕쟝": 3954,
      "윙찌": 3955,
      "잊댜": 3956,
      "짱씰": 3957,
      "쩔럼": 3958,
      "쪼훈": 3959,
      "쮜많": 3960,
      "첵갸": 3961,
      "칟됴": 3962,
      "캐꿎": 3963,
      "탁꼬": 3964,
      "편뤼": 3965,
      "편햇": 3966,
      "편햐": 3967,
      "푼위": 3968,
      "학곤": 3969,
      "한뻔": 3970,
      "한톄": 3971,
      "합니": 3972,
      "합님": 3973,
      "햇는": 3974,
      "햇는뒈": 3975,
      "했는": 3976,
      "찐쩔햐": 3977,
      "4셩": 3978,
      "곪빵": 3979,
      "구냥": 3980,
      "구렇": 3981,
      "깥은": 3982,
      "널교": 3983,
      "넓교": 3984,
      "뉠타": 3985,
      "능한": 3986,
      "데료": 3987,
      "델료": 3988,
      "둘뤼": 3989,
      "땀많": 3990,
      "똥위": 3991,
      "랴눈": 3992,
      "멱읊": 3993,
      "받따": 3994,
      "뵨뉘": 3995,
      "뷴틂": 3996,
      "빚수": 3997,
      "서욕": 3998,
      "셩뷕": 3999,
      "숙쇼": 4000,
      "쉬눈": 4001,
      "싸친": 4002,
      "싸창닒": 4003,
      "썼오": 4004,
      "썽위": 4005,
      "씁닒": 4006,
      "않눈": 4007,
      "앝쉽": 4008,
      "야쭈": 4009,
      "언오": 4010,
      "얼오": 4011,
      "엔는": 4012,
      "엾움": 4013,
      "옇쟝": 4014,
      "욺쉭": 4015,
      "욺씩": 4016,
      "움면": 4017,
      "위는": 4018,
      "위랗": 4019,
      "위엇": 4020,
      "윌단": 4021,
      "인뗄": 4022,
      "짱쉴": 4023,
      "쩍윈": 4024,
      "쩡또": 4025,
      "칙갸": 4026,
      "칟토": 4027,
      "켁끝": 4028,
      "코오": 4029,
      "쿠인": 4030,
      "큰쩌": 4031,
      "탬문": 4032,
      "통얀": 4033,
      "편뉘": 4034,
      "푿떠": 4035,
      "하꼬": 4036,
      "학곰": 4037,
      "한따": 4038,
      "항교": 4039,
      "해써": 4040,
      "햇눈떼": 4041,
      "훑룽": 4042,
      "첵끄인": 4043,
      "화창씰": 4044,
      "13": 4045,
      "500": 4046,
      "갸눙": 4047,
      "견묽": 4048,
      "귄눈": 4049,
      "귄는": 4050,
      "깝뻬": 4051,
      "깹슐": 4052,
      "꽁갼": 4053,
      "냐요": 4054,
      "녀뭍": 4055,
      "뇰려": 4056,
      "눈쥐": 4057,
      "뉜따": 4058,
      "딴젊": 4059,
      "렛셔": 4060,
      "려웠": 4061,
      "만끔": 4062,
      "뮤뤼": 4063,
      "밟료": 4064,
      "뷔수": 4065,
      "뿐뜰": 4066,
      "쀼까": 4067,
      "서욧": 4068,
      "싸용": 4069,
      "쎄딱": 4070,
      "씨눈": 4071,
      "악갼": 4072,
      "않앝": 4073,
      "야닌": 4074,
      "얘아": 4075,
      "얩뿌": 4076,
      "억키": 4077,
      "었오": 4078,
      "엎교": 4079,
      "연략": 4080,
      "엽씨": 4081,
      "옇짱": 4082,
      "옘악": 4083,
      "옜악": 4084,
      "욕씰": 4085,
      "우로": 4086,
      "윅찌": 4087,
      "윗써": 4088,
      "읽련": 4089,
      "있썼": 4090,
      "잊써": 4091,
      "젝꽁": 4092,
      "젼쩨": 4093,
      "좋녜오": 4094,
      "죠용": 4095,
      "쥔는": 4096,
      "쫴약": 4097,
      "찌건": 4098,
      "창싫": 4099,
      "찾쟝": 4100,
      "찾창": 4101,
      "켐핑": 4102,
      "크낭": 4103,
      "탄한": 4104,
      "푼뜰": 4105,
      "한펀": 4106,
      "핥교": 4107,
      "햐뉘": 4108,
      "햐찌": 4109,
      "헤윤데": 4110,
      "5충": 4111,
      "갸눈": 4112,
      "구런": 4113,
      "긷됴": 4114,
      "깝뉘댜": 4115,
      "끈낭": 4116,
      "너뮤": 4117,
      "넹짱": 4118,
      "녀뭄": 4119,
      "단젊": 4120,
      "닿한": 4121,
      "두뤼": 4122,
      "떼뮨": 4123,
      "뜩휘": 4124,
      "릭카": 4125,
      "맛쥡": 4126,
      "멱눈": 4127,
      "멱울": 4128,
      "면쥐": 4129,
      "뮨줴": 4130,
      "뷴눈": 4131,
      "빛수": 4132,
      "쁘땁": 4133,
      "샤친": 4134,
      "쉠먼": 4135,
      "쉬칸": 4136,
      "슈앞": 4137,
      "신눈": 4138,
      "쏘음": 4139,
      "쒜오": 4140,
      "악깐": 4141,
      "악켱": 4142,
      "약갼": 4143,
      "얀흖": 4144,
      "얘프": 4145,
      "엽썼": 4146,
      "옐뤼": 4147,
      "옐약": 4148,
      "옮면": 4149,
      "위엊": 4150,
      "음예": 4151,
      "잊숩": 4152,
      "져휘": 4153,
      "좋궤": 4154,
      "좋눼오": 4155,
      "쥬찼": 4156,
      "쩐쩨": 4157,
      "쩡컬": 4158,
      "찌눈": 4159,
      "찍얹": 4160,
      "찜쿠": 4161,
      "창실": 4162,
      "청또": 4163,
      "췸꾸": 4164,
      "치건": 4165,
      "치퀀": 4166,
      "치햐": 4167,
      "카걱": 4168,
      "컨뮬": 4169,
      "켁싫": 4170,
      "탄젊": 4171,
      "탐많": 4172,
      "태료": 4173,
      "팡울": 4174,
      "펀얀": 4175,
      "푸샨": 4176,
      "푸탑": 4177,
      "푼윅": 4178,
      "퓌폐": 4179,
      "하눈": 4180,
      "학굣": 4181,
      "함꼐": 4182,
      "함꼬": 4183,
      "합닐": 4184,
      "핫셔": 4185,
      "햐류": 4186,
      "화챵": 4187,
      "횬텔": 4188,
      "!!!!!": 4189,
      "좋앝숩": 4190,
      "좋앗숩": 4191,
      "엘립뻬": 4192,
      "엘립페": 4193,
      "???": 4194,
      ",,,": 4195,
      "21": 4196,
      "♡♡": 4197,
      "갸오": 4198,
      "격졍": 4199,
      "굴련": 4200,
      "귀웨": 4201,
      "깔쿰": 4202,
      "깜먼": 4203,
      "껙싫": 4204,
      "꿴챦": 4205,
      "난는": 4206,
      "너왓": 4207,
      "눈찌": 4208,
      "델링": 4209,
      "뒈눈": 4210,
      "뒤션": 4211,
      "딴한": 4212,
      "뜯한": 4213,
      "랴셔": 4214,
      "렵꼬": 4215,
      "뤼코": 4216,
      "많끔": 4217,
      "방은": 4218,
      "뱌댜": 4219,
      "뷔헤": 4220,
      "뷴뉘": 4221,
      "빻움": 4222,
      "뼈오": 4223,
      "뽀따": 4224,
      "삘오": 4225,
      "샤용": 4226,
      "숙쏘": 4227,
      "슉견": 4228,
      "슉쑈": 4229,
      "싯썰": 4230,
      "썰오": 4231,
      "쑤옥": 4232,
      "쑤엉쟝": 4233,
      "씁닙댜": 4234,
      "씁닉댜": 4235,
      "씨깐": 4236,
      "씰먕": 4237,
      "안눈": 4238,
      "앉네": 4239,
      "앉닌": 4240,
      "앉운": 4241,
      "았쉽": 4242,
      "앙한": 4243,
      "야뉜": 4244,
      "얩프": 4245,
      "어끼": 4246,
      "언략": 4247,
      "업오": 4248,
      "엉오": 4249,
      "역끼": 4250,
      "엾여": 4251,
      "엾코": 4252,
      "옙약": 4253,
      "오청": 4254,
      "요레": 4255,
      "욘쩐": 4256,
      "우면": 4257,
      "움웨": 4258,
      "위예": 4259,
      "윈치": 4260,
      "윤때": 4261,
      "익교": 4262,
      "잊썼": 4263,
      "줍번": 4264,
      "쩐먕": 4265,
      "쪼용": 4266,
      "쭝웨": 4267,
      "찐챠": 4268,
      "츄짜": 4269,
      "카오": 4270,
      "캬쥐": 4271,
      "켁씰": 4272,
      "퀸눈": 4273,
      "큰낭": 4274,
      "타는": 4275,
      "탁코": 4276,
      "팡됴": 4277,
      "퍼뉘": 4278,
      "펀뉘": 4279,
      "퓌뻬": 4280,
      "학꼐": 4281,
      "한테": 4282,
      "합교": 4283,
      "합닒": 4284,
      "합닝댜": 4285,
      "합닝타": 4286,
      "해셔": 4287,
      "했는뒈": 4288,
      "헤요": 4289,
      "횬쟈": 4290,
      "췬쩔햐": 4291,
      "슈엉쟝": 4292,
      "슈옇짱": 4293,
      "4인": 4294,
      "ㅋᩚ": 4295,
      "공깐": 4296,
      "깩끗": 4297,
      "꺽졍": 4298,
      "꾄짢": 4299,
      "끼예": 4300,
      "냔눈": 4301,
      "냔는": 4302,
      "넓코": 4303,
      "녀뭅": 4304,
      "닉교": 4305,
      "닛수": 4306,
      "딸른": 4307,
      "땃씨": 4308,
      "랴는": 4309,
      "랴먼": 4310,
      "룝뷔": 4311,
      "만교": 4312,
      "만훈": 4313,
      "맞있": 4314,
      "묘튼": 4315,
      "묵얻": 4316,
      "삣쓰": 4317,
      "샤쟝닒": 4318,
      "샤짱뉨": 4319,
      "셔율": 4320,
      "셧써": 4321,
      "순눈": 4322,
      "쉬는": 4323,
      "쉭코": 4324,
      "슈얍": 4325,
      "습뉘타": 4326,
      "싫맣": 4327,
      "쒸눈": 4328,
      "쓺먼": 4329,
      "씁닐": 4330,
      "씨칸": 4331,
      "씬쭉": 4332,
      "씸함": 4333,
      "얀훈": 4334,
      "얾오": 4335,
      "엄오": 4336,
      "엾엊": 4337,
      "옐악": 4338,
      "옥초": 4339,
      "완벅": 4340,
      "완뼉": 4341,
      "왓셔": 4342,
      "욕죠": 4343,
      "우몌": 4344,
      "웅데": 4345,
      "위얻": 4346,
      "윅교": 4347,
      "윈냐": 4348,
      "윌랗": 4349,
      "율뤼": 4350,
      "잇엿": 4351,
      "잉옹": 4352,
      "젊럼": 4353,
      "졔윌": 4354,
      "죡굼": 4355,
      "죡끔": 4356,
      "줍편": 4357,
      "쥐는": 4358,
      "쥑권": 4359,
      "쥬편": 4360,
      "쪼햐": 4361,
      "쮸쳔": 4362,
      "창운": 4363,
      "천화": 4364,
      "초햐": 4365,
      "쵸쉭": 4366,
      "췬는": 4367,
      "췻쇼": 4368,
      "켁쉴": 4369,
      "켁쿳": 4370,
      "콴쾅": 4371,
      "탠눈": 4372,
      "펴오": 4373,
      "한교": 4374,
      "한코": 4375,
      "함꿰": 4376,
      "합뤼": 4377,
      "햇눈테": 4378,
      "헤욥": 4379,
      "헤줏": 4380,
      "환켱": 4381,
      "찐철햐": 4382,
      "찐쩔핫": 4383,
      "췬절햐": 4384,
      "엘립볘": 4385,
      "엘립붸": 4386,
      "첵쿠인": 4387,
      "슈옇쟝": 4388,
      "5썽굽": 4389,
      "2팍": 4390,
      "200": 4391,
      "6충": 4392,
      "각걱": 4393,
      "갊면": 4394,
      "갊싸": 4395,
      "갼는": 4396,
      "굔눈": 4397,
      "군셩": 4398,
      "깐눙": 4399,
      "꽤적": 4400,
      "넴색": 4401,
      "넵뷰": 4402,
      "녀뮨": 4403,
      "놓코": 4404,
      "눈뎄": 4405,
      "늚료": 4406,
      "닉꼬": 4407,
      "닥카": 4408,
      "닮른": 4409,
      "닯른": 4410,
      "됨면": 4411,
      "둘려": 4412,
      "따교": 4413,
      "땀면": 4414,
      "뚤위": 4415,
      "레또": 4416,
      "려욺": 4417,
      "륄룰": 4418,
      "릭코": 4419,
      "릴를": 4420,
      "만원": 4421,
      "맛잊": 4422,
      "맞댜": 4423,
      "명한": 4424,
      "묠룩": 4425,
      "묵눈": 4426,
      "복교": 4427,
      "부눈": 4428,
      "빵됴": 4429,
      "빵웨": 4430,
      "뿍쉰": 4431,
      "뿍씬": 4432,
      "샤창뉨": 4433,
      "숀눈": 4434,
      "쉬교": 4435,
      "쌩각": 4436,
      "쌩꺅": 4437,
      "썬는": 4438,
      "썬땍": 4439,
      "쑨눈": 4440,
      "안앝": 4441,
      "에셔": 4442,
      "역켠": 4443,
      "옌는": 4444,
      "옙악": 4445,
      "옜약": 4446,
      "옹위": 4447,
      "욕꼬": 4448,
      "욧썬": 4449,
      "웨는": 4450,
      "윈취": 4451,
      "윌딴": 4452,
      "윗서": 4453,
      "윗셍": 4454,
      "윗쌍": 4455,
      "윙취": 4456,
      "있숲": 4457,
      "잊엇": 4458,
      "잎옹": 4459,
      "젼눈": 4460,
      "좋곳": 4461,
      "좋습": 4462,
      "쩌럼": 4463,
      "쫓쉭": 4464,
      "찐는": 4465,
      "춥번": 4466,
      "칙권": 4467,
      "캬폐": 4468,
      "케꿋": 4469,
      "키예": 4470,
      "퇸는": 4471,
      "툴위": 4472,
      "파료": 4473,
      "폼먼": 4474,
      "푼한": 4475,
      "풋샨": 4476,
      "학굘": 4477,
      "한낟": 4478,
      "한타": 4479,
      "합닐댜": 4480,
      "합닙타": 4481,
      "항꼬": 4482,
      "...?": 4483,
      "~~^^": 4484,
      "씁뉘달": 4485,
      "10뷴": 4486,
      "췬젊핫": 4487,
      "췬쩔핫": 4488,
      "위용할": 4489,
      "80": 4490,
      "굔는": 4491,
      "긷토": 4492,
      "꺅격": 4493,
      "껀묾": 4494,
      "꽤척": 4495,
      "꿴짢": 4496,
      "냄섹": 4497,
      "냐룸": 4498,
      "녀묻": 4499,
      "눈뎅": 4500,
      "댜많": 4501,
      "댜먼": 4502,
      "들뤼": 4503,
      "란는": 4504,
      "랴됴": 4505,
      "룬눈": 4506,
      "뤽캬": 4507,
      "린는": 4508,
      "만햐": 4509,
      "만흖": 4510,
      "많죠": 4511,
      "멂뮬": 4512,
      "멸뤼": 4513,
      "묘투": 4514,
      "묫함": 4515,
      "빵욺": 4516,
      "솔뤼": 4517,
      "쉰쭉": 4518,
      "쉼면": 4519,
      "싼짹": 4520,
      "쌩캭": 4521,
      "썸오": 4522,
      "썽삑": 4523,
      "쎄요": 4524,
      "쑤쥰": 4525,
      "쑥견": 4526,
      "쓴눈": 4527,
      "씁닒댜": 4528,
      "씁닐댜": 4529,
      "씨교": 4530,
      "앉뉜": 4531,
      "앉는": 4532,
      "엌껀": 4533,
      "엑셔": 4534,
      "엾댜": 4535,
      "예됴": 4536,
      "왓눈뎨": 4537,
      "욜랴": 4538,
      "울롭": 4539,
      "움예": 4540,
      "윅갸": 4541,
      "윗교": 4542,
      "윗섰": 4543,
      "윗취": 4544,
      "인옹": 4545,
      "인쥐": 4546,
      "잇욺": 4547,
      "있었": 4548,
      "잊옹": 4549,
      "쟝됴": 4550,
      "젝공": 4551,
      "좋겠": 4552,
      "좋함": 4553,
      "쥬번": 4554,
      "쩡말": 4555,
      "쭈천": 4556,
      "쮜만": 4557,
      "천맣": 4558,
      "천먕": 4559,
      "청걺": 4560,
      "청말": 4561,
      "춥편": 4562,
      "췌척": 4563,
      "췸쿠": 4564,
      "츄챠": 4565,
      "츄천": 4566,
      "캬운": 4567,
      "컨묾": 4568,
      "펑윌": 4569,
      "핏쓰": 4570,
      "하코": 4571,
      "학곧": 4572,
      "한눼오": 4573,
      "합꼬": 4574,
      "합니댜": 4575,
      "핫눈": 4576,
      "햇는뎨": 4577,
      "횰뗄": 4578,
      "횰텔": 4579,
      "횻뗄": 4580,
      "휵귀": 4581,
      "좋았여오": 4582,
      "ㅠㅠㅠㅠ": 4583,
      "췬젊햐": 4584,
      "찐젊햐": 4585,
      "방뮨할": 4586,
      "핫씩교": 4587,
      "3씨": 4588,
      "3읾": 4589,
      "PC": 4590,
      "각격": 4591,
      "게윈": 4592,
      "굻련": 4593,
      "긺를": 4594,
      "깍컥": 4595,
      "꼬오": 4596,
      "꽁칸": 4597,
      "끄냥": 4598,
      "납뿌": 4599,
      "눅큄": 4600,
      "닉코": 4601,
      "닌탸": 4602,
      "닫쉬": 4603,
      "댜는": 4604,
      "뎐뉘": 4605,
      "두려": 4606,
      "뒷선": 4607,
      "뙤였": 4608,
      "뚜슉": 4609,
      "뜰뤼": 4610,
      "럇써": 4611,
      "럭교": 4612,
      "륄를": 4613,
      "많운": 4614,
      "맞잊": 4615,
      "맡짚": 4616,
      "모뗄": 4617,
      "몲루": 4618,
      "묵교": 4619,
      "밝료": 4620,
      "방웨": 4621,
      "방토": 4622,
      "뵤눈": 4623,
      "뵤윈눈": 4624,
      "뷰떠": 4625,
      "빚쓰": 4626,
      "빵예": 4627,
      "뻔한": 4628,
      "뿌뉘": 4629,
      "뿐눈": 4630,
      "뿐위": 4631,
      "샤향": 4632,
      "숲닐": 4633,
      "쉬깐": 4634,
      "쉬언": 4635,
      "쉿썲": 4636,
      "슈옥": 4637,
      "슈쥰": 4638,
      "슴먼": 4639,
      "싸창뉨": 4640,
      "쑴먼": 4641,
      "앉눈": 4642,
      "앉앗": 4643,
      "앉앝": 4644,
      "앉햐": 4645,
      "얏셔": 4646,
      "얘뿌": 4647,
      "얘졍": 4648,
      "얻셔": 4649,
      "엶청": 4650,
      "엽숨": 4651,
      "옘뮌": 4652,
      "옷션": 4653,
      "욕쉴": 4654,
      "욕싫": 4655,
      "우뭬": 4656,
      "윈위": 4657,
      "음면": 4658,
      "익옹": 4659,
      "임옹": 4660,
      "잇옹": 4661,
      "있꾜": 4662,
      "잊엿": 4663,
      "좃쉭": 4664,
      "좋곧": 4665,
      "좋숩뉘댜": 4666,
      "쥬찻": 4667,
      "짱실": 4668,
      "쩨끄": 4669,
      "쭈쨔": 4670,
      "찍권": 4671,
      "철럼": 4672,
      "쳐욺": 4673,
      "카운": 4674,
      "칸는": 4675,
      "캅폐": 4676,
      "컥졍": 4677,
      "켱헒": 4678,
      "크런": 4679,
      "탐면": 4680,
      "툭휘": 4681,
      "펀헷": 4682,
      "퓨눈": 4683,
      "합닙댜": 4684,
      "핫꼬": 4685,
      "했쑵": 4686,
      "헤욕": 4687,
      "환붉": 4688,
      "환뷸": 4689,
      "효컁": 4690,
      "효퉤": 4691,
      "횬차": 4692,
      "횻텔": 4693,
      "좋앝교": 4694,
      "찐졀핫": 4695,
      "찐젊핫": 4696,
      "췬철핫": 4697,
      "팡뮨할": 4698,
      "30뷴": 4699,
      "슈엉짱": 4700,
      "광얀뤼": 4701,
      "화짱싫": 4702,
      "화짱씰": 4703,
      "헤운데": 4704,
      "1인": 4705,
      "1퍅": 4706,
      "4충": 4707,
      "값뉘": 4708,
      "값뉘댜": 4709,
      "갸컥": 4710,
      "갹꺄": 4711,
      "갹꺽": 4712,
      "격청": 4713,
      "군낳": 4714,
      "굴런": 4715,
      "귁카": 4716,
      "깥야": 4717,
      "꺄걱": 4718,
      "꺅걱": 4719,
      "껀딪": 4720,
      "꽁깐": 4721,
      "끄낭": 4722,
      "끌련": 4723,
      "냉쟝": 4724,
      "냉짱": 4725,
      "냘룸": 4726,
      "네요": 4727,
      "넴쎄": 4728,
      "녀무": 4729,
      "녀뭇": 4730,
      "눈덱": 4731,
      "닉탸": 4732,
      "듦렸": 4733,
      "딸료": 4734,
      "련투": 4735,
      "렵교": 4736,
      "렵코": 4737,
      "만은": 4738,
      "만쿰": 4739,
      "매유": 4740,
      "멈뮬": 4741,
      "모텔": 4742,
      "몽텔": 4743,
      "묵울": 4744,
      "뱌탁": 4745,
      "복꼬": 4746,
      "부는": 4747,
      "뷰텨": 4748,
      "뻔쩨": 4749,
      "뻘료": 4750,
      "샨첵": 4751,
      "섶피": 4752,
      "셈면": 4753,
      "셧셔": 4754,
      "손뉨": 4755,
      "숩닒": 4756,
      "쉬썲": 4757,
      "쉰켱": 4758,
      "쌓테": 4759,
      "쏜눈": 4760,
      "쒸타": 4761,
      "씁니댜": 4762,
      "씁닌댜": 4763,
      "씁닛댜": 4764,
      "씁닢타": 4765,
      "씻썲": 4766,
      "않닌": 4767,
      "얀닒": 4768,
      "언락": 4769,
      "얻써": 4770,
      "엇셔": 4771,
      "엾였": 4772,
      "완전": 4773,
      "요썬": 4774,
      "운떼": 4775,
      "위런": 4776,
      "윈퉤": 4777,
      "윔취": 4778,
      "윕뉘탸": 4779,
      "읊로": 4780,
      "읗데": 4781,
      "인냐": 4782,
      "인텔": 4783,
      "인퉤": 4784,
      "읽옹": 4785,
      "읾런": 4786,
      "읾옹": 4787,
      "있서": 4788,
      "잊샹": 4789,
      "잎니": 4790,
      "쟝쩜": 4791,
      "적인": 4792,
      "젊운": 4793,
      "졍돎": 4794,
      "좋곤": 4795,
      "좋합": 4796,
      "좋숩뉘": 4797,
      "쥔챠": 4798,
      "쩡토": 4799,
      "쭈엌": 4800,
      "쭙편": 4801,
      "찌퀀": 4802,
      "찍교": 4803,
      "찜테": 4804,
      "찾짱": 4805,
      "초흖": 4806,
      "췻숄": 4807,
      "캄먼": 4808,
      "캅뻬": 4809,
      "캬찌": 4810,
      "캬치": 4811,
      "켁실": 4812,
      "켠띠": 4813,
      "큰냥": 4814,
      "탐만": 4815,
      "탓씨": 4816,
      "탤료": 4817,
      "푸떠": 4818,
      "퓨됴": 4819,
      "퓨토": 4820,
      "퓬는": 4821,
      "합닢댜": 4822,
      "햐곰": 4823,
      "효깡": 4824,
      "10많": 4825,
      "위옹핥": 4826,
      "찐절한": 4827,
      "쑤옇쟝": 4828,
      "쑤옇짱": 4829,
      "화창쉴": 4830,
      "꽝얀뤼": 4831,
      "2윌": 4832,
      "3썽": 4833,
      "~!!": 4834,
      "….": 4835,
      "ㅠㅜ": 4836,
      "갖쥐": 4837,
      "갼능": 4838,
      "공샤": 4839,
      "구료": 4840,
      "까눈": 4841,
      "깝폐": 4842,
      "껀묽": 4843,
      "끈쩌": 4844,
      "냐욘": 4845,
      "냑교": 4846,
      "냔팡": 4847,
      "너왔": 4848,
      "닛탸": 4849,
      "닿휘": 4850,
      "댜쉬": 4851,
      "댜씨": 4852,
      "돼였": 4853,
      "따른": 4854,
      "딴첨": 4855,
      "땅한": 4856,
      "똥얀": 4857,
      "뜻한": 4858,
      "레된": 4859,
      "레토": 4860,
      "려운": 4861,
      "뤼예": 4862,
      "립부": 4863,
      "만앝": 4864,
      "만야": 4865,
      "맏쥡": 4866,
      "맞찝": 4867,
      "먹울": 4868,
      "멂묽": 4869,
      "뭬뉘": 4870,
      "뮨위": 4871,
      "뮬뤼": 4872,
      "받눈": 4873,
      "받딱": 4874,
      "받탁": 4875,
      "뱌타": 4876,
      "뷰뉘": 4877,
      "뷴뚤": 4878,
      "뷴윅": 4879,
      "뽀타": 4880,
      "뿌싼": 4881,
      "뿟샨": 4882,
      "쀼는": 4883,
      "삣수": 4884,
      "션땍": 4885,
      "셨써": 4886,
      "셩쑤": 4887,
      "셩퓌": 4888,
      "싣썲": 4889,
      "싸짱닒": 4890,
      "썽퓌": 4891,
      "쒼눈": 4892,
      "않뉜": 4893,
      "약깐": 4894,
      "어키": 4895,
      "여욘": 4896,
      "옥쪼": 4897,
      "용했": 4898,
      "울롤": 4899,
      "욹료": 4900,
      "위냐": 4901,
      "위헤": 4902,
      "윅코": 4903,
      "윌량": 4904,
      "윌뱐": 4905,
      "윌찌": 4906,
      "윔찌": 4907,
      "윕씰": 4908,
      "인는": 4909,
      "읽단": 4910,
      "잃옹": 4911,
      "잊서": 4912,
      "잎뉘탸": 4913,
      "져럼": 4914,
      "졈운": 4915,
      "좋계": 4916,
      "좋곰": 4917,
      "좋뀄": 4918,
      "좋따": 4919,
      "좋할": 4920,
      "죡큼": 4921,
      "쥬윈": 4922,
      "진쨔": 4923,
      "쩍인": 4924,
      "쩨윌": 4925,
      "쩨끄윈": 4926,
      "쭐쟝": 4927,
      "찍컨": 4928,
      "첵공": 4929,
      "쳬끄": 4930,
      "충웨": 4931,
      "취만": 4932,
      "취악": 4933,
      "츙젼": 4934,
      "칼략": 4935,
      "콤빵": 4936,
      "태문": 4937,
      "태뮨": 4938,
      "탸움": 4939,
      "턴뉘": 4940,
      "팡웨": 4941,
      "퍼오": 4942,
      "펀앉": 4943,
      "펀휘": 4944,
      "포타": 4945,
      "푼눈": 4946,
      "학굔": 4947,
      "함며": 4948,
      "함코": 4949,
      "합닛댜": 4950,
      "합닙따": 4951,
      "합닒타": 4952,
      "핫코": 4953,
      "핼써": 4954,
      "햇뎐": 4955,
      "했는떼": 4956,
      "행오": 4957,
      "햐곧": 4958,
      "햐타": 4959,
      "헤쥬": 4960,
      "헤추": 4961,
      "헤춧": 4962,
      "헤토": 4963,
      "헵편": 4964,
      "헹복": 4965,
      "황쟝씰": 4966,
      "좋앝여오": 4967,
      "좋얏셔": 4968,
      "췬절핫": 4969,
      "찐절핫": 4970,
      "......": 4971,
      "5많": 4972,
      "70": 4973,
      "갇따": 4974,
      "갇툰": 4975,
      "갸죡": 4976,
      "굴료": 4977,
      "귀는": 4978,
      "까운": 4979,
      "깔략": 4980,
      "깝교": 4981,
      "께꿎": 4982,
      "꾜오": 4983,
      "꿴찬": 4984,
      "끌런": 4985,
      "끼눈": 4986,
      "난한": 4987,
      "낼러": 4988,
      "냐눈": 4989,
      "냐오": 4990,
      "냑코": 4991,
      "넥요": 4992,
      "넨눈": 4993,
      "눈뎁": 4994,
      "는뎃": 4995,
      "뎌뉘": 4996,
      "둘됴": 4997,
      "뒤선": 4998,
      "떠뉘": 4999,
      "떼위": 5000,
      "뗌문": 5001,
      "뜨뤼": 5002,
      "뜰립": 5003,
      "랴위": 5004,
      "러오": 5005,
      "렸셔": 5006,
      "뤼갸": 5007,
      "륄랴": 5008,
      "립쀼": 5009,
      "맞쥡": 5010,
      "먀댜": 5011,
      "먼쥐": 5012,
      "멱교": 5013,
      "멱였": 5014,
      "면쥑": 5015,
      "못함": 5016,
      "묵코": 5017,
      "문줴": 5018,
      "뮤었": 5019,
      "뮬위": 5020,
      "밧댜": 5021,
      "뼈뉘": 5022,
      "뿐뉘": 5023,
      "뿔편": 5024,
      "삐쓰": 5025,
      "션는": 5026,
      "셨셔": 5027,
      "숩닙댜": 5028,
      "숫한": 5029,
      "쉬짱": 5030,
      "쉰겅": 5031,
      "쉼한": 5032,
      "싸짱뉨": 5033,
      "쌍황": 5034,
      "써용": 5035,
      "써율": 5036,
      "쑤욕": 5037,
      "쒸교": 5038,
      "씁닢댜": 5039,
      "씁니타": 5040,
      "씨쟝": 5041,
      "씩꼬": 5042,
      "안앗": 5043,
      "않교": 5044,
      "않네": 5045,
      "않운": 5046,
      "얼려": 5047,
      "업위": 5048,
      "엊써": 5049,
      "엎숨": 5050,
      "에써": 5051,
      "엾꼬": 5052,
      "옅셔": 5053,
      "옇창": 5054,
      "옥교": 5055,
      "요면": 5056,
      "욘쑤": 5057,
      "우롬": 5058,
      "욺위": 5059,
      "움식": 5060,
      "웨됴": 5061,
      "위교": 5062,
      "위뚜": 5063,
      "윈쌩": 5064,
      "윌찍": 5065,
      "윌칙": 5066,
      "윕님": 5067,
      "윕쉴": 5068,
      "윗섕": 5069,
      "읊롬": 5070,
      "인뒈": 5071,
      "인샹": 5072,
      "잃랗": 5073,
      "있욺": 5074,
      "있쿄": 5075,
      "쟝졈": 5076,
      "쟝휘": 5077,
      "좋겟": 5078,
      "좋곶": 5079,
      "좋얍": 5080,
      "좋학": 5081,
      "좋항": 5082,
      "좋훌": 5083,
      "좋씁뉘댜": 5084,
      "좋씁뉘타": 5085,
      "중웨": 5086,
      "쥑컨": 5087,
      "진차": 5088,
      "쮸챠": 5089,
      "찌햐": 5090,
      "척인": 5091,
      "쳐럼": 5092,
      "췬규": 5093,
      "칫됴": 5094,
      "카눈": 5095,
      "카눙": 5096,
      "칵컥": 5097,
      "캄샤": 5098,
      "캭걱": 5099,
      "켑술": 5100,
      "콧위": 5101,
      "콩깐": 5102,
      "콴릿": 5103,
      "크료": 5104,
      "클런": 5105,
      "킥갸": 5106,
      "탕황": 5107,
      "텐눈": 5108,
      "툐한": 5109,
      "툿한": 5110,
      "틀위": 5111,
      "펜눈": 5112,
      "편얀": 5113,
      "폭교": 5114,
      "한닉": 5115,
      "한챰": 5116,
      "할눈": 5117,
      "핥눈": 5118,
      "핥코": 5119,
      "합닛타": 5120,
      "햇는테": 5121,
      "했교": 5122,
      "했씁뉘댜": 5123,
      "헤용": 5124,
      "혼쟈": 5125,
      "홈뻬": 5126,
      "좋았숲": 5127,
      "효뗄위": 5128,
      "씁뉘닥": 5129,
      "씁뉘닳": 5130,
      "찐졀함": 5131,
      "찐철핫": 5132,
      "췬철함": 5133,
      "빵뮨할": 5134,
      "화쟝실": 5135,
      "5셩굽": 5136,
      "5푼": 5137,
      "oo": 5138,
      "ㄷㄷ": 5139,
      "갖죡": 5140,
      "갖촉": 5141,
      "갸카": 5142,
      "겨윤": 5143,
      "긁런": 5144,
      "까눙": 5145,
      "깜면": 5146,
      "깝뉘따": 5147,
      "꽁샤": 5148,
      "끊낭": 5149,
      "녕뮤": 5150,
      "녜옭": 5151,
      "누료": 5152,
      "닝탸": 5153,
      "닢뉘댜": 5154,
      "단한": 5155,
      "닮룬": 5156,
      "닿윌": 5157,
      "댜만": 5158,
      "돈눈": 5159,
      "동얀": 5160,
      "따욺": 5161,
      "딴쩜": 5162,
      "땔료": 5163,
      "떤뉘": 5164,
      "뗀눈": 5165,
      "똥않": 5166,
      "뙤눈": 5167,
      "랴또": 5168,
      "략쿄": 5169,
      "렛써": 5170,
      "렵궤": 5171,
      "롓셔": 5172,
      "뤼는": 5173,
      "뤽꺄": 5174,
      "륨운": 5175,
      "릭까": 5176,
      "립뉘따": 5177,
      "만죠": 5178,
      "많았": 5179,
      "먹교": 5180,
      "멂묾": 5181,
      "멍한": 5182,
      "면찌": 5183,
      "명위": 5184,
      "뮤뉘": 5185,
      "뮬룐": 5186,
      "방또": 5187,
      "밭닥": 5188,
      "뵤먼": 5189,
      "뵤윈는": 5190,
      "부를": 5191,
      "뷴툴": 5192,
      "션텍": 5193,
      "숩닛": 5194,
      "슈욕": 5195,
      "식깐": 5196,
      "싯섧": 5197,
      "싶은": 5198,
      "싸위": 5199,
      "썽슉": 5200,
      "썽픽": 5201,
      "쎄욤": 5202,
      "쎄탁": 5203,
      "쑤얍": 5204,
      "쑤쭌": 5205,
      "씁닐따": 5206,
      "씩싸": 5207,
      "안교": 5208,
      "않닉": 5209,
      "없셔": 5210,
      "없써": 5211,
      "엊셔": 5212,
      "엌켠": 5213,
      "엽셧": 5214,
      "옅써": 5215,
      "옷선": 5216,
      "옻썬": 5217,
      "요교": 5218,
      "요눈": 5219,
      "욕초": 5220,
      "용햐": 5221,
      "움몌": 5222,
      "웨또": 5223,
      "윈샹": 5224,
      "윗였": 5225,
      "읗태": 5226,
      "읫샤": 5227,
      "인찌": 5228,
      "인톄": 5229,
      "읽랗": 5230,
      "있따": 5231,
      "있섰": 5232,
      "있옹": 5233,
      "잊따": 5234,
      "잎씰": 5235,
      "젊위": 5236,
      "젝콩": 5237,
      "젼쳬": 5238,
      "좃씩": 5239,
      "좋공": 5240,
      "좋핥": 5241,
      "좋숲뉘": 5242,
      "쥐권": 5243,
      "쥑껀": 5244,
      "쥬쨔": 5245,
      "직원": 5246,
      "쨩뮨": 5247,
      "쩡쇽": 5248,
      "쫏식": 5249,
      "쫴교": 5250,
      "쫴꼬": 5251,
      "쭙번": 5252,
      "쭝예": 5253,
      "찍카": 5254,
      "찐규": 5255,
      "찜떼": 5256,
      "챰교": 5257,
      "천쳬": 5258,
      "초훈": 5259,
      "췌적": 5260,
      "췬차": 5261,
      "칟또": 5262,
      "캬뻬": 5263,
      "캭격": 5264,
      "컬뤼": 5265,
      "케오": 5266,
      "트뤼": 5267,
      "틂위": 5268,
      "편않": 5269,
      "풀펀": 5270,
      "퓟수": 5271,
      "학겟": 5272,
      "학겠": 5273,
      "학꼰": 5274,
      "학꼽": 5275,
      "학켸": 5276,
      "한낯": 5277,
      "한짬": 5278,
      "한녜오": 5279,
      "할코": 5280,
      "합닌따": 5281,
      "합닉따": 5282,
      "핫쉐": 5283,
      "핫쉰눈": 5284,
      "햇숲": 5285,
      "했는테": 5286,
      "햐곡": 5287,
      "햐따": 5288,
      "향위": 5289,
      "헤됴": 5290,
      "헤욧": 5291,
      "확싫": 5292,
      "환뿡": 5293,
      "활쟝쉴": 5294,
      "훑륭": 5295,
      "~~!": 5296,
      "좋야욤": 5297,
      "췬졀한": 5298,
      "찐절햐": 5299,
      "함먼셔": 5300,
      "칼큼한": 5301,
      "화짱쉴": 5302,
      "윈텔뤼": 5303,
      "1젊": 5304,
      "27": 5305,
      "2게": 5306,
      "2만": 5307,
      "3윈": 5308,
      "3쯩": 5309,
      "3충": 5310,
      "4쯩": 5311,
      "간눈": 5312,
      "갛쭈": 5313,
      "갸꺽": 5314,
      "갸면": 5315,
      "걋셩": 5316,
      "걔쇽": 5317,
      "걔윈": 5318,
      "귀예": 5319,
      "까교": 5320,
      "깐능": 5321,
      "깜샤": 5322,
      "깟셩": 5323,
      "껍퓌": 5324,
      "꼐쏙": 5325,
      "꾄챦": 5326,
      "꾸오": 5327,
      "끈냥": 5328,
      "끈쳐": 5329,
      "끎련": 5330,
      "낀는": 5331,
      "난팡": 5332,
      "냐욥": 5333,
      "넓운": 5334,
      "넹창": 5335,
      "녔뮤": 5336,
      "눈델": 5337,
      "눈치": 5338,
      "뉘였": 5339,
      "는치": 5340,
      "닒먼": 5341,
      "단졈": 5342,
      "단쩜": 5343,
      "닮베": 5344,
      "댜면": 5345,
      "댜카": 5346,
      "돼는": 5347,
      "돼엊": 5348,
      "따쉬": 5349,
      "딱까": 5350,
      "딱카": 5351,
      "땀만": 5352,
      "때료": 5353,
      "뜬눈": 5354,
      "루눈": 5355,
      "많은": 5356,
      "많히": 5357,
      "멘눈": 5358,
      "며뮬": 5359,
      "몰텔": 5360,
      "묘델륑": 5361,
      "묵꼬": 5362,
      "문위": 5363,
      "뮐뤼": 5364,
      "뮬로": 5365,
      "방읊": 5366,
      "밭탁": 5367,
      "뵤교": 5368,
      "뵤뉘": 5369,
      "뵤탸": 5370,
      "뵤인눈": 5371,
      "뵨는": 5372,
      "부또": 5373,
      "부룰": 5374,
      "부토": 5375,
      "붊편": 5376,
      "뷸를": 5377,
      "빠료": 5378,
      "뻔위": 5379,
      "뻔함": 5380,
      "삐수": 5381,
      "샤위": 5382,
      "샤창닒": 5383,
      "샬착": 5384,
      "섕꺅": 5385,
      "셥피": 5386,
      "셰요": 5387,
      "셰용": 5388,
      "수따": 5389,
      "순는": 5390,
      "술럽": 5391,
      "숩닙": 5392,
      "숩닛댜": 5393,
      "슉퍅": 5394,
      "습뉘따": 5395,
      "십운": 5396,
      "싶뉘": 5397,
      "싸어": 5398,
      "써뤼": 5399,
      "쑤앞": 5400,
      "쑥솖": 5401,
      "쑥숄": 5402,
      "쑨는": 5403,
      "씁님댜": 5404,
      "씁닝댜": 5405,
      "씬겅": 5406,
      "악캅": 5407,
      "안운": 5408,
      "않는": 5409,
      "압예": 5410,
      "앞폐": 5411,
      "얘요": 5412,
      "어룸": 5413,
      "업코": 5414,
      "없씨": 5415,
      "엎셔": 5416,
      "엎팡": 5417,
      "역오": 5418,
      "엽셔": 5419,
      "엾얻": 5420,
      "옌약": 5421,
      "오한": 5422,
      "욕코": 5423,
      "욘슈": 5424,
      "우뮈": 5425,
      "위룸": 5426,
      "윅꼬": 5427,
      "윈언": 5428,
      "윗셨": 5429,
      "윤치": 5430,
      "윤태": 5431,
      "읾량": 5432,
      "있타": 5433,
      "잎닌": 5434,
      "잎붉": 5435,
      "좋곬": 5436,
      "좋곱": 5437,
      "좋흙": 5438,
      "쥬짝": 5439,
      "직퀀": 5440,
      "쩌욺": 5441,
      "쩡껄": 5442,
      "쩨쿠윈": 5443,
      "쪼흖": 5444,
      "쭈역": 5445,
      "쮸짜": 5446,
      "찌악": 5447,
      "촉끔": 5448,
      "촛식": 5449,
      "츌쟝": 5450,
      "칙교": 5451,
      "친챠": 5452,
      "켠팃": 5453,
      "켱혐": 5454,
      "콴꽝": 5455,
      "쿨련": 5456,
      "타른": 5457,
      "타욺": 5458,
      "타틋": 5459,
      "탁까": 5460,
      "탁탁": 5461,
      "탄쩜": 5462,
      "탸음": 5463,
      "통위": 5464,
      "틂뤼": 5465,
      "펀냔": 5466,
      "푹쉰": 5467,
      "푿텨": 5468,
      "퓻샨": 5469,
      "하오": 5470,
      "학콜": 5471,
      "한국": 5472,
      "한낭": 5473,
      "할윈": 5474,
      "합뉨": 5475,
      "항코": 5476,
      "핵오": 5477,
      "햄오": 5478,
      "햇교": 5479,
      "햇쑵": 5480,
      "햐골": 5481,
      "헐신": 5482,
      "휨틀": 5483,
      "..)": 5484,
      "효텔위": 5485,
      "씁뉘닷": 5486,
      "좋야써": 5487,
      "10씨": 5488,
      "췬젊함": 5489,
      "췬철햐": 5490,
      "ㅋㅋㅋㅋㅋ": 5491,
      "000얹": 5492,
      "화창싫": 5493,
      "ㅋᩚㅋᩚ": 5494,
      "2많": 5495,
      "3쉬": 5496,
      "3읽": 5497,
      "90": 5498,
      "갇탸": 5499,
      "갗운": 5500,
      "갸먼": 5501,
      "걔쏙": 5502,
      "격쩡": 5503,
      "겻됴": 5504,
      "길를": 5505,
      "깃됴": 5506,
      "깆됴": 5507,
      "깊뿐": 5508,
      "껀티": 5509,
      "껙실": 5510,
      "꾄챤": 5511,
      "끄료": 5512,
      "끽갸": 5513,
      "넒뮬": 5514,
      "넒뮴": 5515,
      "녁뮤": 5516,
      "놉운": 5517,
      "놓꼬": 5518,
      "눌료": 5519,
      "는쥐": 5520,
      "닳른": 5521,
      "둘여": 5522,
      "뒈는": 5523,
      "땅황": 5524,
      "땐눈": 5525,
      "떼됴": 5526,
      "또한": 5527,
      "뚜쑥": 5528,
      "랄뤼": 5529,
      "랒셔": 5530,
      "렘삥": 5531,
      "려윰": 5532,
      "렷써": 5533,
      "룝삐": 5534,
      "뤼열": 5535,
      "륌뮈": 5536,
      "릴량": 5537,
      "만끎": 5538,
      "많교": 5539,
      "많끎": 5540,
      "많얹": 5541,
      "많쪼": 5542,
      "맏칩": 5543,
      "먹눈": 5544,
      "먼찌": 5545,
      "멘누": 5546,
      "며뤼": 5547,
      "몸텔": 5548,
      "못텔": 5549,
      "묘룩": 5550,
      "묠루": 5551,
      "묵는": 5552,
      "묾로": 5553,
      "밂뤼": 5554,
      "뱌닥": 5555,
      "붉편": 5556,
      "붙텨": 5557,
      "뷸펀": 5558,
      "빻운": 5559,
      "쁘룐": 5560,
      "삶착": 5561,
      "셔피": 5562,
      "숩니": 5563,
      "숩닌": 5564,
      "숩닉댜": 5565,
      "숩닌댜": 5566,
      "숲닢": 5567,
      "쉭탕": 5568,
      "쉼함": 5569,
      "슈옥쟝": 5570,
      "슉뺙": 5571,
      "싫네": 5572,
      "싫먕": 5573,
      "써욹": 5574,
      "쏜는": 5575,
      "쑤눈": 5576,
      "쑤먼": 5577,
      "쑥솥": 5578,
      "쑥퍅": 5579,
      "쒸셜": 5580,
      "쓰따": 5581,
      "씁닌따": 5582,
      "씁닒타": 5583,
      "씩샤": 5584,
      "씩코": 5585,
      "앉교": 5586,
      "않햐": 5587,
      "앎뮤": 5588,
      "았써": 5589,
      "앞뻬": 5590,
      "야쥑": 5591,
      "약켱": 5592,
      "억쉬": 5593,
      "억씨": 5594,
      "언레": 5595,
      "언휘": 5596,
      "얽요": 5597,
      "엉맣": 5598,
      "엎썼": 5599,
      "에오": 5600,
      "옅오": 5601,
      "예는": 5602,
      "옌오": 5603,
      "옘약": 5604,
      "옙오": 5605,
      "옥코": 5606,
      "온는": 5607,
      "왓눈": 5608,
      "왓숲": 5609,
      "왓눈테": 5610,
      "욘됴": 5611,
      "운뉘": 5612,
      "운데": 5613,
      "울론": 5614,
      "울롬": 5615,
      "욺먼": 5616,
      "움로": 5617,
      "움뭬": 5618,
      "위댜": 5619,
      "위쌍": 5620,
      "위써": 5621,
      "윈뛔": 5622,
      "윌려": 5623,
      "윌취": 5624,
      "윕닐": 5625,
      "윗샤": 5626,
      "윗셔": 5627,
      "읊롤": 5628,
      "음로": 5629,
      "인용": 5630,
      "인치": 5631,
      "읽탄": 5632,
      "잃량": 5633,
      "잃런": 5634,
      "잇엇": 5635,
      "있셔": 5636,
      "잊섰": 5637,
      "잊움": 5638,
      "잊음": 5639,
      "졀데": 5640,
      "졀럼": 5641,
      "졍돐": 5642,
      "좆식": 5643,
      "좋곡": 5644,
      "좋골": 5645,
      "좋껫": 5646,
      "좋쥐": 5647,
      "죠굼": 5648,
      "죠식": 5649,
      "죡굶": 5650,
      "줴윌": 5651,
      "쨩싫": 5652,
      "쩡쏠": 5653,
      "쪽굼": 5654,
      "쬐꾜": 5655,
      "쭈윈": 5656,
      "쭈찼": 5657,
      "찐굳": 5658,
      "천쩨": 5659,
      "첨위": 5660,
      "청쑈": 5661,
      "첵카": 5662,
      "추찼": 5663,
      "췌끄": 5664,
      "칙까": 5665,
      "칵캅": 5666,
      "콩칸": 5667,
      "콴광": 5668,
      "콴리": 5669,
      "쿠오": 5670,
      "클련": 5671,
      "키눈": 5672,
      "키룰": 5673,
      "타많": 5674,
      "탄졈": 5675,
      "퇴교": 5676,
      "튜쑥": 5677,
      "트려": 5678,
      "하는": 5679,
      "학꼴": 5680,
      "학콥": 5681,
      "한갛": 5682,
      "한꾹": 5683,
      "한낢": 5684,
      "한낳": 5685,
      "합닌댜": 5686,
      "합닒따": 5687,
      "합닝따": 5688,
      "합님타": 5689,
      "했는뎨": 5690,
      "햐쉰": 5691,
      "햐키": 5692,
      "향교": 5693,
      "헤또": 5694,
      "헤욜": 5695,
      "헤욤": 5696,
      "확쟝쉴": 5697,
      "환뿔": 5698,
      "훌룽": 5699,
      "휵끼": 5700,
      "좋았교": 5701,
      "좋았코": 5702,
      "효텔뤼": 5703,
      "한눈뎨": 5704,
      "한눈테": 5705,
      "좋앗여오": 5706,
      "합뉘닳": 5707,
      "찐철함": 5708,
      "찐젊한": 5709,
      "좋햐요": 5710,
      "1쯩웨": 5711,
      "좋숩뉘따": 5712,
      "11쉬": 5713,
      "★★★★": 5714,
      "====": 5715,
      "17": 5716,
      "26": 5717,
      "3멍": 5718,
      "3셩": 5719,
      "5만": 5720,
      "5뿐": 5721,
      "9충": 5722,
      "?!": 5723,
      "■■": 5724,
      "간눙": 5725,
      "갖운": 5726,
      "갖쟝": 5727,
      "갚뉘댜": 5728,
      "갸셩뷔": 5729,
      "겨뤼": 5730,
      "견치": 5731,
      "공옹": 5732,
      "공칸": 5733,
      "굣위": 5734,
      "굵련": 5735,
      "귀됴": 5736,
      "깍교": 5737,
      "깝뉘타": 5738,
      "껀띳": 5739,
      "껀팃": 5740,
      "끄런": 5741,
      "끄렇": 5742,
      "끼를": 5743,
      "끽까": 5744,
      "낀눈": 5745,
      "낄를": 5746,
      "낙교": 5747,
      "낢룸": 5748,
      "낢표": 5749,
      "낫써": 5750,
      "냐옮": 5751,
      "냐와": 5752,
      "넒뮷": 5753,
      "넷써": 5754,
      "념뮬": 5755,
      "녑뮤": 5756,
      "뉘랴": 5757,
      "뉘수": 5758,
      "뉠탸": 5759,
      "댜갸": 5760,
      "뎁피": 5761,
      "동않": 5762,
      "돼눈": 5763,
      "두룬": 5764,
      "뒈였": 5765,
      "듦여": 5766,
      "떻계": 5767,
      "똘료": 5768,
      "랖뉘": 5769,
      "랴쿄": 5770,
      "략꾜": 5771,
      "렌많": 5772,
      "룟뎨": 5773,
      "뤠위": 5774,
      "륩푸땁": 5775,
      "립퓨": 5776,
      "많야": 5777,
      "많초": 5778,
      "맏댜": 5779,
      "맛칩": 5780,
      "맞짚": 5781,
      "맡쥡": 5782,
      "멂뤼": 5783,
      "메우": 5784,
      "몹텔": 5785,
      "묵엇": 5786,
      "묵엊": 5787,
      "물료": 5788,
      "묽위": 5789,
      "묾위": 5790,
      "뱌따": 5791,
      "뱌딱": 5792,
      "뵤꼬": 5793,
      "뵨눈": 5794,
      "붓떠": 5795,
      "뷔옹": 5796,
      "뷰산": 5797,
      "뷰죡": 5798,
      "뷴는": 5799,
      "빻됴": 5800,
      "빻욺": 5801,
      "뽁교": 5802,
      "뿐틂": 5803,
      "쀼토": 5804,
      "삵착": 5805,
      "샤짱닒": 5806,
      "섣셔": 5807,
      "섧오": 5808,
      "셔욹": 5809,
      "쇽쪼": 5810,
      "술룰": 5811,
      "숲뉘탸": 5812,
      "쉴맣": 5813,
      "슉껀": 5814,
      "슉숄": 5815,
      "스먼": 5816,
      "슭립": 5817,
      "신는": 5818,
      "싯섦": 5819,
      "싸쟝": 5820,
      "쌀착": 5821,
      "썬텍": 5822,
      "썹빛": 5823,
      "쑥갸": 5824,
      "쑥뺙": 5825,
      "쑵뉘탸": 5826,
      "쒸코": 5827,
      "씨면": 5828,
      "씸면": 5829,
      "않꼬": 5830,
      "않야": 5831,
      "않흖": 5832,
      "야윷": 5833,
      "얀았": 5834,
      "어귀": 5835,
      "어려": 5836,
      "얼룸": 5837,
      "업꼬": 5838,
      "업움": 5839,
      "엉짱": 5840,
      "엎꼬": 5841,
      "엎움": 5842,
      "엡셔": 5843,
      "엣섞": 5844,
      "여옥": 5845,
      "엶오": 5846,
      "엽씀": 5847,
      "엾욺": 5848,
      "였셔": 5849,
      "예토": 5850,
      "옙뿌": 5851,
      "옥꼬": 5852,
      "옳레": 5853,
      "옹풂": 5854,
      "요는": 5855,
      "웅때": 5856,
      "위섰": 5857,
      "윅취": 5858,
      "윈셍": 5859,
      "윌쭐": 5860,
      "윌판": 5861,
      "윕찌": 5862,
      "윗쓺": 5863,
      "윗서써": 5864,
      "윤넝": 5865,
      "읫싸": 5866,
      "일옹": 5867,
      "읾랗": 5868,
      "잃단": 5869,
      "잇댜": 5870,
      "있쓺": 5871,
      "있울": 5872,
      "잎뿌": 5873,
      "잎싫": 5874,
      "젝갸": 5875,
      "젝카": 5876,
      "젼뱐": 5877,
      "젼확": 5878,
      "젼환": 5879,
      "졍툐": 5880,
      "좋곪": 5881,
      "좋넬": 5882,
      "쥑졉": 5883,
      "쨩문": 5884,
      "쩐허": 5885,
      "쩡쏙": 5886,
      "쪼식": 5887,
      "쫓씩": 5888,
      "쬐쿄": 5889,
      "찍까": 5890,
      "천눈": 5891,
      "천확": 5892,
      "천환": 5893,
      "천활": 5894,
      "첨운": 5895,
      "축갸": 5896,
      "출쟝": 5897,
      "췸땍": 5898,
      "췻솖": 5899,
      "카먼": 5900,
      "카취": 5901,
      "칵꺽": 5902,
      "캐인": 5903,
      "캭교": 5904,
      "케끝": 5905,
      "켓셔": 5906,
      "켠딪": 5907,
      "콴릭": 5908,
      "쾨쩍": 5909,
      "쿡윈": 5910,
      "퀘적": 5911,
      "킬룰": 5912,
      "타료": 5913,
      "탁카": 5914,
      "탈랴": 5915,
      "탓쉬": 5916,
      "탸눈": 5917,
      "톨료": 5918,
      "툇싫": 5919,
      "팡또": 5920,
      "편앉": 5921,
      "푸텨": 5922,
      "푼뉘": 5923,
      "학꿰": 5924,
      "학콕": 5925,
      "학퀴": 5926,
      "한낡": 5927,
      "한났": 5928,
      "한편": 5929,
      "할꼬": 5930,
      "할인": 5931,
      "핥윈": 5932,
      "합는": 5933,
      "합닛따": 5934,
      "핸써": 5935,
      "햇씁뉘": 5936,
      "햇는떼": 5937,
      "했코": 5938,
      "헷눈뒈": 5939,
      "확쉴": 5940,
      "확씰": 5941,
      "환퓽": 5942,
      "휨듦": 5943,
      "10쉬": 5944,
      "합뉘닸": 5945,
      "좋얏써": 5946,
      "한는뒈": 5947,
      "찐철한": 5948,
      "췬절한": 5949,
      "함먼써": 5950,
      "위용핥": 5951,
      "칼끎한": 5952,
      "방문핥": 5953,
      "꺌꿈한": 5954,
      "12쉬": 5955,
      "헤윤때": 5956,
      "슈엉창": 5957,
      "친젊핫": 5958,
      "☆☆☆☆": 5959,
      "옐립붸": 5960,
      "1뺙": 5961,
      "1윌": 5962,
      "2캐": 5963,
      "2퍅": 5964,
      "5쩐": 5965,
      "9쉬": 5966,
      "IP": 5967,
      "LP": 5968,
      "……": 5969,
      "갓운": 5970,
      "갔운": 5971,
      "갚뉘타": 5972,
      "갸는": 5973,
      "갸써": 5974,
      "갹캅": 5975,
      "건뮬": 5976,
      "계오": 5977,
      "관릿": 5978,
      "괜찮": 5979,
      "구낳": 5980,
      "귀뷴": 5981,
      "귁까": 5982,
      "긷태": 5983,
      "까먼": 5984,
      "까뻬": 5985,
      "깍꺄": 5986,
      "깹술": 5987,
      "껍삐": 5988,
      "께오": 5989,
      "꽤쩍": 5990,
      "꾜똥": 5991,
      "끊쳐": 5992,
      "끼웨": 5993,
      "냄색": 5994,
      "냐프": 5995,
      "냠차": 5996,
      "네용": 5997,
      "넥갸": 5998,
      "념뮷": 5999,
      "녜옻": 6000,
      "놂랐": 6001,
      "놂려": 6002,
      "눈뎀": 6003,
      "눼온": 6004,
      "뉜탸": 6005,
      "뉨먼": 6006,
      "늙료": 6007,
      "님탸": 6008,
      "닥까": 6009,
      "단녔": 6010,
      "단뉘": 6011,
      "닮빼": 6012,
      "닺씨": 6013,
      "닻쉬": 6014,
      "돼엇": 6015,
      "둘림": 6016,
      "둘운": 6017,
      "뒈얻": 6018,
      "듦엌": 6019,
      "따코": 6020,
      "딴졈": 6021,
      "땃쉬": 6022,
      "땝뷔": 6023,
      "럇셔": 6024,
      "러써": 6025,
      "럼먼": 6026,
      "럼면": 6027,
      "럽교": 6028,
      "려어": 6029,
      "력교": 6030,
      "력쓰": 6031,
      "렸써": 6032,
      "론눈": 6033,
      "뤼랴": 6034,
      "리눈": 6035,
      "릴랗": 6036,
      "릴룰": 6037,
      "많듦": 6038,
      "많앝": 6039,
      "많함": 6040,
      "많핫": 6041,
      "맏짚": 6042,
      "맛찝": 6043,
      "먈교": 6044,
      "먈많": 6045,
      "멍위": 6046,
      "메욺": 6047,
      "면치": 6048,
      "몫텔": 6049,
      "못뗄": 6050,
      "몽뗄": 6051,
      "묜닒": 6052,
      "무료": 6053,
      "뮤녜": 6054,
      "뮤로": 6055,
      "뮤쓴": 6056,
      "뮨졔": 6057,
      "받는": 6058,
      "뱌람": 6059,
      "별로": 6060,
      "볘위": 6061,
      "복또": 6062,
      "봄먼": 6063,
      "붊펀": 6064,
      "붚뿐": 6065,
      "뷸편": 6066,
      "빠댜": 6067,
      "빻음": 6068,
      "뿌갸": 6069,
      "뿌떠": 6070,
      "쀼또": 6071,
      "쁘탑": 6072,
      "샨눈": 6073,
      "섕각": 6074,
      "서옳": 6075,
      "셈먼": 6076,
      "션위": 6077,
      "셥뷔": 6078,
      "쇼욺": 6079,
      "쇽쵸": 6080,
      "숙뱍": 6081,
      "숩닝댜": 6082,
      "숲닐댜": 6083,
      "쉰축": 6084,
      "쉽운": 6085,
      "쉿설": 6086,
      "슈견": 6087,
      "슉갸": 6088,
      "슨눈": 6089,
      "식칸": 6090,
      "싣설": 6091,
      "십은": 6092,
      "십쥐": 6093,
      "쌓때": 6094,
      "쎄욘": 6095,
      "쏘욺": 6096,
      "쏙쪼": 6097,
      "쑥솔": 6098,
      "쑥쇽": 6099,
      "쓰탸": 6100,
      "씁니따": 6101,
      "씁닛따": 6102,
      "씨썲": 6103,
      "씸한": 6104,
      "씻설": 6105,
      "안야": 6106,
      "앉닒": 6107,
      "앉훈": 6108,
      "약깝": 6109,
      "얗한": 6110,
      "얘욘": 6111,
      "얘욤": 6112,
      "엉먕": 6113,
      "엉창": 6114,
      "엌끼": 6115,
      "엎빵": 6116,
      "엎위": 6117,
      "엎코": 6118,
      "엣섰": 6119,
      "엾오": 6120,
      "였눈테": 6121,
      "영맣": 6122,
      "옇오": 6123,
      "예또": 6124,
      "옛약": 6125,
      "옮레": 6126,
      "옰레": 6127,
      "욘쳔": 6128,
      "우롯": 6129,
      "울로": 6130,
      "울록": 6131,
      "울롯": 6132,
      "웨토": 6133,
      "웰켬": 6134,
      "위동": 6135,
      "위량": 6136,
      "위렇": 6137,
      "위샹": 6138,
      "위싸": 6139,
      "위웨": 6140,
      "위틂": 6141,
      "윌랐": 6142,
      "윌랒": 6143,
      "윕닛": 6144,
      "윕니댜": 6145,
      "윤찌": 6146,
      "은냐": 6147,
      "을로": 6148,
      "읊론": 6149,
      "읊롭": 6150,
      "음웨": 6151,
      "읏료": 6152,
      "읽런": 6153,
      "읾단": 6154,
      "읾칙": 6155,
      "잇언": 6156,
      "있음": 6157,
      "있여오": 6158,
      "잎닝": 6159,
      "잎뿔": 6160,
      "잎실": 6161,
      "잚묫": 6162,
      "쟈쩨": 6163,
      "쟝샤": 6164,
      "져는": 6165,
      "좇식": 6166,
      "좋곯": 6167,
      "좋굣": 6168,
      "좋꼿": 6169,
      "좋약": 6170,
      "좋숲뉘댜": 6171,
      "죗숑": 6172,
      "줏섰": 6173,
      "중예": 6174,
      "쥰눈": 6175,
      "짬교": 6176,
      "짱졈": 6177,
      "쩡돎": 6178,
      "쭉갸": 6179,
      "쮜악": 6180,
      "찍껀": 6181,
      "찜꾸": 6182,
      "척윈": 6183,
      "첨됴": 6184,
      "청껄": 6185,
      "촉큼": 6186,
      "추찻": 6187,
      "춘눈": 6188,
      "충칸": 6189,
      "췬굳": 6190,
      "췬꾸": 6191,
      "췸떼": 6192,
      "췻쏠": 6193,
      "카윤": 6194,
      "캄면": 6195,
      "캅뉘타": 6196,
      "캡슐": 6197,
      "캬격": 6198,
      "캬먼": 6199,
      "켁끗": 6200,
      "콴링": 6201,
      "크냥": 6202,
      "키웨": 6203,
      "킥까": 6204,
      "탕휘": 6205,
      "탠는": 6206,
      "테됴": 6207,
      "퇴눈": 6208,
      "퇴는": 6209,
      "투뤼": 6210,
      "트립": 6211,
      "틀립": 6212,
      "파람": 6213,
      "팡토": 6214,
      "푸눈": 6215,
      "푸룐": 6216,
      "푼틂": 6217,
      "퓨또": 6218,
      "퓰펀": 6219,
      "피헤": 6220,
      "하꾜": 6221,
      "학꽃": 6222,
      "학눈": 6223,
      "학콘": 6224,
      "한쿡": 6225,
      "한탸": 6226,
      "합눈": 6227,
      "합닉댜": 6228,
      "햐곪": 6229,
      "햐어": 6230,
      "햐쥐많": 6231,
      "햐찜많": 6232,
      "향쌍": 6233,
      "헐쒼": 6234,
      "헤쭈": 6235,
      "헵번": 6236,
      "헹폭": 6237,
      "확귄": 6238,
      "환겋": 6239,
      "환붊": 6240,
      "환샹": 6241,
      "환풀": 6242,
      "횬뗄": 6243,
      "휜눈": 6244,
      "휴귀": 6245,
      "흡언": 6246,
      "좋았움": 6247,
      "ㅎㅎㅎㅎ": 6248,
      "한눈뒈": 6249,
      "씁뉘닦": 6250,
      "씁뉘닫": 6251,
      "씁뉘닭": 6252,
      "좋야욕": 6253,
      "췬철한": 6254,
      "깔끎한": 6255,
      "깖큼한": 6256,
      "랴윤쥐": 6257,
      "웰립붸": 6258,
      "혹깡수": 6259,
      "쑤엉짱": 6260,
      "1됴": 6261,
      "1토": 6262,
      "2읾": 6263,
      "36": 6264,
      "3많": 6265,
      "4멍": 6266,
      "6쯩": 6267,
      "8얼": 6268,
      "갊셩": 6269,
      "값뉘타": 6270,
      "갸윤": 6271,
      "걍쭈": 6272,
      "걺뤼": 6273,
      "결뤼": 6274,
      "관리": 6275,
      "군쪄": 6276,
      "굴렇": 6277,
      "궤오": 6278,
      "귀까": 6279,
      "귀룰": 6280,
      "긁렇": 6281,
      "깊뷴": 6282,
      "깖착": 6283,
      "깥교": 6284,
      "깨윈": 6285,
      "껄뤼": 6286,
      "꼐쇽": 6287,
      "꾄짠": 6288,
      "꾸윈": 6289,
      "꿴짠": 6290,
      "끝네": 6291,
      "냐욤": 6292,
      "냑꼬": 6293,
      "냘쒸": 6294,
      "넒코": 6295,
      "넓꼬": 6296,
      "념뮴": 6297,
      "놓은": 6298,
      "뇨휴": 6299,
      "뇰랏": 6300,
      "뇰랐": 6301,
      "누열": 6302,
      "눼옥": 6303,
      "눼옴": 6304,
      "뉘당": 6305,
      "는델": 6306,
      "닉캬": 6307,
      "닒랴": 6308,
      "닭른": 6309,
      "닸씨": 6310,
      "닺쉬": 6311,
      "댜꼬": 6312,
      "덕뷴": 6313,
      "동앉": 6314,
      "됩뉘타": 6315,
      "두럿": 6316,
      "두립": 6317,
      "둘립": 6318,
      "딛선": 6319,
      "따는": 6320,
      "따많": 6321,
      "땐는": 6322,
      "떤눈": 6323,
      "떼문": 6324,
      "뙈여": 6325,
      "뙤엊": 6326,
      "뚜윈": 6327,
      "락꾜": 6328,
      "력코": 6329,
      "론는": 6330,
      "룬는": 6331,
      "뤼죠": 6332,
      "륨됴": 6333,
      "륨또": 6334,
      "만꼬": 6335,
      "맏찝": 6336,
      "맒할": 6337,
      "맨틱": 6338,
      "먀따": 6339,
      "멘는": 6340,
      "묫햇": 6341,
      "문졔": 6342,
      "뮤얻": 6343,
      "벎료": 6344,
      "뵤윈": 6345,
      "분틀": 6346,
      "붉펀": 6347,
      "븃텨": 6348,
      "뻔뤼": 6349,
      "뽀뉘": 6350,
      "뽁됴": 6351,
      "뿌눈": 6352,
      "뿌텨": 6353,
      "뿐뚤": 6354,
      "쁠료": 6355,
      "사웍": 6356,
      "사월": 6357,
      "섕캭": 6358,
      "섣써": 6359,
      "섦오": 6360,
      "섯오": 6361,
      "셉뼉": 6362,
      "셍꺅": 6363,
      "셍캭": 6364,
      "셔뤼": 6365,
      "셔뷔": 6366,
      "셩윈": 6367,
      "수탸": 6368,
      "숙밗": 6369,
      "숩니댜": 6370,
      "쉐먼": 6371,
      "쉠면": 6372,
      "쉭쿄": 6373,
      "쉰랗": 6374,
      "쉴네": 6375,
      "쉽푼": 6376,
      "싯썲": 6377,
      "쌍한": 6378,
      "쌩갸": 6379,
      "썽쑥": 6380,
      "쎄먼": 6381,
      "쏢뤼": 6382,
      "쑈움": 6383,
      "쑤토": 6384,
      "쑴면": 6385,
      "쒸따": 6386,
      "쓰됴": 6387,
      "쓰렵": 6388,
      "씁님타": 6389,
      "씨언": 6390,
      "씩탕": 6391,
      "않은": 6392,
      "않훔": 6393,
      "얀뉩": 6394,
      "얀훌": 6395,
      "얍뻬": 6396,
      "얍폐": 6397,
      "없셨": 6398,
      "엇써": 6399,
      "엌귀": 6400,
      "엎써": 6401,
      "엎씨": 6402,
      "엔써": 6403,
      "엣오": 6404,
      "여껀": 6405,
      "여옳": 6406,
      "여켠": 6407,
      "엽셨": 6408,
      "엽쉬": 6409,
      "영먕": 6410,
      "옆는": 6411,
      "옛섟": 6412,
      "옭레": 6413,
      "옮랴": 6414,
      "옹뿜": 6415,
      "요꼬": 6416,
      "우록": 6417,
      "위샤": 6418,
      "위셔": 6419,
      "위칟": 6420,
      "윈갸": 6421,
      "윌료": 6422,
      "윔뮈": 6423,
      "윕닙": 6424,
      "윕싫": 6425,
      "읊롯": 6426,
      "읖료": 6427,
      "읽딴": 6428,
      "읾용": 6429,
      "잇용": 6430,
      "있용": 6431,
      "잊셔": 6432,
      "잊슴": 6433,
      "잊었": 6434,
      "잎규": 6435,
      "잎꾸": 6436,
      "잎쉴": 6437,
      "쟘많": 6438,
      "쟝첨": 6439,
      "절럼한": 6440,
      "젊데": 6441,
      "져눈": 6442,
      "젼넉": 6443,
      "졍돌": 6444,
      "졔읽": 6445,
      "좋넷": 6446,
      "좋얌": 6447,
      "죡견": 6448,
      "줏셧": 6449,
      "줴공": 6450,
      "진눈": 6451,
      "짝운": 6452,
      "짱운": 6453,
      "짱젊": 6454,
      "쨩뉨": 6455,
      "쩐뱐": 6456,
      "쩐활": 6457,
      "쩐홧": 6458,
      "쩔데": 6459,
      "쩡솔": 6460,
      "쩨쿠": 6461,
      "쪄음": 6462,
      "쭝뿐": 6463,
      "쭝젼": 6464,
      "창졈": 6465,
      "처눈": 6466,
      "첸눈": 6467,
      "첼료": 6468,
      "초용": 6469,
      "초훔": 6470,
      "촉굶": 6471,
      "추윈": 6472,
      "충깐": 6473,
      "췌쿄": 6474,
      "췸댄": 6475,
      "츄역": 6476,
      "츌짱": 6477,
      "캄썽": 6478,
      "캄착": 6479,
      "케셔": 6480,
      "케쿳": 6481,
      "켸쇽": 6482,
      "콜룐": 6483,
      "콴릴": 6484,
      "쾨척": 6485,
      "큰썽": 6486,
      "큰쳐": 6487,
      "택갸": 6488,
      "텬눈": 6489,
      "툭갸": 6490,
      "툰는": 6491,
      "퉤위": 6492,
      "팎웨": 6493,
      "팡예": 6494,
      "팡욺": 6495,
      "팡읽": 6496,
      "편학궤": 6497,
      "폰눈": 6498,
      "풉뷴": 6499,
      "퓌로": 6500,
      "퓔로": 6501,
      "퓨는": 6502,
      "퓻싼": 6503,
      "퓽켱": 6504,
      "하쥐": 6505,
      "학꼿": 6506,
      "학꽁": 6507,
      "학콤": 6508,
      "한걍": 6509,
      "한낚": 6510,
      "한낫": 6511,
      "한눌": 6512,
      "함몇": 6513,
      "합뉩": 6514,
      "합코": 6515,
      "합니따": 6516,
      "항샹": 6517,
      "핼셔": 6518,
      "햅번": 6519,
      "햅편": 6520,
      "햇여오": 6521,
      "햇씁뉘따": 6522,
      "햇눈뛔": 6523,
      "했떤": 6524,
      "햐곬": 6525,
      "햐쮜": 6526,
      "햐쥠많": 6527,
      "햐침많": 6528,
      "햐쥐만": 6529,
      "헙쏘": 6530,
      "훨신": 6531,
      "휴훼": 6532,
      "...)": 6533,
      "씁뉘닸": 6534,
      "좋야셔": 6535,
      "좋야욥": 6536,
      "좋야서오": 6537,
      "10뿐": 6538,
      "합뉘단": 6539,
      "합뉘닫": 6540,
      "합뉘닺": 6541,
      "한는뎨": 6542,
      "숩뉘당": 6543,
      "찐졀한": 6544,
      "췬쩔한": 6545,
      "췬쩔함": 6546,
      "찐젊함": 6547,
      "TV눈": 6548,
      "찐쩔함": 6549,
      "2022": 6550,
      "방뮨핥": 6551,
      "30뿐": 6552,
      "좋숩뉘타": 6553,
      "5셩끕": 6554,
      "5셩큽": 6555,
      "쾅얀뤼": 6556,
      "광앉뤼": 6557,
      "첵꾸윈": 6558,
      "2멍": 6559,
      "3명": 6560,
      "CC": 6561,
      "VIP": 6562,
      "bb": 6563,
      "●●": 6564,
      "갇운": 6565,
      "갖치": 6566,
      "갹귀": 6567,
      "갹카": 6568,
      "걸뤼": 6569,
      "겆됴": 6570,
      "게인": 6571,
      "공싸": 6572,
      "공언": 6573,
      "관광": 6574,
      "국윈": 6575,
      "굵런": 6576,
      "귈룰": 6577,
      "귑뷴": 6578,
      "까면": 6579,
      "깡룽": 6580,
      "깡츄": 6581,
      "꺄오": 6582,
      "꺄운": 6583,
      "꺄취": 6584,
      "꺼윤": 6585,
      "꺽청": 6586,
      "껀띠": 6587,
      "껸뮬": 6588,
      "꼭객": 6589,
      "꿜뤼": 6590,
      "끄낳": 6591,
      "끈낳": 6592,
      "끌료": 6593,
      "끼룰": 6594,
      "낙꼬": 6595,
      "낙코": 6596,
      "낢쟈": 6597,
      "낼럭": 6598,
      "냉창": 6599,
      "냐교": 6600,
      "냑갸": 6601,
      "냔빻": 6602,
      "냠싼": 6603,
      "널꼬": 6604,
      "넒교": 6605,
      "네러": 6606,
      "네욘": 6607,
      "넨는": 6608,
      "넴요": 6609,
      "녀뮴": 6610,
      "녜옳": 6611,
      "놓운": 6612,
      "눈덴": 6613,
      "눈템": 6614,
      "뉘꺄": 6615,
      "는텐": 6616,
      "닫씨": 6617,
      "닮패": 6618,
      "댜쒸": 6619,
      "데뷔": 6620,
      "뎁뷔": 6621,
      "돼얻": 6622,
      "됩뉘따": 6623,
      "두력": 6624,
      "둘역": 6625,
      "뒈셔": 6626,
      "뒈엊": 6627,
      "들됴": 6628,
      "듦됴": 6629,
      "듦엊": 6630,
      "듦운": 6631,
      "딛션": 6632,
      "때한": 6633,
      "떽갸": 6634,
      "똔눈": 6635,
      "똥헤": 6636,
      "뛔여": 6637,
      "뜨려": 6638,
      "뜩퀴": 6639,
      "랐셔": 6640,
      "랐써": 6641,
      "랒쓰": 6642,
      "랴면": 6643,
      "랴토": 6644,
      "럇수": 6645,
      "럭꼬": 6646,
      "렌만": 6647,
      "련쥐": 6648,
      "례써": 6649,
      "례위": 6650,
      "룐는": 6651,
      "뤽쿄": 6652,
      "륄랗": 6653,
      "륌먼": 6654,
      "릭쿄": 6655,
      "릴랴": 6656,
      "많움": 6657,
      "많힘": 6658,
      "맏잇": 6659,
      "맛댜": 6660,
      "맛윗": 6661,
      "맛잇": 6662,
      "맞쟈": 6663,
      "맡있": 6664,
      "먹읊": 6665,
      "먹코": 6666,
      "목뗄": 6667,
      "몫뗄": 6668,
      "몫옥": 6669,
      "몰뗄": 6670,
      "몲룩": 6671,
      "몲텔": 6672,
      "묜뉨": 6673,
      "묠륵": 6674,
      "묵운": 6675,
      "묽로": 6676,
      "묾론": 6677,
      "뭬됴": 6678,
      "뮤눼": 6679,
      "뮨냔": 6680,
      "뮨뉘": 6681,
      "뮨예": 6682,
      "뮨울": 6683,
      "밖웨": 6684,
      "받탸": 6685,
      "밧닥": 6686,
      "방툐": 6687,
      "뵤위": 6688,
      "부캬": 6689,
      "뻐오": 6690,
      "뻔뉘": 6691,
      "뻔햇": 6692,
      "뼝윌": 6693,
      "뽄는": 6694,
      "삐헤": 6695,
      "선눈": 6696,
      "섶뷔": 6697,
      "셍갸": 6698,
      "션택": 6699,
      "셥빛": 6700,
      "손닒": 6701,
      "수뜨": 6702,
      "수렵": 6703,
      "숩닐": 6704,
      "숲님": 6705,
      "숲니댜": 6706,
      "쉐딱": 6707,
      "쉬귀": 6708,
      "쉬뤼": 6709,
      "쉬운": 6710,
      "쉬쟝": 6711,
      "쉭귀": 6712,
      "쉭운": 6713,
      "쉽뉘": 6714,
      "슈쭌": 6715,
      "슉쇽": 6716,
      "슉쏢": 6717,
      "슨냐": 6718,
      "식교": 6719,
      "실네": 6720,
      "실먕": 6721,
      "싸윤": 6722,
      "썰멍": 6723,
      "쎄욜": 6724,
      "쎄욥": 6725,
      "쏭됴": 6726,
      "쑤껀": 6727,
      "쑤춘": 6728,
      "쑥쏢": 6729,
      "쒸섧": 6730,
      "쒸였": 6731,
      "쒸윤": 6732,
      "쒸탸": 6733,
      "쓰눈": 6734,
      "쓰뜨": 6735,
      "쓱까": 6736,
      "쓸렵": 6737,
      "씁뉨": 6738,
      "씁닒따": 6739,
      "씁닛타": 6740,
      "씁닙타": 6741,
      "씨먼": 6742,
      "씨웨": 6743,
      "씩간": 6744,
      "씹운": 6745,
      "씻써": 6746,
      "악한": 6747,
      "앉꼬": 6748,
      "앉뉠": 6749,
      "앉야": 6750,
      "앉울": 6751,
      "앉은": 6752,
      "앗찜": 6753,
      "야닉": 6754,
      "얀닉": 6755,
      "얏써": 6756,
      "얘픈": 6757,
      "언후": 6758,
      "얹략": 6759,
      "얾멘": 6760,
      "었쑵": 6761,
      "엎방": 6762,
      "엎셨": 6763,
      "엎엊": 6764,
      "엠써": 6765,
      "여옷": 6766,
      "엽섯": 6767,
      "엾방": 6768,
      "옆교": 6769,
      "예키": 6770,
      "옙프": 6771,
      "옰랴": 6772,
      "옳랴": 6773,
      "완벽": 6774,
      "왓눈뒈": 6775,
      "왔눈뒈": 6776,
      "욕샹": 6777,
      "욕실": 6778,
      "욘똘": 6779,
      "우롤": 6780,
      "우롭": 6781,
      "운때": 6782,
      "운태": 6783,
      "욹뤼": 6784,
      "워써": 6785,
      "위뗘": 6786,
      "위름": 6787,
      "위쓺": 6788,
      "위칙": 6789,
      "윅께": 6790,
      "윈섕": 6791,
      "윈한": 6792,
      "윌쮜": 6793,
      "윔먼": 6794,
      "윕규": 6795,
      "윕니": 6796,
      "윕닝": 6797,
      "윕실": 6798,
      "윕닐댜": 6799,
      "윗꼬": 6800,
      "윗얻": 6801,
      "윗서셔": 6802,
      "윤떼": 6803,
      "윤쥐": 6804,
      "음몌": 6805,
      "인위": 6806,
      "읽락": 6807,
      "읾룸": 6808,
      "잇따": 6809,
      "잇숲": 6810,
      "잇엿셔": 6811,
      "있샹": 6812,
      "있쑵": 6813,
      "있눈테": 6814,
      "잉용": 6815,
      "잊쿄": 6816,
      "잎변": 6817,
      "잎프": 6818,
      "잎닉댜": 6819,
      "잚못": 6820,
      "저써": 6821,
      "젝까": 6822,
      "져렴": 6823,
      "져럼한": 6824,
      "젼녘": 6825,
      "젼는": 6826,
      "젼빤": 6827,
      "젼홧": 6828,
      "졍뤼": 6829,
      "좋께": 6830,
      "좋콤": 6831,
      "좋타": 6832,
      "좋쑵뉘": 6833,
      "죠큼": 6834,
      "죠햐오": 6835,
      "줍변": 6836,
      "쥬눈": 6837,
      "쥬착": 6838,
      "짱냔": 6839,
      "쨩씰": 6840,
      "쨩위": 6841,
      "쩝군썽": 6842,
      "쪄렴": 6843,
      "쪼굼": 6844,
      "쫴악": 6845,
      "쫴코": 6846,
      "쭈번": 6847,
      "쭐짱": 6848,
      "쮜쇼": 6849,
      "찌권": 6850,
      "찌는": 6851,
      "찍꼬": 6852,
      "찍졉": 6853,
      "찜굶": 6854,
      "찜땍": 6855,
      "창젊": 6856,
      "챵뉨": 6857,
      "챵위": 6858,
      "처휘": 6859,
      "천허": 6860,
      "천홧": 6861,
      "천황": 6862,
      "철데": 6863,
      "청쏙": 6864,
      "첵까": 6865,
      "쳉켜": 6866,
      "쳔맣": 6867,
      "초식": 6868,
      "쵯샹": 6869,
      "쵸씩": 6870,
      "축교": 6871,
      "충에": 6872,
      "췬쿠": 6873,
      "츄엌": 6874,
      "치권": 6875,
      "칟숄": 6876,
      "칟쏠": 6877,
      "캅뉘따": 6878,
      "캇운": 6879,
      "캠삥": 6880,
      "컁쓰": 6881,
      "컥청": 6882,
      "컨묽": 6883,
      "케끗": 6884,
      "콩언": 6885,
      "크렇": 6886,
      "클료": 6887,
      "키를": 6888,
      "킨는": 6889,
      "킬를": 6890,
      "타꼬": 6891,
      "타먼": 6892,
      "탁꾜": 6893,
      "탁딱": 6894,
      "탕한": 6895,
      "탸교": 6896,
      "탸룬": 6897,
      "톄위": 6898,
      "통앉": 6899,
      "퇘셔": 6900,
      "툭퀴": 6901,
      "튄눈": 6902,
      "틀여": 6903,
      "파닥": 6904,
      "팎예": 6905,
      "팡에": 6906,
      "펀않": 6907,
      "페위": 6908,
      "펜서": 6909,
      "편휘": 6910,
      "편학께": 6911,
      "포탸": 6912,
      "폰뉘": 6913,
      "표댜": 6914,
      "푸뉘": 6915,
      "풀뻔": 6916,
      "풉뿐": 6917,
      "퓨샨": 6918,
      "퓨캬": 6919,
      "퓰룰": 6920,
      "퓽겅": 6921,
      "플료": 6922,
      "학고": 6923,
      "학귄": 6924,
      "학꼭": 6925,
      "학꼼": 6926,
      "학뀄": 6927,
      "학뀌": 6928,
      "한납": 6929,
      "할는": 6930,
      "핥먼": 6931,
      "함눈": 6932,
      "함는": 6933,
      "합니타": 6934,
      "합님따": 6935,
      "합닉타": 6936,
      "합닐타": 6937,
      "핫썼": 6938,
      "핸셔": 6939,
      "핼오": 6940,
      "햅써": 6941,
      "햇떤": 6942,
      "햇숩뉘": 6943,
      "햇씁뉘타": 6944,
      "했꼬": 6945,
      "했따": 6946,
      "했턴": 6947,
      "햐곯": 6948,
      "햐곶": 6949,
      "헷섣": 6950,
      "혼짜": 6951,
      "홈폐": 6952,
      "확쟝씰": 6953,
      "확쟝실": 6954,
      "환겅": 6955,
      "홧쟝씰": 6956,
      "황쟝쉴": 6957,
      "횬짜": 6958,
      "횹뗄": 6959,
      "훨쒼": 6960,
      "휨들": 6961,
      "휨뜰": 6962,
      "좋았써": 6963,
      "좋앝셔": 6964,
      "한눈떼": 6965,
      "씁뉘닮": 6966,
      "씁뉘닯": 6967,
      "씁뉘닺": 6968,
      "좋운뎨": 6969,
      "합뉘답": 6970,
      "숩뉘닫": 6971,
      "TV갸": 6972,
      "췬절함": 6973,
      "20많": 6974,
      "000어": 6975,
      "30푼": 6976,
      "꺌끎한": 6977,
      "헤윤태": 6978,
      "깖끎한": 6979,
      "윈떼뤼": 6980,
      "툿슉객": 6981,
      "엘뤼붸": 6982,
      "멘뉘띠": 6983,
      "--------": 6984,
      "옘뮌한": 6985,
      "★★★★★": 6986,
      ".^^": 6987,
      "1많": 6988,
      "1뷴": 6989,
      "29": 6990,
      "2걔": 6991,
      "3잃": 6992,
      "3펀": 6993,
      "5졈": 6994,
      "5쳔": 6995,
      "6많": 6996,
      "8쉬": 6997,
      "8씨": 6998,
      "?\"": 6999,
      "SU": 7000,
      "zz": 7001,
      "갇뜬": 7002,
      "갊동": 7003,
      "갖따": 7004,
      "갸능": 7005,
      "갸썽": 7006,
      "거율": 7007,
      "겉됴": 7008,
      "견쥐": 7009,
      "곗속": 7010,
      "고똥": 7011,
      "곪팡위": 7012,
      "관쾅": 7013,
      "교충": 7014,
      "군테": 7015,
      "굴레": 7016,
      "귀갸": 7017,
      "귀를": 7018,
      "귀엔": 7019,
      "귐많": 7020,
      "긁료": 7021,
      "긺료": 7022,
      "긺룰": 7023,
      "깊뵨": 7024,
      "깊푼": 7025,
      "까꺽": 7026,
      "까오": 7027,
      "까캅": 7028,
      "깍코": 7029,
      "깖싸": 7030,
      "깜싸": 7031,
      "깡쭈": 7032,
      "깩꿎": 7033,
      "꺄쮜": 7034,
      "꺌략": 7035,
      "껀딨": 7036,
      "꼰쎈": 7037,
      "꽁언": 7038,
      "뀐눈": 7039,
      "끊냥": 7040,
      "끼갸": 7041,
      "끼뷴": 7042,
      "낍뿐": 7043,
      "납뉘": 7044,
      "낵카": 7045,
      "냄쎄": 7046,
      "냐는": 7047,
      "냠먀": 7048,
      "냠면": 7049,
      "넒운": 7050,
      "네욕": 7051,
      "넬요": 7052,
      "넸욥": 7053,
      "녜옷": 7054,
      "놓훈": 7055,
      "눈뎃": 7056,
      "뉘카": 7057,
      "는뎀": 7058,
      "늬쩜": 7059,
      "닒면": 7060,
      "닢탸": 7061,
      "단첨": 7062,
      "닻씨": 7063,
      "덴눈": 7064,
      "뎔략": 7065,
      "됴록": 7066,
      "두른": 7067,
      "둔눈": 7068,
      "둥위": 7069,
      "뒈꼬": 7070,
      "듦립": 7071,
      "따먼": 7072,
      "따씨": 7073,
      "땁탑": 7074,
      "떡카": 7075,
      "떨룰": 7076,
      "떼윕": 7077,
      "똔는": 7078,
      "뙤교": 7079,
      "뚜뤼": 7080,
      "뜨눈": 7081,
      "뜬는": 7082,
      "랜많": 7083,
      "랴윈": 7084,
      "럿써": 7085,
      "련뜨": 7086,
      "련찌": 7087,
      "롭뷔": 7088,
      "뤼까": 7089,
      "륨위": 7090,
      "륫밞": 7091,
      "리교": 7092,
      "릭꺄": 7093,
      "릭캬": 7094,
      "만았": 7095,
      "만움": 7096,
      "만코": 7097,
      "많들": 7098,
      "맡잊": 7099,
      "맡찝": 7100,
      "맬유": 7101,
      "먀욺": 7102,
      "먈뤼": 7103,
      "멱는": 7104,
      "멸뤽": 7105,
      "몬텔": 7106,
      "묵읊": 7107,
      "문뉘": 7108,
      "묻순": 7109,
      "묻쓴": 7110,
      "묽룐": 7111,
      "묽뤼": 7112,
      "묾룐": 7113,
      "묾뤼": 7114,
      "뮨난": 7115,
      "뮨쩨": 7116,
      "뮬됴": 7117,
      "뮬료": 7118,
      "뮷쓴": 7119,
      "밉뉘댜": 7120,
      "받땃": 7121,
      "밞웨": 7122,
      "밭댜": 7123,
      "별롬": 7124,
      "봄면": 7125,
      "봤눈테": 7126,
      "뵤읾": 7127,
      "부꺄": 7128,
      "분들": 7129,
      "붚뷴": 7130,
      "뷔뻬": 7131,
      "뷸룰": 7132,
      "뷸펀함": 7133,
      "뼝읽": 7134,
      "뽀교": 7135,
      "뽀똥": 7136,
      "뽀먼": 7137,
      "뽀통": 7138,
      "뽁코": 7139,
      "뿐는": 7140,
      "뿐툴": 7141,
      "뿡켱": 7142,
      "쀼샨": 7143,
      "쁠론": 7144,
      "쁠룐": 7145,
      "샬짝": 7146,
      "서온": 7147,
      "선퓨": 7148,
      "섰교": 7149,
      "셔룬": 7150,
      "셔아": 7151,
      "션쀼": 7152,
      "셥빚": 7153,
      "셩슈": 7154,
      "셰딱": 7155,
      "셰욥": 7156,
      "숙쑈": 7157,
      "술료": 7158,
      "숩니따": 7159,
      "숩닌따": 7160,
      "숩닉타": 7161,
      "숩닌타": 7162,
      "숲닌": 7163,
      "숲닢댜": 7164,
      "쉬먼": 7165,
      "슈춘": 7166,
      "슭럽": 7167,
      "식갼": 7168,
      "싸유": 7169,
      "쌔벅": 7170,
      "썅황": 7171,
      "써빗": 7172,
      "쎄욕": 7173,
      "쎄용": 7174,
      "쑤갸": 7175,
      "쑤또": 7176,
      "쑤옥쟝": 7177,
      "쑥까": 7178,
      "쑥쏠": 7179,
      "쑵닐": 7180,
      "쒸썰": 7181,
      "쒸엇": 7182,
      "쓴는": 7183,
      "씁님따": 7184,
      "씁닢따": 7185,
      "씁닌타": 7186,
      "씨꼬": 7187,
      "씨뤼": 7188,
      "씨코": 7189,
      "씩땅": 7190,
      "씬랴": 7191,
      "씰네": 7192,
      "아켱": 7193,
      "악겅": 7194,
      "앉훔": 7195,
      "앉흖": 7196,
      "않울": 7197,
      "않훈": 7198,
      "앞위": 7199,
      "약캅": 7200,
      "얀뉠": 7201,
      "얀늑": 7202,
      "얀흠": 7203,
      "얌뮤": 7204,
      "어요": 7205,
      "얻떻": 7206,
      "업얻": 7207,
      "없숨": 7208,
      "엊떻": 7209,
      "엌껸": 7210,
      "엣섧": 7211,
      "엣섯": 7212,
      "엥셔": 7213,
      "여멘": 7214,
      "여옮": 7215,
      "엽눈": 7216,
      "엽써": 7217,
      "엾엿": 7218,
      "엾읊": 7219,
      "엿오": 7220,
      "였써": 7221,
      "였오": 7222,
      "옆오": 7223,
      "옇먕": 7224,
      "옛섶": 7225,
      "옥쿄": 7226,
      "온쑤": 7227,
      "온쩐": 7228,
      "온토": 7229,
      "옹울": 7230,
      "완뻑": 7231,
      "왓눈떼": 7232,
      "왔눈뎨": 7233,
      "왔눈떼": 7234,
      "요코": 7235,
      "욜락": 7236,
      "우론": 7237,
      "우멘": 7238,
      "운넝": 7239,
      "운엉": 7240,
      "위뜰": 7241,
      "위쑴": 7242,
      "위통": 7243,
      "윅견": 7244,
      "윈군": 7245,
      "윈쩍": 7246,
      "윌출": 7247,
      "윕닉": 7248,
      "윕닉댜": 7249,
      "윗숨": 7250,
      "윗코": 7251,
      "읍료": 7252,
      "인쌍": 7253,
      "읽량": 7254,
      "읾먼": 7255,
      "읾면": 7256,
      "읾탄": 7257,
      "잃출": 7258,
      "잇었": 7259,
      "있써": 7260,
      "있읊": 7261,
      "있쥐": 7262,
      "있씁뉘댜": 7263,
      "잊엿써": 7264,
      "잚많": 7265,
      "쟈눈": 7266,
      "쟉교": 7267,
      "쟉은": 7268,
      "쟐묫": 7269,
      "절럼": 7270,
      "절렴": 7271,
      "젭팡문": 7272,
      "젼황": 7273,
      "졍똘": 7274,
      "졍톤": 7275,
      "좋곗": 7276,
      "좋궷": 7277,
      "좋얀": 7278,
      "좋얇": 7279,
      "좋케": 7280,
      "좋향": 7281,
      "좋씁뉘탸": 7282,
      "죠끔": 7283,
      "죡끎": 7284,
      "중위": 7285,
      "쥑첩": 7286,
      "쥬인": 7287,
      "직건": 7288,
      "짐많": 7289,
      "징많": 7290,
      "짝코": 7291,
      "쨉방뮨": 7292,
      "쨍껴": 7293,
      "쨩닒": 7294,
      "쩌눈": 7295,
      "쩐녘": 7296,
      "쩜위": 7297,
      "쩡돐": 7298,
      "쩡속": 7299,
      "쩡솖": 7300,
      "쩨쿠인": 7301,
      "쪄움": 7302,
      "쭙변": 7303,
      "쭝뷴": 7304,
      "쭝쩐": 7305,
      "찮눈": 7306,
      "창첨": 7307,
      "챰코": 7308,
      "챵닒": 7309,
      "챵쉴": 7310,
      "청돎": 7311,
      "청한": 7312,
      "체윌": 7313,
      "첵큭": 7314,
      "쳬쿠윈": 7315,
      "촉견": 7316,
      "쵸흖": 7317,
      "추쨔": 7318,
      "춧셨": 7319,
      "충갼": 7320,
      "췌꾜": 7321,
      "췸테": 7322,
      "츙뷴": 7323,
      "츙푼": 7324,
      "치눈": 7325,
      "칙껀": 7326,
      "칙꼬": 7327,
      "칙컨": 7328,
      "카꺄": 7329,
      "카셩": 7330,
      "카썽": 7331,
      "카쮜": 7332,
      "칵교": 7333,
      "캄싸": 7334,
      "캇셔": 7335,
      "캬걱": 7336,
      "캬면": 7337,
      "켓써": 7338,
      "켠티": 7339,
      "켱유": 7340,
      "콴뤽": 7341,
      "콴림": 7342,
      "쿄오": 7343,
      "쿨료": 7344,
      "크낳": 7345,
      "킥교": 7346,
      "타교": 7347,
      "타쉬": 7348,
      "탐빼": 7349,
      "태한": 7350,
      "택까": 7351,
      "탸어": 7352,
      "탸읾": 7353,
      "텐는": 7354,
      "툴려": 7355,
      "틀뤼": 7356,
      "파탁": 7357,
      "판눈": 7358,
      "팡익": 7359,
      "퍄료": 7360,
      "펄료": 7361,
      "포위눈": 7362,
      "폭됴": 7363,
      "푸까": 7364,
      "푹씬": 7365,
      "푼는": 7366,
      "풂펀": 7367,
      "하께": 7368,
      "학길": 7369,
      "학꼲": 7370,
      "학쌩": 7371,
      "학퀘": 7372,
      "한니": 7373,
      "한씩": 7374,
      "핥오": 7375,
      "핫슉": 7376,
      "핫쎄오": 7377,
      "항쌍": 7378,
      "햄셔": 7379,
      "햅오": 7380,
      "했움": 7381,
      "했눈뛔": 7382,
      "행복": 7383,
      "행위": 7384,
      "햐곤": 7385,
      "햐낟": 7386,
      "햐짊만": 7387,
      "헌콴": 7388,
      "헤욘": 7389,
      "헷선": 7390,
      "확실": 7391,
      "홧쟝싫": 7392,
      "황쟝실": 7393,
      "황창씰": 7394,
      "효뛔": 7395,
      "좋았습": 7396,
      "좋았오": 7397,
      "효텔룬": 7398,
      "씁뉘답": 7399,
      "씁뉘당": 7400,
      "좋앗교": 7401,
      "좋야욜": 7402,
      "10분": 7403,
      "10푼": 7404,
      "췬졀함": 7405,
      "찐쩔한": 7406,
      "ㅋㅋㅋㅋㅋㅋ": 7407,
      "20뷴": 7408,
      "좋햐욥": 7409,
      "11씨": 7410,
      "15뷴": 7411,
      "껙꿋한": 7412,
      "있여써": 7413,
      "화짱실": 7414,
      "깔꿈햐": 7415,
      "5썽끕": 7416,
      "팡움위": 7417,
      "깸삥쟝": 7418,
      "쾅앉뤼": 7419,
      "요션부": 7420,
      "엘뤼페": 7421,
      "핫쉭코": 7422,
      "캬윤텨": 7423,
      "야쒸윤": 7424,
      "SUV": 7425,
      "-)": 7426,
      "2깨": 7427,
      "3깨": 7428,
      "3만": 7429,
      "3밗": 7430,
      "3뻔": 7431,
      "60": 7432,
      "7얼": 7433,
      "7쯩": 7434,
      "te": 7435,
      "갓죡": 7436,
      "갖창": 7437,
      "같운": 7438,
      "갸셩": 7439,
      "갹깝": 7440,
      "갼단": 7441,
      "겅혐": 7442,
      "겉또": 7443,
      "겨위": 7444,
      "곶위": 7445,
      "관꽝": 7446,
      "교씨": 7447,
      "굵료": 7448,
      "귀또": 7449,
      "귀랴": 7450,
      "귑푼": 7451,
      "까꼬": 7452,
      "까셩": 7453,
      "깍꼬": 7454,
      "깍캅": 7455,
      "깔락": 7456,
      "깠운": 7457,
      "깥야오": 7458,
      "꺄격": 7459,
      "껀쥐": 7460,
      "껨삥": 7461,
      "껫셔": 7462,
      "꼰는": 7463,
      "꼲눈": 7464,
      "꼼팡": 7465,
      "끊썽": 7466,
      "끊쩌": 7467,
      "끌렇": 7468,
      "끓런": 7469,
      "끓련": 7470,
      "낟셔": 7471,
      "낢만": 7472,
      "낢많": 7473,
      "낢싼": 7474,
      "낢운": 7475,
      "낯써": 7476,
      "낼력": 7477,
      "냅뷰": 7478,
      "냐뿌": 7479,
      "냐셔": 7480,
      "냐써": 7481,
      "냠먼": 7482,
      "널코": 7483,
      "네욜": 7484,
      "네욤": 7485,
      "넥교": 7486,
      "넥욕": 7487,
      "넬러": 7488,
      "넸쁠": 7489,
      "넸욜": 7490,
      "녈뮤": 7491,
      "녜옰": 7492,
      "녜옴": 7493,
      "녜옹": 7494,
      "놀려": 7495,
      "뇰랒": 7496,
      "눅키": 7497,
      "눼옷": 7498,
      "뉘닭": 7499,
      "뉘싸": 7500,
      "뉜뎨": 7501,
      "뉩뉘댜": 7502,
      "늑꺼": 7503,
      "늑뀌": 7504,
      "늑큄": 7505,
      "단너": 7506,
      "닿언": 7507,
      "덱고": 7508,
      "덱까": 7509,
      "뒷썬": 7510,
      "들여": 7511,
      "듦렀": 7512,
      "듦려": 7513,
      "듦토": 7514,
      "따어": 7515,
      "떡균": 7516,
      "떡까": 7517,
      "떼료": 7518,
      "또오": 7519,
      "똥앉": 7520,
      "뙈써": 7521,
      "뙤는": 7522,
      "뙤쥐": 7523,
      "뚤운": 7524,
      "뜰려": 7525,
      "뜰룰": 7526,
      "란교": 7527,
      "랒써": 7528,
      "랴뮈": 7529,
      "랴윅": 7530,
      "러교": 7531,
      "러먼": 7532,
      "러셔": 7533,
      "럭코": 7534,
      "런눈": 7535,
      "럿셔": 7536,
      "력꼬": 7537,
      "렴먼": 7538,
      "룸위": 7539,
      "룸타": 7540,
      "뤠써": 7541,
      "뤠윈": 7542,
      "뤼웨": 7543,
      "뤽꾜": 7544,
      "륀쓰": 7545,
      "만얏": 7546,
      "많힐": 7547,
      "맏잊": 7548,
      "맑교": 7549,
      "먀윈": 7550,
      "먀인": 7551,
      "먈슴": 7552,
      "먈위": 7553,
      "먈핥": 7554,
      "멓위": 7555,
      "메웁": 7556,
      "멘튁": 7557,
      "멜뤼": 7558,
      "멱꼬": 7559,
      "몃쥔": 7560,
      "몌됴": 7561,
      "몬뗄": 7562,
      "묘륵": 7563,
      "묩뗄": 7564,
      "묫햐": 7565,
      "문울": 7566,
      "문읊": 7567,
      "뭍순": 7568,
      "뮈염": 7569,
      "뮤죠": 7570,
      "뮨읊": 7571,
      "뮨젝": 7572,
      "민먕": 7573,
      "받교": 7574,
      "받닸": 7575,
      "번귀": 7576,
      "복코": 7577,
      "봤뎐": 7578,
      "봤는뒈": 7579,
      "뵤었": 7580,
      "뵤코": 7581,
      "분듦": 7582,
      "붇텨": 7583,
      "불룰": 7584,
      "붉룰": 7585,
      "붊뻔": 7586,
      "붓샨": 7587,
      "뷕갸": 7588,
      "뷘눈": 7589,
      "뷴됴": 7590,
      "빛츄": 7591,
      "빠따": 7592,
      "빪료": 7593,
      "빵또": 7594,
      "빵에": 7595,
      "빵잇": 7596,
      "빻은": 7597,
      "뺘료": 7598,
      "뽄뉘": 7599,
      "뿐뤼": 7600,
      "쀼꺄": 7601,
      "쀼떠": 7602,
      "샐료": 7603,
      "샤유": 7604,
      "샤짱": 7605,
      "샤창": 7606,
      "샤항": 7607,
      "샹땍": 7608,
      "서아": 7609,
      "선위": 7610,
      "섬오": 7611,
      "섰오": 7612,
      "섶빛": 7613,
      "섶빚수": 7614,
      "셋오": 7615,
      "셔욺": 7616,
      "셥핏": 7617,
      "셩슉": 7618,
      "셩쑥": 7619,
      "셰먼": 7620,
      "셰욘": 7621,
      "수끄": 7622,
      "수됴": 7623,
      "숙갸": 7624,
      "숩닉": 7625,
      "숩닝": 7626,
      "숩닐댜": 7627,
      "숩닢댜": 7628,
      "숩닝타": 7629,
      "숲닒": 7630,
      "쉬댜": 7631,
      "쉬원": 7632,
      "쉭간": 7633,
      "쉭땅": 7634,
      "쉰겋": 7635,
      "쉴먕": 7636,
      "쉼햐": 7637,
      "슉쏠": 7638,
      "싣튀": 7639,
      "싶였": 7640,
      "싶푼": 7641,
      "싸창": 7642,
      "쌔료": 7643,
      "쌥뼉": 7644,
      "써욺": 7645,
      "썹빗": 7646,
      "썽슈": 7647,
      "썽쑤": 7648,
      "쑈뤼": 7649,
      "쑥솟": 7650,
      "쑥컨": 7651,
      "쑥쿠": 7652,
      "쓰템": 7653,
      "씁닙따": 7654,
      "씁닉따": 7655,
      "씨룬": 7656,
      "씨원": 7657,
      "씩꾜": 7658,
      "씬껑": 7659,
      "씬축": 7660,
      "씹은": 7661,
      "안코": 7662,
      "앉닉": 7663,
      "앉오": 7664,
      "않뉠": 7665,
      "암찜": 7666,
      "압웨": 7667,
      "앝췸": 7668,
      "앞예": 7669,
      "야닐": 7670,
      "야뻬": 7671,
      "야찍": 7672,
      "얀닢": 7673,
      "얀앝": 7674,
      "얀훔": 7675,
      "얏쉬": 7676,
      "얘욕": 7677,
      "얘청": 7678,
      "얩픈": 7679,
      "언써": 7680,
      "얽먀": 7681,
      "없셧": 7682,
      "없썼": 7683,
      "었떤": 7684,
      "엌키": 7685,
      "엎였": 7686,
      "에눈": 7687,
      "엑써": 7688,
      "엣선": 7689,
      "엣섣": 7690,
      "엣성": 7691,
      "엥써": 7692,
      "여올": 7693,
      "여옭": 7694,
      "엮오": 7695,
      "열오": 7696,
      "엷룸": 7697,
      "염멘": 7698,
      "엽섣": 7699,
      "엽팡": 7700,
      "엾엇": 7701,
      "옆눈": 7702,
      "옙픈": 7703,
      "옛섧": 7704,
      "오ㅠㅠ": 7705,
      "완버": 7706,
      "왐셔": 7707,
      "왓는테": 7708,
      "왔눈테": 7709,
      "왔는뎨": 7710,
      "욕귀": 7711,
      "욕쵸": 7712,
      "욜략": 7713,
      "우뉘": 7714,
      "우뤼": 7715,
      "운옇": 7716,
      "움료": 7717,
      "웅태": 7718,
      "원레": 7719,
      "웨요": 7720,
      "위여": 7721,
      "위틀": 7722,
      "위한": 7723,
      "위서셔": 7724,
      "윅굣": 7725,
      "윅까": 7726,
      "윈쌓": 7727,
      "윌락": 7728,
      "윌랍": 7729,
      "윔면": 7730,
      "윕닌따": 7731,
      "윗쑴": 7732,
      "유넝": 7733,
      "윽료": 7734,
      "음료": 7735,
      "읒료": 7736,
      "읗때": 7737,
      "이옹": 7738,
      "인셍": 7739,
      "읽용": 7740,
      "읾딴": 7741,
      "잃탄": 7742,
      "있옅": 7743,
      "있엿셔": 7744,
      "잊숲": 7745,
      "잊쑴": 7746,
      "잊엉": 7747,
      "잊옅": 7748,
      "잊욺": 7749,
      "잎닢": 7750,
      "잎랴": 7751,
      "잎용": 7752,
      "잎닙댜": 7753,
      "잎닌댜": 7754,
      "쟉운": 7755,
      "쟤방문": 7756,
      "저셔": 7757,
      "젊은": 7758,
      "정먈": 7759,
      "져문": 7760,
      "젼예": 7761,
      "젼판": 7762,
      "졀렴": 7763,
      "졉끈": 7764,
      "졉군썽": 7765,
      "졔읾": 7766,
      "좁교": 7767,
      "좋굡": 7768,
      "좋귄": 7769,
      "좋아": 7770,
      "좋얄": 7771,
      "좋양": 7772,
      "좋을": 7773,
      "좋치": 7774,
      "좋씁뉘따": 7775,
      "죠훔": 7776,
      "쥐껀": 7777,
      "쥐윈": 7778,
      "쥑굼": 7779,
      "쥬섯": 7780,
      "쥬짭": 7781,
      "짠눈": 7782,
      "짬울": 7783,
      "짱휘": 7784,
      "쨍거": 7785,
      "쩌휘": 7786,
      "쩌럼한": 7787,
      "쩐뷰": 7788,
      "쩐쟝": 7789,
      "쩐쳬": 7790,
      "쩐환": 7791,
      "쩜됴": 7792,
      "쩜운": 7793,
      "쩡돈": 7794,
      "쩡졍": 7795,
      "쪄셔": 7796,
      "쪼훔": 7797,
      "쪽끎": 7798,
      "쭈찻": 7799,
      "쭉교": 7800,
      "쭝먕": 7801,
      "쭝푼": 7802,
      "쮜쏘": 7803,
      "찐꾸": 7804,
      "찐쿠": 7805,
      "찰못": 7806,
      "참많": 7807,
      "챤눈": 7808,
      "처럼": 7809,
      "처렴": 7810,
      "척귄": 7811,
      "청툐": 7812,
      "첵꽁": 7813,
      "쳬쿠": 7814,
      "추편": 7815,
      "췌쩍": 7816,
      "췌쿠": 7817,
      "췌끄윈": 7818,
      "취눈": 7819,
      "췸균": 7820,
      "췸뀨": 7821,
      "츈쩐": 7822,
      "츌창": 7823,
      "치는": 7824,
      "칙졉": 7825,
      "칼락": 7826,
      "캉쭈": 7827,
      "캠핑": 7828,
      "캬꼬": 7829,
      "캬눈": 7830,
      "캭꼬": 7831,
      "켁꿎": 7832,
      "켜삐": 7833,
      "켠뒤션": 7834,
      "켭삐": 7835,
      "켯토": 7836,
      "콘눈": 7837,
      "쾨적": 7838,
      "쿄똥": 7839,
      "쿄욱": 7840,
      "쿠련": 7841,
      "쿡갸": 7842,
      "클렵": 7843,
      "키뿐": 7844,
      "타까": 7845,
      "타뜯": 7846,
      "타코": 7847,
      "탄뉘": 7848,
      "탈료": 7849,
      "탉룬": 7850,
      "태눈": 7851,
      "탭뷔": 7852,
      "탸뜯": 7853,
      "텔료": 7854,
      "통않": 7855,
      "퇴였": 7856,
      "툇실": 7857,
      "툴뤼": 7858,
      "툴립": 7859,
      "툿숙": 7860,
      "트룬": 7861,
      "틂립": 7862,
      "팔롓": 7863,
      "퍼냔": 7864,
      "펀학께": 7865,
      "펑위": 7866,
      "펑읾": 7867,
      "포교": 7868,
      "포눈": 7869,
      "포윈눈": 7870,
      "폼면": 7871,
      "푿싼": 7872,
      "퓬위": 7873,
      "플런": 7874,
      "플룐": 7875,
      "필오": 7876,
      "학꽂": 7877,
      "학콧": 7878,
      "학콩": 7879,
      "한난": 7880,
      "합리": 7881,
      "합오": 7882,
      "합닢타": 7883,
      "합닐따": 7884,
      "핫면": 7885,
      "핫섯": 7886,
      "핫싫": 7887,
      "핫셰오": 7888,
      "항눈": 7889,
      "항쿄": 7890,
      "햇씁뉘댜": 7891,
      "했섶": 7892,
      "했오": 7893,
      "했숩뉘": 7894,
      "했숩뉘댜": 7895,
      "행폭": 7896,
      "햐곳": 7897,
      "햐낳": 7898,
      "햐옅": 7899,
      "헙쇼": 7900,
      "헤쑤옥": 7901,
      "헵변": 7902,
      "헷눈떼": 7903,
      "환불": 7904,
      "환쟝씰": 7905,
      "홰옹": 7906,
      "훅갸": 7907,
      "휨틂": 7908,
      "휵키": 7909,
      "좋았쑵": 7910,
      "~~!!": 7911,
      "좋앝코": 7912,
      "효뗄운": 7913,
      "씁뉘단": 7914,
      "합뉘닮": 7915,
      "합뉘담": 7916,
      "숩뉘닥": 7917,
      "위옹학": 7918,
      "위옹햇": 7919,
      "TV됴": 7920,
      "찐절함": 7921,
      "칼끎함": 7922,
      "ㅜㅜㅜㅜ": 7923,
      "엘립폐": 7924,
      "함면셔": 7925,
      "묘뗄륑": 7926,
      "략교오": 7927,
      "좋숲뉘타": 7928,
      "캐꿋한": 7929,
      "핫씩꼬": 7930,
      "욧선부": 7931,
      "핫쉬교": 7932,
      "죠옹한": 7933,
      "ㅡㅡㅡㅡ": 7934,
      "얏쒸운": 7935,
      "멘뉘튀": 7936,
      "넴쌕까": 7937,
      "씁님탸": 7938,
      "휼룽한": 7939,
      "4썽굽": 7940,
      "윈뗄뤼": 7941,
      "좋한오": 7942,
      "CCTV": 7943,
      ".^": 7944,
      "1졈": 7945,
      "2효": 7946,
      "4만": 7947,
      "4명": 7948,
      "4쉬": 7949,
      "5얼": 7950,
      "6얼": 7951,
      "8월": 7952,
      "or": 7953,
      "갊딴": 7954,
      "값뉘따": 7955,
      "갖은": 7956,
      "갚봤": 7957,
      "갚뉘따": 7958,
      "갛릉": 7959,
      "갸뉘": 7960,
      "갸성": 7961,
      "갸쥐": 7962,
      "갸툰": 7963,
      "갸썽피": 7964,
      "갸셩삐": 7965,
      "갹캬": 7966,
      "갼딴": 7967,
      "걋썽뷔": 7968,
      "걔곡": 7969,
      "건묾": 7970,
      "겻토": 7971,
      "곡굽": 7972,
      "곡캑": 7973,
      "곪뮌": 7974,
      "관린": 7975,
      "구랬": 7976,
      "군뒈": 7977,
      "굶료": 7978,
      "귀뵨": 7979,
      "귀엌": 7980,
      "귀토": 7981,
      "귁꺄": 7982,
      "근낭": 7983,
      "길료": 7984,
      "까는": 7985,
      "까뜬": 7986,
      "까셔": 7987,
      "까썽뷔": 7988,
      "깥위": 7989,
      "꺼위": 7990,
      "꺼툰": 7991,
      "껏또": 7992,
      "껼국": 7993,
      "꼐곡": 7994,
      "꼬윈": 7995,
      "꼰눈": 7996,
      "꽁용": 7997,
      "꾄찬": 7998,
      "꾕쟝": 7999,
      "꾸낭": 8000,
      "꿀렵": 8001,
      "꿴챤": 8002,
      "끎런": 8003,
      "끼까": 8004,
      "난빵": 8005,
      "낡룸": 8006,
      "낢먀": 8007,
      "낫셔": 8008,
      "넋녁": 8009,
      "네뷰": 8010,
      "넨욜": 8011,
      "넸써": 8012,
      "넸플": 8013,
      "넹용": 8014,
      "녀뮬": 8015,
      "녁넋": 8016,
      "년뮤": 8017,
      "녜옵": 8018,
      "뇰랴": 8019,
      "뇰럇": 8020,
      "누꺼": 8021,
      "누큄": 8022,
      "눅꺼": 8023,
      "눅뀌": 8024,
      "눈텍": 8025,
      "눈텔": 8026,
      "눈텟": 8027,
      "눼올": 8028,
      "눼옹": 8029,
      "뉘닫": 8030,
      "뉘엘": 8031,
      "뉨면": 8032,
      "늑켜": 8033,
      "는뎅": 8034,
      "는찌": 8035,
      "닌테": 8036,
      "댄눈": 8037,
      "댈론": 8038,
      "댈룰": 8039,
      "댑뷔": 8040,
      "데삐": 8041,
      "데피": 8042,
      "뎔락": 8043,
      "돼교": 8044,
      "됴료": 8045,
      "둘러": 8046,
      "둘럿": 8047,
      "둘륌": 8048,
      "둘엊": 8049,
      "둘콰": 8050,
      "뒈엄": 8051,
      "듦릭": 8052,
      "듦림": 8053,
      "듦역": 8054,
      "듦콰": 8055,
      "따료": 8056,
      "따만": 8057,
      "딸랴": 8058,
      "땝피": 8059,
      "떨를": 8060,
      "떼는": 8061,
      "뗀는": 8062,
      "뗄료": 8063,
      "뜰엌": 8064,
      "띤눈": 8065,
      "람위": 8066,
      "랑운": 8067,
      "래된": 8068,
      "랜만": 8069,
      "랸뉘": 8070,
      "러아": 8071,
      "럽꼬": 8072,
      "렉끼": 8073,
      "례윈": 8074,
      "례읾": 8075,
      "롓써": 8076,
      "론냐": 8077,
      "롬많": 8078,
      "료피": 8079,
      "룔료": 8080,
      "룸댜": 8081,
      "륀냐": 8082,
      "륏셉": 8083,
      "른는": 8084,
      "릭꾜": 8085,
      "림먼": 8086,
      "만읽": 8087,
      "만쪼": 8088,
      "만핫": 8089,
      "많음": 8090,
      "많코": 8091,
      "맏따": 8092,
      "맑할": 8093,
      "맛짜": 8094,
      "맞눈": 8095,
      "맞잇": 8096,
      "맞칩": 8097,
      "맞타": 8098,
      "맡쟈": 8099,
      "맡칩": 8100,
      "먀윤": 8101,
      "먼갸": 8102,
      "멂뤽": 8103,
      "멈묾": 8104,
      "메웅": 8105,
      "멕쥬": 8106,
      "멱코": 8107,
      "몸뗄": 8108,
      "묘뉨": 8109,
      "묫했": 8110,
      "문체": 8111,
      "뮤눌": 8112,
      "뮤료": 8113,
      "뮤엊": 8114,
      "뮨체": 8115,
      "뮷순": 8116,
      "믈료": 8117,
      "밉뉘타": 8118,
      "받탓": 8119,
      "밧닺": 8120,
      "방일": 8121,
      "베청": 8122,
      "변쩨": 8123,
      "별록": 8124,
      "부갚": 8125,
      "불를": 8126,
      "붉펀함": 8127,
      "붓싼": 8128,
      "뷔폐": 8129,
      "뷜룰": 8130,
      "뷴뤼": 8131,
      "빠위": 8132,
      "빨람": 8133,
      "빵우": 8134,
      "빵토": 8135,
      "빻또": 8136,
      "뻔챵": 8137,
      "뼈난": 8138,
      "뽀윈": 8139,
      "뽀위눈": 8140,
      "뽁쉰": 8141,
      "뽄눈": 8142,
      "뽐먼": 8143,
      "뾰댜": 8144,
      "뿌됴": 8145,
      "뿌탑": 8146,
      "뿐운": 8147,
      "뿔료": 8148,
      "뿡겋": 8149,
      "쁘론": 8150,
      "쁜한": 8151,
      "삐로": 8152,
      "사억": 8153,
      "샤진": 8154,
      "샴퓨": 8155,
      "샹위": 8156,
      "샹텍": 8157,
      "서옰": 8158,
      "서옵": 8159,
      "섞오": 8160,
      "섶핏": 8161,
      "셍각": 8162,
      "셔눈": 8163,
      "셔핏": 8164,
      "션됴": 8165,
      "션퓨": 8166,
      "셩인": 8167,
      "쇼리": 8168,
      "수뗌": 8169,
      "숙팍": 8170,
      "숩닒댜": 8171,
      "숩닒따": 8172,
      "숩닢따": 8173,
      "숲닙": 8174,
      "숲닌타": 8175,
      "쉐요": 8176,
      "쉐욤": 8177,
      "쉭땋": 8178,
      "쉭샤": 8179,
      "쉭위": 8180,
      "쉰코": 8181,
      "쉼찌": 8182,
      "슈욕쟝": 8183,
      "슉뱌": 8184,
      "슉속": 8185,
      "슉솖": 8186,
      "슉파": 8187,
      "슭렵": 8188,
      "습닝": 8189,
      "싶쥐": 8190,
      "싶눼오": 8191,
      "쌀짝": 8192,
      "쌓황": 8193,
      "쌩카": 8194,
      "썹삣": 8195,
      "썹피": 8196,
      "썽울": 8197,
      "쏘뤽": 8198,
      "쑤면": 8199,
      "쑥속": 8200,
      "쑥쏙": 8201,
      "쑵닝": 8202,
      "쑵닐댜": 8203,
      "쑵닌댜": 8204,
      "쒸꼬": 8205,
      "쒸얻": 8206,
      "쒸엊": 8207,
      "쒸웠": 8208,
      "쓰뗌": 8209,
      "쓰럽": 8210,
      "쓱갸": 8211,
      "씁뉩": 8212,
      "씁닉타": 8213,
      "씁닝따": 8214,
      "씁닐타": 8215,
      "씩크": 8216,
      "씰맣": 8217,
      "씹뉘": 8218,
      "안움": 8219,
      "않닒": 8220,
      "않얏": 8221,
      "않욺": 8222,
      "않웃": 8223,
      "않음": 8224,
      "않훌": 8225,
      "앎찜": 8226,
      "압위": 8227,
      "았췸": 8228,
      "앞오": 8229,
      "야깝": 8230,
      "야눅": 8231,
      "야뉩": 8232,
      "야닢": 8233,
      "야쮸": 8234,
      "야찌": 8235,
      "야칙": 8236,
      "약겋": 8237,
      "얀낵": 8238,
      "얄교": 8239,
      "얏슁": 8240,
      "얘용": 8241,
      "얘쩡": 8242,
      "얹셔": 8243,
      "얻요": 8244,
      "얼름": 8245,
      "업꾜": 8246,
      "업엇": 8247,
      "업음": 8248,
      "없섣": 8249,
      "엎쉬": 8250,
      "엎예": 8251,
      "엎욕": 8252,
      "엑께": 8253,
      "엔오": 8254,
      "엘리": 8255,
      "엘켬": 8256,
      "엠셔": 8257,
      "엡써": 8258,
      "엣썹": 8259,
      "여떻": 8260,
      "여옰": 8261,
      "여옹": 8262,
      "연빡": 8263,
      "열룩": 8264,
      "열헹": 8265,
      "엶려": 8266,
      "엽는": 8267,
      "엾꾜": 8268,
      "엾쿄": 8269,
      "엾타": 8270,
      "였헹": 8271,
      "영오": 8272,
      "옙뼈": 8273,
      "옛섞": 8274,
      "옛섯": 8275,
      "옛션": 8276,
      "옛썼": 8277,
      "온선": 8278,
      "옳선": 8279,
      "와셔": 8280,
      "와써": 8281,
      "왓는떼": 8282,
      "왔는뒈": 8283,
      "왝콴": 8284,
      "요청": 8285,
      "요휴": 8286,
      "욕쪼": 8287,
      "욘돌": 8288,
      "울롱": 8289,
      "움에": 8290,
      "월써": 8291,
      "웩계": 8292,
      "위쌓": 8293,
      "위쌩": 8294,
      "위썬": 8295,
      "위칫": 8296,
      "위햐": 8297,
      "윅콧": 8298,
      "윈쮜": 8299,
      "윌룰": 8300,
      "윕닢": 8301,
      "윕붊": 8302,
      "윕닛댜": 8303,
      "윕닙따": 8304,
      "유뤼": 8305,
      "음뭬": 8306,
      "응료": 8307,
      "읕료": 8308,
      "익쿠": 8309,
      "인뛔": 8310,
      "인섕": 8311,
      "인언": 8312,
      "읽렇": 8313,
      "읾였": 8314,
      "잃뱐": 8315,
      "잇꾜": 8316,
      "잇쿄": 8317,
      "잇타": 8318,
      "있눈뎨": 8319,
      "있눈떼": 8320,
      "있엿써": 8321,
      "잊꾜": 8322,
      "잊셨": 8323,
      "잊용": 8324,
      "잊눈테": 8325,
      "잎닙": 8326,
      "잎플": 8327,
      "쟈쳬": 8328,
      "쟉동": 8329,
      "쟉똥": 8330,
      "쟉코": 8331,
      "쟝냔": 8332,
      "쟝뉘": 8333,
      "적닿": 8334,
      "젊렴": 8335,
      "져넉": 8336,
      "젼웨": 8337,
      "졀럼한": 8338,
      "좁운": 8339,
      "좋꼽": 8340,
      "좋우": 8341,
      "좋넷오": 8342,
      "죠끎": 8343,
      "죠한": 8344,
      "줏서": 8345,
      "줴읽": 8346,
      "줴읾": 8347,
      "쥑갸": 8348,
      "쥑쩝": 8349,
      "쥔짤": 8350,
      "쥬찾": 8351,
      "직얹": 8352,
      "진많": 8353,
      "집많": 8354,
      "짝갸": 8355,
      "짢눈": 8356,
      "짬꼬": 8357,
      "짬많": 8358,
      "짬코": 8359,
      "쨘훈": 8360,
      "쨩쨩": 8361,
      "쩐눼": 8362,
      "쩡한": 8363,
      "쩡했": 8364,
      "쩨공": 8365,
      "쩨한": 8366,
      "쪼햐오": 8367,
      "쪽끔": 8368,
      "쭈편": 8369,
      "쭉까": 8370,
      "쭉코": 8371,
      "쭌는": 8372,
      "쭝위": 8373,
      "쭝천": 8374,
      "쭝쳔": 8375,
      "쭝칸": 8376,
      "착교": 8377,
      "찰룰": 8378,
      "창휘": 8379,
      "챰꼬": 8380,
      "처럼한": 8381,
      "척울료": 8382,
      "천는": 8383,
      "청돐": 8384,
      "청속": 8385,
      "체콩": 8386,
      "첵콩": 8387,
      "첼를": 8388,
      "쳔화": 8389,
      "쵤약": 8390,
      "출창": 8391,
      "춥변": 8392,
      "충양": 8393,
      "취약": 8394,
      "췸굳": 8395,
      "췸굶": 8396,
      "츙먕": 8397,
      "칵카": 8398,
      "캇셩": 8399,
      "커위": 8400,
      "컫뜬": 8401,
      "켠띳": 8402,
      "켠셉": 8403,
      "켠뒷선": 8404,
      "켱취": 8405,
      "콕깩": 8406,
      "콕캑": 8407,
      "콜료": 8408,
      "콩싸": 8409,
      "쿄룐": 8410,
      "쿨런": 8411,
      "퀘한": 8412,
      "퀴갸": 8413,
      "퀴눈": 8414,
      "큰셩": 8415,
      "키됴": 8416,
      "키뤼": 8417,
      "타만": 8418,
      "탓쒸": 8419,
      "턍휘": 8420,
      "터육": 8421,
      "턱갸": 8422,
      "턱균": 8423,
      "테눈": 8424,
      "톤눈": 8425,
      "통녜": 8426,
      "통헤": 8427,
      "퇴었": 8428,
      "퉤여": 8429,
      "틀됴": 8430,
      "틀려": 8431,
      "파댜": 8432,
      "팔뤼": 8433,
      "퍄댜": 8434,
      "펀읫": 8435,
      "펑졈": 8436,
      "펜는": 8437,
      "편의": 8438,
      "편헷": 8439,
      "포꼬": 8440,
      "포어": 8441,
      "폰는": 8442,
      "푸됴": 8443,
      "푸뤼": 8444,
      "푸쪽": 8445,
      "푼웨": 8446,
      "푿샨": 8447,
      "풀료": 8448,
      "풀뤽": 8449,
      "퓬듦": 8450,
      "하쿄": 8451,
      "한나": 8452,
      "한낮": 8453,
      "한딱": 8454,
      "한맏": 8455,
      "한쑴": 8456,
      "한탁": 8457,
      "할려": 8458,
      "합뉜댜": 8459,
      "핫는": 8460,
      "핫섰": 8461,
      "핫실": 8462,
      "핫쉐오": 8463,
      "항는": 8464,
      "항쌓": 8465,
      "항오": 8466,
      "항위": 8467,
      "햄써": 8468,
      "햇댜": 8469,
      "햇음": 8470,
      "했댜": 8471,
      "했설": 8472,
      "했욺": 8473,
      "했음": 8474,
      "했눈퉤": 8475,
      "행셔": 8476,
      "햐겟": 8477,
      "햐며": 8478,
      "햐씬": 8479,
      "햐욜": 8480,
      "햐웃": 8481,
      "햐짖": 8482,
      "헌쟝": 8483,
      "헤얕": 8484,
      "헷섯": 8485,
      "헷섰": 8486,
      "헷눈뎨": 8487,
      "헹뽁": 8488,
      "협쇼": 8489,
      "확갸": 8490,
      "확낀": 8491,
      "확카": 8492,
      "확킨": 8493,
      "환쟝실": 8494,
      "활쟝씰": 8495,
      "활쟝싫": 8496,
      "활짱싫": 8497,
      "황닿": 8498,
      "황창쉴": 8499,
      "훌륭": 8500,
      "좋았씁뉘댜": 8501,
      "효텔1": 8502,
      "효텔운": 8503,
      "효텔인": 8504,
      "좋앝숲뉘댜": 8505,
      "씁뉘담": 8506,
      "씁뉘닿": 8507,
      "씁뉘땀": 8508,
      "씁뉘땋": 8509,
      "좋앗움": 8510,
      "좋야욧": 8511,
      "합뉘달": 8512,
      "합뉘땁": 8513,
      "좋얏교": 8514,
      "위옹햐": 8515,
      "췬젊한": 8516,
      "2023": 8517,
      "칼끎학교": 8518,
      "객쉴됴": 8519,
      "칼꿈한": 8520,
      "칼꿈학교": 8521,
      "꺌큼한": 8522,
      "팡문할": 8523,
      "쑵뉘닸": 8524,
      "슈옇창": 8525,
      "죠쉭운": 8526,
      "찜데됴": 8527,
      "좋숲뉘따": 8528,
      "헤운태": 8529,
      "핫씬는": 8530,
      "갼눙한": 8531,
      "초씩됴": 8532,
      "잇여셔": 8533,
      "잇여써": 8534,
      "켐삥짱": 8535,
      "툿쑥캑": 8536,
      "혹깡쓰": 8537,
      "광않뤼": 8538,
      "혹컁수": 8539,
      "좋앍오": 8540,
      "휼륭한": 8541,
      "웰뤼붸": 8542,
      "인뗄뤼": 8543,
      "쩐쩨적": 8544,
      "!)": 8545,
      "-^": 8546,
      "01": 8547,
      "1년": 8548,
      "1첨": 8549,
      "1씩갼": 8550,
      "2넌": 8551,
      "2명": 8552,
      "2쭝": 8553,
      "35": 8554,
      "3뷴": 8555,
      "5쩜": 8556,
      "6만": 8557,
      "9씨": 8558,
      "CU": 8559,
      "ㄹㅇ": 8560,
      "간는": 8561,
      "갇셩": 8562,
      "갇탸오": 8563,
      "갊통": 8564,
      "갔야": 8565,
      "갖저": 8566,
      "갖쪽": 8567,
      "갗따": 8568,
      "갗은": 8569,
      "갚격": 8570,
      "갛룽": 8571,
      "갸뜬": 8572,
      "갸셩피": 8573,
      "갹거": 8574,
      "갼탄한": 8575,
      "걋셔": 8576,
      "걋은": 8577,
      "걋셩피": 8578,
      "걍츄": 8579,
      "걔꼭": 8580,
      "겆또": 8581,
      "겋헒": 8582,
      "겋혐": 8583,
      "견찌": 8584,
      "곗쉭": 8585,
      "곗씩": 8586,
      "고통": 8587,
      "곡깩": 8588,
      "곪빻": 8589,
      "곪팡": 8590,
      "관릭": 8591,
      "괭쟝휘": 8592,
      "괸찮": 8593,
      "군뎨": 8594,
      "군떼": 8595,
      "궂굳": 8596,
      "귀뿐": 8597,
      "귈레": 8598,
      "귈료": 8599,
      "귑뿐": 8600,
      "귑폰": 8601,
      "귓됴": 8602,
      "규노": 8603,
      "글련": 8604,
      "긷댜": 8605,
      "길룰": 8606,
      "깃토": 8607,
      "까쥐": 8608,
      "까썽피": 8609,
      "깍꺽": 8610,
      "깐탄": 8611,
      "깟써": 8612,
      "깠눈테": 8613,
      "깡쥐": 8614,
      "꺄먼": 8615,
      "껀뒤선": 8616,
      "꼇됴": 8617,
      "꼬눈": 8618,
      "꼬충": 8619,
      "꼴료": 8620,
      "꼼빵": 8621,
      "꽁옹": 8622,
      "꾼낭": 8623,
      "꾼오": 8624,
      "꾼쳐": 8625,
      "꿀련": 8626,
      "꿈한": 8627,
      "끄릭": 8628,
      "끅교": 8629,
      "끌럽": 8630,
      "끌렵": 8631,
      "끎럽": 8632,
      "끼엌": 8633,
      "난빻": 8634,
      "낢샨": 8635,
      "낢짜": 8636,
      "납뿐": 8637,
      "납픈": 8638,
      "납뉘댜": 8639,
      "냐완": 8640,
      "넌뭄": 8641,
      "네옹": 8642,
      "네욥": 8643,
      "넥꼬": 8644,
      "넨요": 8645,
      "넬력": 8646,
      "넴샌": 8647,
      "넴욧": 8648,
      "넸셔": 8649,
      "넹욘": 8650,
      "녁녁": 8651,
      "녜써": 8652,
      "녜온": 8653,
      "놂랒": 8654,
      "놓꾜": 8655,
      "놓훔": 8656,
      "누켜": 8657,
      "눅켜": 8658,
      "눈데": 8659,
      "눈뗀": 8660,
      "눈취": 8661,
      "눈텐": 8662,
      "눼셔": 8663,
      "눼옮": 8664,
      "눼옳": 8665,
      "눼옻": 8666,
      "뉘닥": 8667,
      "뉘띠": 8668,
      "는덴": 8669,
      "는뎁": 8670,
      "늦궤": 8671,
      "닐랴": 8672,
      "닛닿": 8673,
      "닥꾜": 8674,
      "달룬": 8675,
      "닿잃": 8676,
      "댁갸": 8677,
      "댜까": 8678,
      "덕뿐": 8679,
      "데꾜": 8680,
      "데쭝": 8681,
      "돌록": 8682,
      "돛짝": 8683,
      "돼얼": 8684,
      "된댜": 8685,
      "두렀": 8686,
      "둘럭": 8687,
      "둘였": 8688,
      "둣한": 8689,
      "뒈억": 8690,
      "뒈얼": 8691,
      "뒈엌": 8692,
      "뒷션": 8693,
      "들러": 8694,
      "들려": 8695,
      "들력": 8696,
      "들륌": 8697,
      "들림": 8698,
      "들립": 8699,
      "들역": 8700,
      "들운": 8701,
      "듦륌": 8702,
      "따욜": 8703,
      "딱캬": 8704,
      "딴닉": 8705,
      "땀베": 8706,
      "땀빼": 8707,
      "땁궤": 8708,
      "때삐": 8709,
      "때토": 8710,
      "땍고": 8711,
      "떼토": 8712,
      "뙤얻": 8713,
      "뙤엇": 8714,
      "뚤여": 8715,
      "뜨를": 8716,
      "뜰여": 8717,
      "뜰운": 8718,
      "람운": 8719,
      "랑눈": 8720,
      "러면": 8721,
      "럿윤": 8722,
      "렌눈": 8723,
      "렌는": 8724,
      "력수": 8725,
      "렴면": 8726,
      "롄눈": 8727,
      "롯뎨": 8728,
      "료뷔": 8729,
      "룩교": 8730,
      "뤼부": 8731,
      "뤼한": 8732,
      "륨뮈": 8733,
      "리한": 8734,
      "린뎨": 8735,
      "릴료": 8736,
      "림코": 8737,
      "립푸": 8738,
      "만꿈": 8739,
      "만윔": 8740,
      "만입": 8741,
      "만힉": 8742,
      "많둘": 8743,
      "많힉": 8744,
      "많힛": 8745,
      "맑뤼": 8746,
      "맒뤼": 8747,
      "맞는": 8748,
      "맞따": 8749,
      "맞위": 8750,
      "맞차": 8751,
      "맵유": 8752,
      "맺유": 8753,
      "먀쟈": 8754,
      "먈쑴": 8755,
      "먈코": 8756,
      "먼치": 8757,
      "멀뤼": 8758,
      "멂릭": 8759,
      "멈묽": 8760,
      "면져": 8761,
      "면찍": 8762,
      "몰루": 8763,
      "몰륵": 8764,
      "몲뗄": 8765,
      "몲륵": 8766,
      "못헤": 8767,
      "묘루": 8768,
      "묩텔": 8769,
      "뭇엿": 8770,
      "뮤냔": 8771,
      "뮬론": 8772,
      "뮬엽": 8773,
      "뮬토": 8774,
      "받딸": 8775,
      "밞렛": 8776,
      "밧눈": 8777,
      "밧딱": 8778,
      "방익": 8779,
      "방인": 8780,
      "별롱": 8781,
      "복됴": 8782,
      "복토": 8783,
      "봤떤": 8784,
      "봤눈뒈": 8785,
      "봤눈떼": 8786,
      "뵤넸": 8787,
      "뵤닫": 8788,
      "뵤면": 8789,
      "뵤위는": 8790,
      "부웨": 8791,
      "분뜰": 8792,
      "붐갸": 8793,
      "뷕까": 8794,
      "뷰뗘": 8795,
      "뷴운": 8796,
      "뷸뻔": 8797,
      "빠딱": 8798,
      "빠토": 8799,
      "빨로": 8800,
      "빳닥": 8801,
      "빵엣": 8802,
      "빵을": 8803,
      "빵임": 8804,
      "빵툐": 8805,
      "뻐뉘": 8806,
      "뼝잃": 8807,
      "뼝챵": 8808,
      "뽀꼬": 8809,
      "뽀었": 8810,
      "뽀읾": 8811,
      "뽀탸": 8812,
      "뽀윈는": 8813,
      "뽐면": 8814,
      "뿌룐": 8815,
      "뿌촉": 8816,
      "뿌카": 8817,
      "뿐윅": 8818,
      "삐랴": 8819,
      "삼뿌": 8820,
      "샙뼉": 8821,
      "샤운": 8822,
      "샤윤": 8823,
      "샤있": 8824,
      "샤췬": 8825,
      "샥어": 8826,
      "샹닿": 8827,
      "선됴": 8828,
      "섶삐": 8829,
      "셉벅": 8830,
      "셔삣": 8831,
      "셰욜": 8832,
      "솖림": 8833,
      "쇼뤽": 8834,
      "숄리": 8835,
      "숄릭": 8836,
      "수눈": 8837,
      "수또": 8838,
      "수럽": 8839,
      "수려": 8840,
      "수투": 8841,
      "술렵": 8842,
      "숨먼": 8843,
      "숩님댜": 8844,
      "숩닢타": 8845,
      "숩님따": 8846,
      "숩닐따": 8847,
      "숲닉": 8848,
      "숲닉댜": 8849,
      "숲님댜": 8850,
      "쉐욜": 8851,
      "쉬코": 8852,
      "쉭딱": 8853,
      "쉭싸": 8854,
      "쉭퀴": 8855,
      "쉼휘": 8856,
      "쉽교": 8857,
      "쉽쥐": 8858,
      "슉숍": 8859,
      "슉쏙": 8860,
      "슉쏭": 8861,
      "스면": 8862,
      "슨는": 8863,
      "슭료": 8864,
      "습닐": 8865,
      "슷한": 8866,
      "식코": 8867,
      "신쭉": 8868,
      "싶뉘따": 8869,
      "싸향": 8870,
      "쌔뼉": 8871,
      "쌥벅": 8872,
      "써뷔": 8873,
      "썬택": 8874,
      "썰명": 8875,
      "썲써": 8876,
      "썸요": 8877,
      "썹뷔": 8878,
      "쎄면": 8879,
      "쎈수": 8880,
      "쏘릭": 8881,
      "쏘립": 8882,
      "쏘링": 8883,
      "쏭졍": 8884,
      "쑤까": 8885,
      "쑥껀": 8886,
      "쑥솎": 8887,
      "쑨갼": 8888,
      "쒸는": 8889,
      "쓰갸": 8890,
      "쓰를": 8891,
      "쓸럽": 8892,
      "씁뉠": 8893,
      "씁뉨댜": 8894,
      "씨긺": 8895,
      "씨쁜": 8896,
      "씨설": 8897,
      "씨짱": 8898,
      "씨창": 8899,
      "씨푼": 8900,
      "씬겋": 8901,
      "씬컹": 8902,
      "씹뉘댜": 8903,
      "아깐": 8904,
      "앉얕": 8905,
      "앉움": 8906,
      "않예": 8907,
      "않쥬": 8908,
      "않코": 8909,
      "알윳": 8910,
      "앎오": 8911,
      "앗췸": 8912,
      "았쉭": 8913,
      "앝써": 8914,
      "야닒": 8915,
      "야욧": 8916,
      "약카": 8917,
      "얀냅": 8918,
      "얀예": 8919,
      "얀웨": 8920,
      "얀은": 8921,
      "얀촉": 8922,
      "얄러": 8923,
      "얘욜": 8924,
      "얘욥": 8925,
      "어쟈": 8926,
      "억귄": 8927,
      "언빡": 8928,
      "언팍": 8929,
      "얹써": 8930,
      "얾룩": 8931,
      "얾몌": 8932,
      "없쉬": 8933,
      "없요": 8934,
      "엉요": 8935,
      "엌씨": 8936,
      "엎섯": 8937,
      "엎씀": 8938,
      "엎여": 8939,
      "엎음": 8940,
      "엑궤": 8941,
      "엔셔": 8942,
      "엘써": 8943,
      "엠눈": 8944,
      "엡됴": 8945,
      "엣섦": 8946,
      "역씨": 8947,
      "역콴": 8948,
      "연오": 8949,
      "연휘": 8950,
      "엾었": 8951,
      "옆써": 8952,
      "옆위": 8953,
      "옇엽": 8954,
      "예역껀": 8955,
      "옘민": 8956,
      "옛석": 8957,
      "옛섣": 8958,
      "옛섭": 8959,
      "옛션눈": 8960,
      "옜오": 8961,
      "온눌": 8962,
      "옳략": 8963,
      "완로": 8964,
      "왑써": 8965,
      "욕쿄": 8966,
      "욘토": 8967,
      "운녕": 8968,
      "운치": 8969,
      "운테": 8970,
      "울룝": 8971,
      "욹로": 8972,
      "웠써": 8973,
      "웹푸": 8974,
      "위뮈": 8975,
      "위악": 8976,
      "윈옹": 8977,
      "윈칙": 8978,
      "윌란": 8979,
      "윌랖": 8980,
      "윌뤼": 8981,
      "윌위": 8982,
      "윕불": 8983,
      "윕뿔": 8984,
      "윕쁠": 8985,
      "윕풀": 8986,
      "윕닢댜": 8987,
      "윕닌댜": 8988,
      "윗섯": 8989,
      "윗슴": 8990,
      "윗싸": 8991,
      "윗엇": 8992,
      "윗여": 8993,
      "윗쯩": 8994,
      "윙옹": 8995,
      "윤녕": 8996,
      "윤테": 8997,
      "은료": 8998,
      "읔료": 8999,
      "익꼬": 9000,
      "익용": 9001,
      "익코": 9002,
      "인였": 9003,
      "인졍": 9004,
      "일랴": 9005,
      "일용": 9006,
      "읽랍": 9007,
      "읽려": 9008,
      "읽뱐": 9009,
      "읽텨": 9010,
      "읾렇": 9011,
      "읾판": 9012,
      "잃룸": 9013,
      "잃용": 9014,
      "입용": 9015,
      "잇얾": 9016,
      "있얽": 9017,
      "있엉": 9018,
      "있치": 9019,
      "있눼오": 9020,
      "잊읊": 9021,
      "잎닒": 9022,
      "잎창": 9023,
      "잎니댜": 9024,
      "잎닢댜": 9025,
      "잘못": 9026,
      "잚울": 9027,
      "쟘됴": 9028,
      "쟝예": 9029,
      "쟝인": 9030,
      "적읊료": 9031,
      "전먕": 9032,
      "젊때": 9033,
      "젊럼한": 9034,
      "정맒": 9035,
      "제팡뮨": 9036,
      "져뮈": 9037,
      "져믄": 9038,
      "젼옹": 9039,
      "졉군셩": 9040,
      "졍돈": 9041,
      "졔공": 9042,
      "졔잃": 9043,
      "졔콩": 9044,
      "좋굘": 9045,
      "좋꼰": 9046,
      "좋꽂": 9047,
      "죠굶": 9048,
      "죠컨": 9049,
      "죡한": 9050,
      "죽교": 9051,
      "중씸": 9052,
      "중양": 9053,
      "쥔동": 9054,
      "쥔씸": 9055,
      "쥬변": 9056,
      "쥬짯": 9057,
      "쥬찹": 9058,
      "쥰삐": 9059,
      "짚많": 9060,
      "짝까": 9061,
      "짝카": 9062,
      "짠는": 9063,
      "짤묫": 9064,
      "짭뷔": 9065,
      "짱예": 9066,
      "쨘눈": 9067,
      "쩌넉": 9068,
      "쩐꾹": 9069,
      "쩔럼한": 9070,
      "쩡손": 9071,
      "쩡쏭": 9072,
      "쪽굶": 9073,
      "쪽큼": 9074,
      "쫍교": 9075,
      "쬐야": 9076,
      "쭈착": 9077,
      "쭝깐": 9078,
      "쭤써": 9079,
      "쮜건": 9080,
      "쯩깐": 9081,
      "쯩위": 9082,
      "찍첩": 9083,
      "찜국": 9084,
      "찜굳": 9085,
      "찢또": 9086,
      "차눈": 9087,
      "착귀": 9088,
      "창쩜": 9089,
      "챠단": 9090,
      "척위": 9091,
      "천넉": 9092,
      "천웨": 9093,
      "철태": 9094,
      "첨움": 9095,
      "청솖": 9096,
      "청위": 9097,
      "체갸": 9098,
      "쳔먕": 9099,
      "쳔허": 9100,
      "촉위": 9101,
      "출짱": 9102,
      "춥뻔": 9103,
      "춧섰": 9104,
      "충엥": 9105,
      "충위": 9106,
      "춰셔": 9107,
      "췌쿠윈": 9108,
      "췐는": 9109,
      "취퀀": 9110,
      "츄어": 9111,
      "츙쩐": 9112,
      "칟솖": 9113,
      "카는": 9114,
      "카죡": 9115,
      "칸뉘": 9116,
      "칸능": 9117,
      "캇썽": 9118,
      "캇셩뷔": 9119,
      "캭코": 9120,
      "커율": 9121,
      "케써": 9122,
      "켠딨": 9123,
      "콤콤": 9124,
      "쿄쩨": 9125,
      "쿠료": 9126,
      "쿡인": 9127,
      "쿤낭": 9128,
      "쿨렵": 9129,
      "퀘쩍": 9130,
      "퀵갸": 9131,
      "크뤽교": 9132,
      "킥카": 9133,
      "킵뷴": 9134,
      "타씨": 9135,
      "타툿": 9136,
      "탄녔": 9137,
      "탄닌": 9138,
      "탈를": 9139,
      "탉른": 9140,
      "태토": 9141,
      "탸른": 9142,
      "터뉘": 9143,
      "터욱": 9144,
      "톨록": 9145,
      "퇴억": 9146,
      "퇴엊": 9147,
      "퇴코": 9148,
      "툇씰": 9149,
      "투예": 9150,
      "툭끼": 9151,
      "트럿": 9152,
      "트렸": 9153,
      "특휘": 9154,
      "튼눈": 9155,
      "튿한": 9156,
      "틀콰": 9157,
      "틂됴": 9158,
      "팔람": 9159,
      "팡툐": 9160,
      "팡항": 9161,
      "팸먼": 9162,
      "퍄됴": 9163,
      "펼처": 9164,
      "폭토": 9165,
      "퐈셔": 9166,
      "푸료": 9167,
      "푸산": 9168,
      "푸룐투": 9169,
      "풀룐": 9170,
      "풉푼": 9171,
      "풋떠": 9172,
      "퓌랴": 9173,
      "퓨를": 9174,
      "퓬틀": 9175,
      "플론": 9176,
      "피옹": 9177,
      "필로": 9178,
      "학곗": 9179,
      "학는": 9180,
      "학먼": 9181,
      "학셍": 9182,
      "한낙": 9183,
      "한날": 9184,
      "한냔": 9185,
      "한닒": 9186,
      "핥려": 9187,
      "합뉜": 9188,
      "합쿄": 9189,
      "합닢따": 9190,
      "합뉩댜": 9191,
      "합뉨타": 9192,
      "핫신": 9193,
      "핫싣": 9194,
      "핫쒼": 9195,
      "해아": 9196,
      "해윤": 9197,
      "햇움": 9198,
      "햇숩뉘댜": 9199,
      "햇눈톄": 9200,
      "햇눈퉤": 9201,
      "했선": 9202,
      "했섭": 9203,
      "행뽁": 9204,
      "햐굔": 9205,
      "햐굡": 9206,
      "햐굣": 9207,
      "햐꼐": 9208,
      "햐꿰": 9209,
      "햐끼": 9210,
      "햐앗": 9211,
      "햐쥔": 9212,
      "햐취": 9213,
      "햐탸": 9214,
      "향꼬": 9215,
      "헌관": 9216,
      "헤얗": 9217,
      "헤쥰": 9218,
      "헷석": 9219,
      "헷섬": 9220,
      "헷썩": 9221,
      "헷는뎨": 9222,
      "혹쉬": 9223,
      "화귄": 9224,
      "확창쉴": 9225,
      "환귀": 9226,
      "환쌍": 9227,
      "환쟝쉴": 9228,
      "환쟝싫": 9229,
      "환창쉴": 9230,
      "훈한": 9231,
      "휨툴": 9232,
      "...!": 9233,
      "좋았꼬": 9234,
      "좋았셔": 9235,
      "좋았씁뉘따": 9236,
      "한눈웨": 9237,
      "씁뉘땅": 9238,
      "씁뉘탓": 9239,
      "좋앗꼬": 9240,
      "좋운뒈": 9241,
      "합뉘닥": 9242,
      "숩뉘닺": 9243,
      "위옹했": 9244,
      "칼끎학꼬": 9245,
      "방문할": 9246,
      "칼큼학교": 9247,
      "꺌끎학교": 9248,
      "1충예": 9249,
      "!!!!!!!!": 9250,
      "꺌큼학교": 9251,
      "빵문할": 9252,
      "캑꿋한": 9253,
      "캑꿋학교": 9254,
      "깖큼학교": 9255,
      "댜움웨": 9256,
      "쑤옇창": 9257,
      "있여셔": 9258,
      "방움위": 9259,
      "췌약위": 9260,
      "깔꿈한": 9261,
      "5썽큽": 9262,
      "핫씨교": 9263,
      "핫씨눈": 9264,
      "뷴둘됴": 9265,
      "헤운때": 9266,
      "쉿썰됴": 9267,
      "핫씬눈": 9268,
      "타움예": 9269,
      "요선부": 9270,
      "좋눼요": 9271,
      "윌렇계": 9272,
      "윌렇께": 9273,
      "윌렇케": 9274,
      "칼쿰한": 9275,
      "웰립뻬": 9276,
      "팡음위": 9277,
      "욧션부": 9278,
      "꽝앉뤼": 9279,
      "넴쌕카": 9280,
      "있움면": 9281,
      "햐쉬교": 9282,
      "혹컁쓰": 9283,
      "넴섹카": 9284,
      "윗샹한": 9285,
      "합닌탸": 9286,
      "잊얻셔": 9287,
      "좋암오": 9288,
      "28충": 9289,
      "화챵싫": 9290,
      "엘립볘위": 9291,
      "뚜슉캑": 9292,
      "슈욕창": 9293,
      ".(": 9294,
      "09": 9295,
      "1걔": 9296,
      "1쩜": 9297,
      "1툐": 9298,
      "2셩": 9299,
      "2월": 9300,
      "2펀": 9301,
      "3인": 9302,
      "3쭝": 9303,
      "4많": 9304,
      "5걔": 9305,
      "6월": 9306,
      "7많": 9307,
      "8쯩": 9308,
      "99": 9309,
      ":-)": 9310,
      "JW": 9311,
      "ar": 9312,
      "각컥": 9313,
      "갇은": 9314,
      "갇죡": 9315,
      "갊똥": 9316,
      "갓촉": 9317,
      "갔죡": 9318,
      "같은": 9319,
      "같죡": 9320,
      "갸썽뷔": 9321,
      "걋운": 9322,
      "걋셩뷔": 9323,
      "걱위": 9324,
      "걱졍": 9325,
      "겅헒": 9326,
      "곁됴": 9327,
      "곡객": 9328,
      "곡오": 9329,
      "곧위": 9330,
      "공향": 9331,
      "관뤽": 9332,
      "관륌": 9333,
      "관릴": 9334,
      "관립": 9335,
      "관링": 9336,
      "관운": 9337,
      "교눈": 9338,
      "굣운": 9339,
      "굣은": 9340,
      "국켱": 9341,
      "굶련": 9342,
      "굻료": 9343,
      "귀에": 9344,
      "근쳐": 9345,
      "글런": 9346,
      "긁로": 9347,
      "긷데": 9348,
      "긷또": 9349,
      "긺많": 9350,
      "깃쥰": 9351,
      "까뉘": 9352,
      "까코": 9353,
      "까툰": 9354,
      "까폐": 9355,
      "깍쿄": 9356,
      "깐딴한": 9357,
      "깜딴": 9358,
      "깜셩": 9359,
      "깝펫": 9360,
      "깟썽": 9361,
      "깟썽뷔": 9362,
      "깟썽삐": 9363,
      "깠눈떼": 9364,
      "깥댜": 9365,
      "깥았": 9366,
      "깥쥐": 9367,
      "깨오": 9368,
      "깹끝": 9369,
      "꺌락": 9370,
      "꺼뤼": 9371,
      "꺼아": 9372,
      "껌쁠": 9373,
      "껏됴": 9374,
      "껨핑": 9375,
      "껫써": 9376,
      "꼼빵위": 9377,
      "꼿씨": 9378,
      "꽁귀": 9379,
      "꾜통": 9380,
      "꾸료": 9381,
      "꾸인": 9382,
      "꾹인": 9383,
      "꾼냥": 9384,
      "꿀렇": 9385,
      "뀌를": 9386,
      "뀌한": 9387,
      "뀔를": 9388,
      "뀨오": 9389,
      "끊낳": 9390,
      "끎렇": 9391,
      "끓렵": 9392,
      "끼됴": 9393,
      "끼량": 9394,
      "낄룰": 9395,
      "낍푼": 9396,
      "난방": 9397,
      "낢눈": 9398,
      "낢은": 9399,
      "냐온": 9400,
      "냐욘눈": 9401,
      "냔댜": 9402,
      "냔방위": 9403,
      "냘름": 9404,
      "냠많": 9405,
      "냠쟈": 9406,
      "넉뭄": 9407,
      "널운": 9408,
      "넒꼬": 9409,
      "넒여": 9410,
      "넒은": 9411,
      "넣뮨": 9412,
      "네꼬": 9413,
      "네력": 9414,
      "넥욘": 9415,
      "넬럭": 9416,
      "넬욕": 9417,
      "넵뿌": 9418,
      "넵용": 9419,
      "넵푸": 9420,
      "넷욥": 9421,
      "넸욧": 9422,
      "넸용": 9423,
      "넹챵": 9424,
      "녈분": 9425,
      "녜옥": 9426,
      "놓쿄": 9427,
      "놔셔": 9428,
      "뇰람": 9429,
      "뉘답": 9430,
      "뉘닷": 9431,
      "뉘닸": 9432,
      "뉘먼": 9433,
      "뉨탸": 9434,
      "는뗍": 9435,
      "는뗏": 9436,
      "는텟": 9437,
      "늣운": 9438,
      "늣케": 9439,
      "늦운": 9440,
      "님닸": 9441,
      "닙닮": 9442,
      "닮닿": 9443,
      "닺는": 9444,
      "닿읾": 9445,
      "댜우": 9446,
      "덕균": 9447,
      "덕쿤": 9448,
      "데고": 9449,
      "데츙": 9450,
      "뎐뎨": 9451,
      "돼엿": 9452,
      "두렸": 9453,
      "둘또": 9454,
      "둘렸": 9455,
      "둘룬": 9456,
      "둘린": 9457,
      "둘릴": 9458,
      "둘은": 9459,
      "둘토": 9460,
      "둥둥": 9461,
      "들은": 9462,
      "듦럭": 9463,
      "듦럿": 9464,
      "듦은": 9465,
      "등위": 9466,
      "따꼬": 9467,
      "따읾": 9468,
      "딱꾜": 9469,
      "딱쿄": 9470,
      "땁땁": 9471,
      "땋한": 9472,
      "때쩨": 9473,
      "땍꾜": 9474,
      "떡뷴": 9475,
      "떨략": 9476,
      "떼눈": 9477,
      "떼잃": 9478,
      "똥녜": 9479,
      "뚜눈": 9480,
      "뚤뤼": 9481,
      "뜨끼": 9482,
      "뜨는": 9483,
      "뜨퀴": 9484,
      "뜯됴": 9485,
      "뜰렀": 9486,
      "뜰렸": 9487,
      "뜰륄": 9488,
      "뜰림": 9489,
      "뜰얻": 9490,
      "뜰토": 9491,
      "락쿄": 9492,
      "랗됴": 9493,
      "램삥": 9494,
      "랬써": 9495,
      "랴쓰": 9496,
      "랴익": 9497,
      "랴인": 9498,
      "랴잎": 9499,
      "랴타": 9500,
      "러욺": 9501,
      "러윤": 9502,
      "러코": 9503,
      "럭꾜": 9504,
      "렀웠": 9505,
      "렌두": 9506,
      "렌뜨": 9507,
      "렷셔": 9508,
      "롭피": 9509,
      "룹쁘땁": 9510,
      "뤠읾": 9511,
      "뤼됴": 9512,
      "뤼먼": 9513,
      "뤼쀼": 9514,
      "뤼쿄": 9515,
      "륀뎨": 9516,
      "류푸땁": 9517,
      "륨셥": 9518,
      "륩푸탑": 9519,
      "륩쁘탑": 9520,
      "릴교": 9521,
      "림눈": 9522,
      "릿갸": 9523,
      "릿셉": 9524,
      "릿수": 9525,
      "만앗": 9526,
      "만음": 9527,
      "만익": 9528,
      "만히": 9529,
      "많냐": 9530,
      "많앗": 9531,
      "많하": 9532,
      "많힝": 9533,
      "맏있": 9534,
      "맏타": 9535,
      "맏탸": 9536,
      "맒교": 9537,
      "맞쥐": 9538,
      "맡댜": 9539,
      "맡윗": 9540,
      "맡처": 9541,
      "맥유": 9542,
      "맥쥬": 9543,
      "맹유": 9544,
      "먼져": 9545,
      "메뉘": 9546,
      "메뜨": 9547,
      "메욱": 9548,
      "메한": 9549,
      "멱욺": 9550,
      "면쮜": 9551,
      "몃찐": 9552,
      "목듀": 9553,
      "목옥": 9554,
      "목텔": 9555,
      "몬뉨": 9556,
      "몹뗄": 9557,
      "묘델링": 9558,
      "묵귀": 9559,
      "묵엿": 9560,
      "묵컸": 9561,
      "문차": 9562,
      "묽됴": 9563,
      "묽료": 9564,
      "뭔갸": 9565,
      "뮈뤼": 9566,
      "뮈얾": 9567,
      "뮤였": 9568,
      "뮤옅": 9569,
      "뮨췌": 9570,
      "받닫": 9571,
      "받닻": 9572,
      "받앗": 9573,
      "발료": 9574,
      "밧따": 9575,
      "밧타": 9576,
      "밧탁": 9577,
      "방엔": 9578,
      "방엘": 9579,
      "방입": 9580,
      "밭는": 9581,
      "벌롤": 9582,
      "벎한": 9583,
      "변녜": 9584,
      "변채": 9585,
      "별론": 9586,
      "별롤": 9587,
      "별뤠": 9588,
      "별젊": 9589,
      "별한": 9590,
      "뵤똥": 9591,
      "뵤읽": 9592,
      "뵤위눈": 9593,
      "분위": 9594,
      "붉췬젊": 9595,
      "붊펀함": 9596,
      "붙떠": 9597,
      "뷰는": 9598,
      "뷰푼": 9599,
      "븃떠": 9600,
      "빚츤": 9601,
      "빛산": 9602,
      "빠닥": 9603,
      "빠람": 9604,
      "빵잃": 9605,
      "빻예": 9606,
      "빻읊": 9607,
      "뻔채": 9608,
      "뻬위": 9609,
      "뼛셔": 9610,
      "뼝읾": 9611,
      "뽀눈": 9612,
      "뽀는": 9613,
      "뽀인": 9614,
      "뽀코": 9615,
      "뽁꼬": 9616,
      "뾰따": 9617,
      "쀼텨": 9618,
      "쁠룐투": 9619,
      "삑카": 9620,
      "삔는": 9621,
      "사워": 9622,
      "사웜": 9623,
      "사웡": 9624,
      "삵짝": 9625,
      "삶뿌": 9626,
      "섈료": 9627,
      "섕갸": 9628,
      "서옹": 9629,
      "석오": 9630,
      "선쀼": 9631,
      "섣오": 9632,
      "섰써": 9633,
      "성오": 9634,
      "세뼉": 9635,
      "션또": 9636,
      "셤먼": 9637,
      "셥빗": 9638,
      "셥퓟": 9639,
      "셰욕": 9640,
      "셰탁": 9641,
      "숀는": 9642,
      "숄릴": 9643,
      "숄쥑": 9644,
      "숑쩡": 9645,
      "수면": 9646,
      "숨면": 9647,
      "숩빠": 9648,
      "숩니타": 9649,
      "숩닒타": 9650,
      "숩닝따": 9651,
      "숩님타": 9652,
      "숲니": 9653,
      "숲닛": 9654,
      "숲닒댜": 9655,
      "숲닝댜": 9656,
      "쉐면": 9657,
      "쉬간": 9658,
      "쉬꼬": 9659,
      "쉭길": 9660,
      "쉭긺": 9661,
      "쉽은": 9662,
      "슉솝": 9663,
      "슉송": 9664,
      "슉컨": 9665,
      "슉숀눈": 9666,
      "슬렵": 9667,
      "신교": 9668,
      "신켱": 9669,
      "십울": 9670,
      "싶얻": 9671,
      "싸짱": 9672,
      "싻람": 9673,
      "싼눈": 9674,
      "싼책": 9675,
      "쌩귄": 9676,
      "썅때": 9677,
      "썅테": 9678,
      "써빛": 9679,
      "써욧": 9680,
      "썰요": 9681,
      "썹퓌": 9682,
      "썹핏수": 9683,
      "썽숙": 9684,
      "썽윈": 9685,
      "쏙쵸": 9686,
      "쑤냐": 9687,
      "쑤컨": 9688,
      "쑥교": 9689,
      "쑥쏟": 9690,
      "쑥파": 9691,
      "쑨뉘": 9692,
      "쑵니": 9693,
      "쒸면": 9694,
      "쒼켱": 9695,
      "쓰빠": 9696,
      "쓰투": 9697,
      "쓰려웠": 9698,
      "쓱쿠": 9699,
      "씁니탸": 9700,
      "씁뉠댜": 9701,
      "씨예": 9702,
      "씩카": 9703,
      "씩턍": 9704,
      "씹쁜": 9705,
      "씹펴": 9706,
      "씹푼": 9707,
      "악췸": 9708,
      "안꼬": 9709,
      "안는": 9710,
      "안얏": 9711,
      "안욺": 9712,
      "안윳": 9713,
      "안은": 9714,
      "앉닢": 9715,
      "앉쥬": 9716,
      "앉찜": 9717,
      "앉흠": 9718,
      "않닢": 9719,
      "않움": 9720,
      "않읊": 9721,
      "알찜": 9722,
      "앍오": 9723,
      "앍찜": 9724,
      "압에": 9725,
      "압오": 9726,
      "앝찜": 9727,
      "얀내": 9728,
      "얀낼": 9729,
      "얀냇": 9730,
      "얀눈": 9731,
      "얀눼": 9732,
      "얀야": 9733,
      "얀얏": 9734,
      "얀하": 9735,
      "얀흙": 9736,
      "얄레": 9737,
      "얏쉰": 9738,
      "얏쉼": 9739,
      "얩뻗": 9740,
      "얩뼈": 9741,
      "얩뿐": 9742,
      "얩퍼": 9743,
      "얩푸": 9744,
      "어긷": 9745,
      "어뉘": 9746,
      "어름": 9747,
      "억긷": 9748,
      "억킨": 9749,
      "언룸": 9750,
      "언욧": 9751,
      "얾먀": 9752,
      "얾셔": 9753,
      "업댜": 9754,
      "업엊": 9755,
      "업엿": 9756,
      "업녜오": 9757,
      "었요": 9758,
      "었움": 9759,
      "엉됴": 9760,
      "엌퀴": 9761,
      "엠오": 9762,
      "엣설": 9763,
      "엣션": 9764,
      "여옻": 9765,
      "여위": 9766,
      "여쩔": 9767,
      "역귄": 9768,
      "역껸": 9769,
      "역위": 9770,
      "역퀴": 9771,
      "역헹": 9772,
      "엮헹": 9773,
      "연누": 9774,
      "열륙": 9775,
      "열먀": 9776,
      "엶룸": 9777,
      "엷려": 9778,
      "엷행": 9779,
      "엽방": 9780,
      "엽빵": 9781,
      "엾따": 9782,
      "엾빵": 9783,
      "엾팡": 9784,
      "엿헹": 9785,
      "영헹": 9786,
      "옇맣": 9787,
      "예끼": 9788,
      "예요": 9789,
      "예욥": 9790,
      "옐오": 9791,
      "옛선": 9792,
      "옛성": 9793,
      "옛썽": 9794,
      "온톨": 9795,
      "옭랴": 9796,
      "옴션": 9797,
      "왓따": 9798,
      "왓는뎨": 9799,
      "요한": 9800,
      "욘슉": 9801,
      "욘톨": 9802,
      "욥쁜": 9803,
      "욥뉘따": 9804,
      "우냐": 9805,
      "우롱": 9806,
      "우머": 9807,
      "우훙": 9808,
      "욺로": 9809,
      "워오": 9810,
      "웝써": 9811,
      "웰껌": 9812,
      "위따": 9813,
      "위똥": 9814,
      "위뚤": 9815,
      "위라": 9816,
      "위셨": 9817,
      "위쑬": 9818,
      "위욱": 9819,
      "위짜": 9820,
      "위푸": 9821,
      "위풀": 9822,
      "윅쿠": 9823,
      "윈떤": 9824,
      "윈카": 9825,
      "윈턱": 9826,
      "윈투": 9827,
      "윌랄": 9828,
      "윌략": 9829,
      "윌룸": 9830,
      "윌를": 9831,
      "윌츌": 9832,
      "윌한": 9833,
      "윕벼": 9834,
      "윕붉": 9835,
      "윕뻔": 9836,
      "윕웨": 9837,
      "윕쟝": 9838,
      "윕쮜": 9839,
      "윕닒댜": 9840,
      "윕닙댜": 9841,
      "윕닝댜": 9842,
      "윗슬": 9843,
      "윗썹": 9844,
      "윗쓰": 9845,
      "을롬": 9846,
      "을롭": 9847,
      "읊록": 9848,
      "읊롱": 9849,
      "음식": 9850,
      "인갸": 9851,
      "인군": 9852,
      "인떤": 9853,
      "인뜨": 9854,
      "인쌩": 9855,
      "읽찍": 9856,
      "잃칙": 9857,
      "잃판": 9858,
      "입랴": 9859,
      "잇계": 9860,
      "잇떤": 9861,
      "잇서": 9862,
      "잇쑵": 9863,
      "잇쥐": 9864,
      "있련": 9865,
      "있쌍": 9866,
      "있언": 9867,
      "있눈뒈": 9868,
      "잊련": 9869,
      "잊쑵": 9870,
      "잊눈뒈": 9871,
      "잊눈뎨": 9872,
      "잊는뒈": 9873,
      "잎련": 9874,
      "잎뷸": 9875,
      "잎닐댜": 9876,
      "잎닝댜": 9877,
      "잎니따": 9878,
      "잽팡뮨": 9879,
      "쟉꼬": 9880,
      "쟌눈": 9881,
      "쟘만": 9882,
      "젠는": 9883,
      "젭방뮨": 9884,
      "젼녜": 9885,
      "젼뷰": 9886,
      "젼췌척": 9887,
      "졀때": 9888,
      "졀태": 9889,
      "졍돛": 9890,
      "졍먼": 9891,
      "졔한": 9892,
      "졺멍": 9893,
      "좇씨": 9894,
      "좋찌": 9895,
      "좋켓": 9896,
      "좋콜": 9897,
      "좋녜요": 9898,
      "죠멍": 9899,
      "죠함": 9900,
      "죠흙": 9901,
      "줏셨": 9902,
      "줏씨": 9903,
      "줴한": 9904,
      "쥐됴": 9905,
      "쥐컨": 9906,
      "쥑교": 9907,
      "쥑코": 9908,
      "쥔헹": 9909,
      "쥬는": 9910,
      "쥬짰": 9911,
      "쥬찰": 9912,
      "쥬코": 9913,
      "진는": 9914,
      "짓됴": 9915,
      "짜는": 9916,
      "짜췌": 9917,
      "짝교": 9918,
      "짤를": 9919,
      "짬꾜": 9920,
      "짬읊": 9921,
      "짱됴": 9922,
      "쨘는": 9923,
      "쩌는": 9924,
      "쩐눈": 9925,
      "쩔뤼": 9926,
      "쩜뮈": 9927,
      "쩡거": 9928,
      "쩡솎": 9929,
      "쩡숄": 9930,
      "쩨꽁": 9931,
      "쩨읽": 9932,
      "쪼끔": 9933,
      "쪼용한": 9934,
      "쪽컨": 9935,
      "쭈교": 9936,
      "쭈찹": 9937,
      "쭈찾": 9938,
      "쭉꼬": 9939,
      "쭘먈": 9940,
      "쭝갼": 9941,
      "쮸번": 9942,
      "찌갸": 9943,
      "찌약": 9944,
      "찍코": 9945,
      "찐씸": 9946,
      "찜궂": 9947,
      "창냔": 9948,
      "챕팡뮨": 9949,
      "챨룰": 9950,
      "챵씰": 9951,
      "처됴": 9952,
      "척닿": 9953,
      "척우료": 9954,
      "첨은": 9955,
      "청숄": 9956,
      "청컬": 9957,
      "체한": 9958,
      "첵큼": 9959,
      "첼룰": 9960,
      "쳐써": 9961,
      "쳔쟝": 9962,
      "쳔쳬": 9963,
      "쳔확": 9964,
      "촙교": 9965,
      "최꼬": 9966,
      "최약": 9967,
      "쵯쌍": 9968,
      "쵯쏭": 9969,
      "쵸옹": 9970,
      "추눈": 9971,
      "추번": 9972,
      "추변": 9973,
      "추짯": 9974,
      "췌곧": 9975,
      "췸굿": 9976,
      "췸덱": 9977,
      "췸씰": 9978,
      "췻쑈": 9979,
      "치컨": 9980,
      "칙끼": 9981,
      "칙운": 9982,
      "칙쩝": 9983,
      "칙첩": 9984,
      "칠룰": 9985,
      "칩찝": 9986,
      "카교": 9987,
      "카뉘": 9988,
      "카뜬": 9989,
      "카써": 9990,
      "칸단": 9991,
      "캉츄": 9992,
      "캡술": 9993,
      "캬략": 9994,
      "커운": 9995,
      "컵퓌": 9996,
      "컷됴": 9997,
      "켜귀": 9998,
      "켠뮬": 9999,
      "켭퓌": 10000,
      "코충": 10001,
      "콜론": 10002,
      "콩간": 10003,
      "퀼료": 10004,
      "퀼룰": 10005,
      "큰낳": 10006,
      "클렇": 10007,
      "키는": 10008,
      "타면": 10009,
      "탁캬": 10010,
      "탁쿄": 10011,
      "탄너": 10012,
      "탄첨": 10013,
      "탑답": 10014,
      "탑탑": 10015,
      "태뷔": 10016,
      "탭삐": 10017,
      "탸꼬": 10018,
      "탸윔": 10019,
      "턍한": 10020,
      "턍황": 10021,
      "텝뷔": 10022,
      "토록": 10023,
      "톤는": 10024,
      "통뱐": 10025,
      "퇴얻": 10026,
      "퇴얽": 10027,
      "퇴업": 10028,
      "퇴엇": 10029,
      "툇쉴": 10030,
      "투퀴": 10031,
      "툭까": 10032,
      "툰눈": 10033,
      "툴럿": 10034,
      "틀교": 10035,
      "틀러": 10036,
      "틀렀": 10037,
      "틀륀": 10038,
      "틀륌": 10039,
      "팡엔": 10040,
      "팡읊": 10041,
      "펀의": 10042,
      "펀읜": 10043,
      "펀학계": 10044,
      "펀학케": 10045,
      "펙뀨": 10046,
      "편난": 10047,
      "편냔": 10048,
      "편핫": 10049,
      "펼졈": 10050,
      "포뉘": 10051,
      "포먼": 10052,
      "폭꼬": 10053,
      "푸갸": 10054,
      "푸론": 10055,
      "푸토": 10056,
      "푼뚤": 10057,
      "푿뗘": 10058,
      "풀편함": 10059,
      "풂룐": 10060,
      "풋산": 10061,
      "퓨룰": 10062,
      "퓰를": 10063,
      "플룐투": 10064,
      "플론뜨": 10065,
      "필룰": 10066,
      "한냘": 10067,
      "한닐": 10068,
      "한뛔": 10069,
      "한번": 10070,
      "한뽁": 10071,
      "한슘": 10072,
      "한쥐": 10073,
      "한쪽": 10074,
      "할냐": 10075,
      "할륀": 10076,
      "할먼": 10077,
      "할오": 10078,
      "핥러": 10079,
      "핥인": 10080,
      "핥쥐": 10081,
      "함계": 10082,
      "함멸": 10083,
      "합닌타": 10084,
      "합뉩따": 10085,
      "핫쉰는": 10086,
      "항꾜": 10087,
      "항먼": 10088,
      "핵윤": 10089,
      "핸오": 10090,
      "햄윤": 10091,
      "햇코": 10092,
      "햇숩뉘따": 10093,
      "했셨": 10094,
      "했썹": 10095,
      "했서오": 10096,
      "했눈톄": 10097,
      "했는톄": 10098,
      "했슈옥": 10099,
      "햐곱": 10100,
      "햐공": 10101,
      "햐꼰": 10102,
      "햐꼴": 10103,
      "햐닉": 10104,
      "햐닥": 10105,
      "햐뎐": 10106,
      "햐룻": 10107,
      "햐셧": 10108,
      "햐엿": 10109,
      "햐요": 10110,
      "햐켸": 10111,
      "햐짊많": 10112,
      "햐셰오": 10113,
      "햐씬눈": 10114,
      "헤섰": 10115,
      "헤섶": 10116,
      "헤쓺": 10117,
      "헤춘": 10118,
      "헬를": 10119,
      "헵봤": 10120,
      "헷섧": 10121,
      "헷섶": 10122,
      "헷셨": 10123,
      "헷쑵": 10124,
      "헹휘": 10125,
      "홈떼": 10126,
      "화위": 10127,
      "확쟝싫": 10128,
      "확창씰": 10129,
      "확창실": 10130,
      "활옹": 10131,
      "활쟝실": 10132,
      "활짱쉴": 10133,
      "홧창쉴": 10134,
      "황쟝싫": 10135,
      "훅귀": 10136,
      "훼용": 10137,
      "...^^": 10138,
      "~~~~~": 10139,
      "효뗄1": 10140,
      "효뗄웨": 10141,
      "씁뉘닻": 10142,
      "씁뉘땁": 10143,
      "10월": 10144,
      "합뉘닷": 10145,
      "합뉘땋": 10146,
      "합뉘탕": 10147,
      "숩뉘닦": 10148,
      "숩뉘단": 10149,
      "숩뉘닯": 10150,
      "숩뉘답": 10151,
      "숩뉘닷": 10152,
      "숩뉘닿": 10153,
      "숩뉘탑": 10154,
      "췬졀학교": 10155,
      "얘악한": 10156,
      "얘악할": 10157,
      "ㅋㅋㅋㅋㅋㅋㅋ": 10158,
      "2020": 10159,
      "팡뮨핥": 10160,
      "ㅜㅜㅜ": 10161,
      "쥑언뿐": 10162,
      "묘텔링": 10163,
      "숲뉘닫": 10164,
      "숲뉘당": 10165,
      "캑끝학꼬": 10166,
      "윕뉘담": 10167,
      "윕뉘닺": 10168,
      "깖꿈한": 10169,
      "깖꿈학코": 10170,
      "갹걱됴": 10171,
      "댜움예": 10172,
      "샤람위": 10173,
      "쥬챠쟝": 10174,
      "넴쌔까": 10175,
      "화창실": 10176,
      "괜챦앗": 10177,
      "괜챦았": 10178,
      "뷴둘위": 10179,
      "친젊햐": 10180,
      "깔큼학교": 10181,
      "씻셜됴": 10182,
      "핫쉬눈": 10183,
      "캐끝한": 10184,
      "옻션부": 10185,
      "2윈쉴": 10186,
      "2윈씰": 10187,
      "깸삥창": 10188,
      "좋핫셔": 10189,
      "좋핫써": 10190,
      "좋핫오": 10191,
      "친쩔한": 10192,
      "락교오": 10193,
      "숄뤼갸": 10194,
      "좋쑵뉘타": 10195,
      "꽝않뤼": 10196,
      "켐삥쟝": 10197,
      "방음위": 10198,
      "씻섦또": 10199,
      "쩔렴한": 10200,
      "넴쌕갸": 10201,
      "야윳할": 10202,
      "좋악오": 10203,
      "뗌뮨예": 10204,
      "찜규루": 10205,
      "화쨩쉴": 10206,
      "화쨩싫": 10207,
      "화쨩씰": 10208,
      "좋알오": 10209,
      "좋앓오": 10210,
      "납프쥐": 10211,
      "먀음웨": 10212,
      "옐뤼붸": 10213,
      "화챵씰": 10214,
      "21넌": 10215,
      "얘뿌꼬": 10216,
      "좋할오": 10217,
      "ood": 10218,
      "☆☆☆☆☆": 10219,
      ".\"": 10220,
      "1층": 10221,
      "1홰": 10222,
      "2뺙": 10223,
      "3푼": 10224,
      "5깨": 10225,
      "5쉬": 10226,
      "5씨": 10227,
      "5쯩": 10228,
      "7월": 10229,
      "7충": 10230,
      "9얼": 10231,
      "9쯩": 10232,
      "GS": 10233,
      "NS": 10234,
      "SNS": 10235,
      "^-^": 10236,
      "he": 10237,
      "on": 10238,
      "ti": 10239,
      "ve": 10240,
      "각꺽": 10241,
      "갇써": 10242,
      "갇토": 10243,
      "갇셩뷔": 10244,
      "갊탄": 10245,
      "갓탸": 10246,
      "갔뜬": 10247,
      "갔썽뷔": 10248,
      "갖격": 10249,
      "갖교": 10250,
      "갖야오": 10251,
      "갗죡": 10252,
      "갗탸": 10253,
      "같뜬": 10254,
      "객쉬": 10255,
      "갸아": 10256,
      "갸쪽": 10257,
      "갸촉": 10258,
      "갼뉘": 10259,
      "갼만": 10260,
      "갼쉭": 10261,
      "갼능한": 10262,
      "걋써": 10263,
      "걋셩삐": 10264,
      "걍릉": 10265,
      "걔딴": 10266,
      "걔인": 10267,
      "거뉘": 10268,
      "건위": 10269,
      "걷됴": 10270,
      "겅유": 10271,
      "겨운": 10272,
      "견냐": 10273,
      "곈눈": 10274,
      "곤눈": 10275,
      "공간": 10276,
      "공용": 10277,
      "곶씨": 10278,
      "관눈": 10279,
      "교객": 10280,
      "교씬": 10281,
      "굣쉬": 10282,
      "구레": 10283,
      "구렴": 10284,
      "구롭": 10285,
      "군셩위": 10286,
      "굴뤼": 10287,
      "굶런": 10288,
      "굻량": 10289,
      "굻렇": 10290,
      "궂썩": 10291,
      "귀분": 10292,
      "귀였": 10293,
      "귁캬": 10294,
      "귈를": 10295,
      "귑뉘댜": 10296,
      "근냥": 10297,
      "근쩌": 10298,
      "긁뤽": 10299,
      "긱카": 10300,
      "긷때": 10301,
      "긷타": 10302,
      "긷툐": 10303,
      "긺랴": 10304,
      "깃또": 10305,
      "깆또": 10306,
      "까꺄": 10307,
      "까써": 10308,
      "까썽": 10309,
      "까쪽": 10310,
      "깍깝": 10311,
      "깔찌": 10312,
      "깖먼": 10313,
      "깖샤": 10314,
      "깖윤": 10315,
      "깜동": 10316,
      "깝닉": 10317,
      "깝닒댜": 10318,
      "깟셔": 10319,
      "깠셩": 10320,
      "깠타": 10321,
      "깠눈뎨": 10322,
      "깥코": 10323,
      "깩쉬": 10324,
      "깹쑬": 10325,
      "꺄는": 10326,
      "꺄썽": 10327,
      "꺄징": 10328,
      "껀딛션": 10329,
      "껴셔": 10330,
      "꼭깩": 10331,
      "꽁싸": 10332,
      "꽤한": 10333,
      "꾸런": 10334,
      "꾼뒈": 10335,
      "꿀런": 10336,
      "끅코": 10337,
      "끈테": 10338,
      "끌뤼": 10339,
      "끎렵": 10340,
      "끎료": 10341,
      "끓렇": 10342,
      "끓료": 10343,
      "끼카": 10344,
      "낄레": 10345,
      "낄뤼": 10346,
      "낍뵨": 10347,
      "나꼬": 10348,
      "낢야": 10349,
      "났써": 10350,
      "낵갸": 10351,
      "낵코": 10352,
      "낸눈": 10353,
      "냐름": 10354,
      "냐먼": 10355,
      "냐옥": 10356,
      "냐욕": 10357,
      "냐코": 10358,
      "냑꺄": 10359,
      "냔띠": 10360,
      "냘시": 10361,
      "냠거": 10362,
      "넋넋": 10363,
      "넋묶": 10364,
      "넒궤": 10365,
      "넒며": 10366,
      "넓은": 10367,
      "넛묽": 10368,
      "넣묻": 10369,
      "네갸": 10370,
      "네럭": 10371,
      "네옮": 10372,
      "넥꺄": 10373,
      "넥욥": 10374,
      "넥코": 10375,
      "넨욧": 10376,
      "넬용": 10377,
      "넴쌘": 10378,
      "넴욥": 10379,
      "넷요": 10380,
      "넷욕": 10381,
      "넸요": 10382,
      "넹욧": 10383,
      "념계": 10384,
      "념념": 10385,
      "녠오": 10386,
      "놂위": 10387,
      "놓앗": 10388,
      "뇨레": 10389,
      "뇰댜": 10390,
      "뇰따": 10391,
      "눈뗌": 10392,
      "눈뗏": 10393,
      "눈뗐": 10394,
      "눈텝": 10395,
      "눌랴": 10396,
      "뉘닻": 10397,
      "뉘뮈": 10398,
      "뉜눈": 10399,
      "는뎄": 10400,
      "는떽": 10401,
      "는텡": 10402,
      "늣께": 10403,
      "니단": 10404,
      "닉칵": 10405,
      "닛닫": 10406,
      "닢담": 10407,
      "단닉": 10408,
      "닫는": 10409,
      "닮룰": 10410,
      "담많": 10411,
      "닺눈": 10412,
      "닿읽": 10413,
      "댈롱": 10414,
      "댜너": 10415,
      "댜앙": 10416,
      "던뉘": 10417,
      "데옇": 10418,
      "데학": 10419,
      "덱쿄": 10420,
      "뎁삐": 10421,
      "뎌략": 10422,
      "뎌렵": 10423,
      "뎔렵": 10424,
      "돌료": 10425,
      "돼꼬": 10426,
      "돼언": 10427,
      "돼엄": 10428,
      "돼없": 10429,
      "됨여": 10430,
      "둘렀": 10431,
      "둘엌": 10432,
      "둥등": 10433,
      "둥운": 10434,
      "뒈교": 10435,
      "뒤썬": 10436,
      "들룬": 10437,
      "듦또": 10438,
      "듦러": 10439,
      "듦른": 10440,
      "등둥": 10441,
      "등등": 10442,
      "따뜯": 10443,
      "따요": 10444,
      "따윌": 10445,
      "딱꺄": 10446,
      "딱딱": 10447,
      "딱탁": 10448,
      "딴뉘": 10449,
      "딸뤼": 10450,
      "땀패": 10451,
      "땋윌": 10452,
      "때됴": 10453,
      "때쭝": 10454,
      "떠략": 10455,
      "떡갸": 10456,
      "떼뤼": 10457,
      "떼먀": 10458,
      "떼잎": 10459,
      "뗌먀": 10460,
      "뗘려": 10461,
      "똘록": 10462,
      "똥운": 10463,
      "뙈셔": 10464,
      "뙈오": 10465,
      "뙤꼬": 10466,
      "뙤코": 10467,
      "뚜뻑": 10468,
      "뚤려": 10469,
      "뜨룰": 10470,
      "뜩갸": 10471,
      "뜰됴": 10472,
      "뜰러": 10473,
      "랍윤": 10474,
      "랏코": 10475,
      "랖뉘댜": 10476,
      "래됴": 10477,
      "랩됴": 10478,
      "랴뤼": 10479,
      "랴써": 10480,
      "략곤": 10481,
      "랸댜": 10482,
      "럇쓰": 10483,
      "러윰": 10484,
      "럭수": 10485,
      "럭쓰": 10486,
      "런놓": 10487,
      "런었": 10488,
      "럽코": 10489,
      "렁었": 10490,
      "렉귀": 10491,
      "려냐": 10492,
      "려써": 10493,
      "롄는": 10494,
      "루됴": 10495,
      "룩케": 10496,
      "룬촉": 10497,
      "룸운": 10498,
      "룸탑": 10499,
      "룹푸땁": 10500,
      "뤠인": 10501,
      "뤼얻": 10502,
      "륄료": 10503,
      "륨은": 10504,
      "른눈": 10505,
      "린갸": 10506,
      "립뿌": 10507,
      "릿교": 10508,
      "릿쓰": 10509,
      "만댜": 10510,
      "만얹": 10511,
      "만이": 10512,
      "만찌": 10513,
      "만초": 10514,
      "만훔": 10515,
      "많꿈": 10516,
      "많댜": 10517,
      "많잎": 10518,
      "많졈": 10519,
      "많훔": 10520,
      "많힌": 10521,
      "많함먼": 10522,
      "많핫써": 10523,
      "많핫셔": 10524,
      "맒됴": 10525,
      "맒슴": 10526,
      "맛타": 10527,
      "맡잇": 10528,
      "맨뉘": 10529,
      "맨유": 10530,
      "맨튁": 10531,
      "먀쉐": 10532,
      "먀우": 10533,
      "먀차": 10534,
      "먀쎄오": 10535,
      "먈됴": 10536,
      "먹는": 10537,
      "먼쥑": 10538,
      "먼쩌": 10539,
      "멎쥔": 10540,
      "메울": 10541,
      "메웃": 10542,
      "메윌": 10543,
      "멘녀": 10544,
      "멱얻": 10545,
      "면취": 10546,
      "멸릭": 10547,
      "목귀": 10548,
      "몫듀": 10549,
      "몫튼": 10550,
      "몲뜬": 10551,
      "몲랒": 10552,
      "묘둑": 10553,
      "묘든": 10554,
      "묘뚠": 10555,
      "묘읾": 10556,
      "묘툰": 10557,
      "묜텔": 10558,
      "묫할": 10559,
      "묫헤": 10560,
      "묵겼": 10561,
      "묵껐": 10562,
      "문쩨": 10563,
      "묽론": 10564,
      "묽토": 10565,
      "뭍쓴": 10566,
      "뭬또": 10567,
      "뮌한": 10568,
      "뮤순": 10569,
      "뮤죡견": 10570,
      "뮨녜": 10571,
      "뮨눌": 10572,
      "뮨에": 10573,
      "밉뉘따": 10574,
      "밗쿼": 10575,
      "밞예": 10576,
      "방엠": 10577,
      "방을": 10578,
      "방잃": 10579,
      "방옛써": 10580,
      "뱌닺": 10581,
      "뱌땃": 10582,
      "뱌롱": 10583,
      "뱌위": 10584,
      "번켱": 10585,
      "벌로": 10586,
      "벎로": 10587,
      "벎뤠": 10588,
      "벙언": 10589,
      "벡쿠": 10590,
      "변웨": 10591,
      "복꾜": 10592,
      "본뉘": 10593,
      "봐오": 10594,
      "봤눈뎨": 10595,
      "봤는뎨": 10596,
      "뵤는": 10597,
      "뵤어": 10598,
      "뵤윕": 10599,
      "뵤인": 10600,
      "뵨윈": 10601,
      "부같": 10602,
      "부툐": 10603,
      "불편": 10604,
      "붉를": 10605,
      "붉편함": 10606,
      "붓텨": 10607,
      "뷔싼": 10608,
      "뷰뉩": 10609,
      "뷰쪽": 10610,
      "뷸까": 10611,
      "뷸편함": 10612,
      "뷸펀한": 10613,
      "빚쑤": 10614,
      "빛싼": 10615,
      "빛쭈": 10616,
      "빨랴": 10617,
      "빪렛": 10618,
      "빰예": 10619,
      "빵읾": 10620,
      "빻토": 10621,
      "빻팡": 10622,
      "뻔했": 10623,
      "뼈냔": 10624,
      "뽀옅": 10625,
      "뽁귀": 10626,
      "뽁끼": 10627,
      "뽁쯩": 10628,
      "뾰함": 10629,
      "뿌땁": 10630,
      "뿌산": 10631,
      "뿍쒼": 10632,
      "뿐뉠": 10633,
      "뿐됴": 10634,
      "뿐많": 10635,
      "뿐멍": 10636,
      "뿐한": 10637,
      "뿐듦위": 10638,
      "뿔펀": 10639,
      "뿔펀함": 10640,
      "뿔펀햐": 10641,
      "뿡겅": 10642,
      "쀼캬": 10643,
      "쁠뤼": 10644,
      "쁠련투": 10645,
      "삘로": 10646,
      "사웠": 10647,
      "삼퓨": 10648,
      "샤녜": 10649,
      "섀뼉": 10650,
      "서올": 10651,
      "서옭": 10652,
      "섞셔": 10653,
      "섟오": 10654,
      "선오": 10655,
      "섦멍": 10656,
      "섰셔": 10657,
      "섶빛쓰": 10658,
      "섶빛수": 10659,
      "센오": 10660,
      "셉벽": 10661,
      "션뉘": 10662,
      "션때": 10663,
      "션토": 10664,
      "셜됴": 10665,
      "셜멓": 10666,
      "셜명": 10667,
      "솖리": 10668,
      "쇼한": 10669,
      "수먼": 10670,
      "숙빡": 10671,
      "술록": 10672,
      "숩뉜": 10673,
      "숩닙따": 10674,
      "숩닛따": 10675,
      "숯됴": 10676,
      "숲닝타": 10677,
      "쉐욘": 10678,
      "쉬설": 10679,
      "쉬였": 10680,
      "쉬윤": 10681,
      "쉬창": 10682,
      "쉭갸": 10683,
      "쉭꾜": 10684,
      "쉭꾸": 10685,
      "쉭크": 10686,
      "쉭킬": 10687,
      "쉰귀": 10688,
      "쉰랴": 10689,
      "쉽타": 10690,
      "쉽뉘댜": 10691,
      "슈껀": 10692,
      "슈컨": 10693,
      "슉빠": 10694,
      "슉솟": 10695,
      "슉쏜눈": 10696,
      "슴면": 10697,
      "신축": 10698,
      "싣셔": 10699,
      "실맣": 10700,
      "십엇": 10701,
      "십읊": 10702,
      "십치": 10703,
      "십눼오": 10704,
      "싸워": 10705,
      "싸잊": 10706,
      "쌍땍": 10707,
      "쌍떼": 10708,
      "써아": 10709,
      "써욘": 10710,
      "써피": 10711,
      "썬때": 10712,
      "썬뿡": 10713,
      "썬용": 10714,
      "썰욘": 10715,
      "썹핏": 10716,
      "썼요": 10717,
      "썽요": 10718,
      "썽욕": 10719,
      "쎄옭": 10720,
      "쎄옰": 10721,
      "쎄욧": 10722,
      "쎈텨": 10723,
      "쏘빠": 10724,
      "쏠리": 10725,
      "쑤를": 10726,
      "쑤준": 10727,
      "쑥손": 10728,
      "쑥솝": 10729,
      "쑥카": 10730,
      "쑥숀눈": 10731,
      "쑨냐": 10732,
      "쑬렵": 10733,
      "쑬룰": 10734,
      "쒜욘": 10735,
      "쒸갼": 10736,
      "쒸먼": 10737,
      "쒸칸": 10738,
      "쒼겅": 10739,
      "쓰끄": 10740,
      "쓰땐": 10741,
      "쓰카": 10742,
      "쓰텐": 10743,
      "쓱끄": 10744,
      "쓴냐": 10745,
      "씁뉜댜": 10746,
      "씁뉠따": 10747,
      "씨룰": 10748,
      "씩갸": 10749,
      "씩귀": 10750,
      "씩쿄": 10751,
      "씩키": 10752,
      "씬네": 10753,
      "씸치": 10754,
      "씸학교": 10755,
      "씽클": 10756,
      "아깼": 10757,
      "아찜": 10758,
      "악겋": 10759,
      "악오": 10760,
      "안음": 10761,
      "앉내": 10762,
      "앉뉩": 10763,
      "앉늑": 10764,
      "앉먀": 10765,
      "앉씸": 10766,
      "앉췸": 10767,
      "앉훌": 10768,
      "알췸": 10769,
      "앍쥬": 10770,
      "앎교": 10771,
      "앎묽": 10772,
      "앎쉽": 10773,
      "앓교": 10774,
      "앓쥬": 10775,
      "암쥬": 10776,
      "았쉰": 10777,
      "앝셔": 10778,
      "야얘": 10779,
      "야츄": 10780,
      "야캅": 10781,
      "약귀": 10782,
      "약꺄": 10783,
      "약오": 10784,
      "약칸": 10785,
      "얀교": 10786,
      "얀뉨": 10787,
      "얀닙": 10788,
      "얀운": 10789,
      "얄랐": 10790,
      "얄앝": 10791,
      "얍웨": 10792,
      "얍토": 10793,
      "얏쉿": 10794,
      "양쉽": 10795,
      "얘쁩": 10796,
      "얘얇": 10797,
      "얘옰": 10798,
      "얠약": 10799,
      "얩픕": 10800,
      "어귄": 10801,
      "어쉴": 10802,
      "어씨": 10803,
      "어욤": 10804,
      "억요": 10805,
      "억콴": 10806,
      "억퀴": 10807,
      "언륨": 10808,
      "언씩": 10809,
      "언욜": 10810,
      "언위": 10811,
      "언한": 10812,
      "얹욥": 10813,
      "얹쩨": 10814,
      "얼먼": 10815,
      "얼요": 10816,
      "얼욕": 10817,
      "얽룸": 10818,
      "얽륙": 10819,
      "얽써": 10820,
      "얽용": 10821,
      "얾륙": 10822,
      "업뻬": 10823,
      "업욺": 10824,
      "없쑴": 10825,
      "없쓺": 10826,
      "엇교": 10827,
      "엇여오": 10828,
      "었뎐": 10829,
      "었욤": 10830,
      "엉욧": 10831,
      "엉챵": 10832,
      "엊떤": 10833,
      "엊요": 10834,
      "엊쩔": 10835,
      "엊턴": 10836,
      "엌요": 10837,
      "엌욤": 10838,
      "엌용": 10839,
      "엎꾜": 10840,
      "엎얻": 10841,
      "엎쿄": 10842,
      "에는": 10843,
      "에됴": 10844,
      "엑오": 10845,
      "엣는": 10846,
      "엣됴": 10847,
      "엣석": 10848,
      "엣섟": 10849,
      "엣썬": 10850,
      "엥오": 10851,
      "여온": 10852,
      "여옴": 10853,
      "역깆": 10854,
      "역뀌": 10855,
      "역쉬": 10856,
      "연밗": 10857,
      "연헹": 10858,
      "열행": 10859,
      "염오": 10860,
      "엽쓺": 10861,
      "엽오": 10862,
      "엾뻬": 10863,
      "엾씨": 10864,
      "엾임": 10865,
      "엾눼오": 10866,
      "엿교": 10867,
      "였교": 10868,
      "였뎐": 10869,
      "였씁뉘따": 10870,
      "옅헹": 10871,
      "옅눈뎨": 10872,
      "옆셔": 10873,
      "옇없": 10874,
      "예귀": 10875,
      "예섶": 10876,
      "예여": 10877,
      "예욘": 10878,
      "예욤": 10879,
      "예엌켠": 10880,
      "옘오": 10881,
      "옙퍼오": 10882,
      "옛섬": 10883,
      "옜냘": 10884,
      "옥굼": 10885,
      "옥쌍": 10886,
      "옭략": 10887,
      "옹선": 10888,
      "옹퓸": 10889,
      "와윈": 10890,
      "왁셔": 10891,
      "완셔": 10892,
      "완써": 10893,
      "왐써": 10894,
      "왑셔": 10895,
      "왔댜": 10896,
      "왹콴": 10897,
      "욉뿌": 10898,
      "요쁜": 10899,
      "요쩡": 10900,
      "요힐": 10901,
      "욕쩡": 10902,
      "욘또": 10903,
      "욜렌": 10904,
      "용풂": 10905,
      "욱카": 10906,
      "운찌": 10907,
      "울룟": 10908,
      "욺룝": 10909,
      "욺뤼": 10910,
      "욺예": 10911,
      "움룡": 10912,
      "움위": 10913,
      "웃션": 10914,
      "웅테": 10915,
      "워셔": 10916,
      "원셔": 10917,
      "원써": 10918,
      "웜써": 10919,
      "웨엌껀": 10920,
      "웬만한": 10921,
      "위뤼": 10922,
      "위불": 10923,
      "위뿔": 10924,
      "위쮜": 10925,
      "위툴": 10926,
      "위서써": 10927,
      "위렇께": 10928,
      "위렇케": 10929,
      "위써셔": 10930,
      "윅귀": 10931,
      "윅껀": 10932,
      "윅꼿": 10933,
      "윅옹": 10934,
      "윅쮜": 10935,
      "윅찢": 10936,
      "윈뉘": 10937,
      "윈떠": 10938,
      "윈청": 10939,
      "윌랏": 10940,
      "윌룬": 10941,
      "윌뵨": 10942,
      "윌빤": 10943,
      "윌졍": 10944,
      "윌헹": 10945,
      "윕꾸": 10946,
      "윕닌": 10947,
      "윕닒": 10948,
      "윕뷸": 10949,
      "윕옹": 10950,
      "윕펀": 10951,
      "윕픈": 10952,
      "윕니따": 10953,
      "윕닢타": 10954,
      "윕니타": 10955,
      "윕닛따": 10956,
      "윗썅": 10957,
      "윗썩": 10958,
      "윗썰": 10959,
      "윗엿": 10960,
      "윗옹": 10961,
      "윗움": 10962,
      "윗음": 10963,
      "윗충": 10964,
      "윗한": 10965,
      "윤헹": 10966,
      "윳수": 10967,
      "윳썬": 10968,
      "은뉘": 10969,
      "을롯": 10970,
      "읓면": 10971,
      "의샤": 10972,
      "이용": 10973,
      "익갸": 10974,
      "익컨": 10975,
      "인운": 10976,
      "읽랏": 10977,
      "읾머": 10978,
      "읾뮈": 10979,
      "잃딴": 10980,
      "잃려": 10981,
      "잃한": 10982,
      "임랗": 10983,
      "입눈": 10984,
      "잇읊": 10985,
      "잇음": 10986,
      "잇엿써": 10987,
      "있랴": 10988,
      "있쑴": 10989,
      "있엌": 10990,
      "있을": 10991,
      "있숩뉘댜": 10992,
      "있씁뉘타": 10993,
      "잊슬": 10994,
      "잊썬": 10995,
      "잊없": 10996,
      "잊쥐": 10997,
      "잊텨": 10998,
      "잊쥐많": 10999,
      "잊움먼": 11000,
      "잎닐": 11001,
      "잎붊": 11002,
      "잎뻔": 11003,
      "잎쿠": 11004,
      "잎텨": 11005,
      "잎닉따": 11006,
      "잖눈": 11007,
      "잚옻": 11008,
      "장닒": 11009,
      "쟈뤼": 11010,
      "쟈언": 11011,
      "쟉귀": 11012,
      "쟉키": 11013,
      "쟉통": 11014,
      "쟘욧": 11015,
      "쟝빤": 11016,
      "쟝쏘": 11017,
      "저오": 11018,
      "적귄": 11019,
      "적울료": 11020,
      "전활": 11021,
      "젊태": 11022,
      "젝캬": 11023,
      "젭빵뮨": 11024,
      "져녘": 11025,
      "졀렴한": 11026,
      "졍톰": 11027,
      "족씩": 11028,
      "졸쉭": 11029,
      "졺명": 11030,
      "좋굔": 11031,
      "좋꼭": 11032,
      "좋닥": 11033,
      "좋얗": 11034,
      "좋윌": 11035,
      "좋콥": 11036,
      "좋후": 11037,
      "좋넥오": 11038,
      "죠흠": 11039,
      "죡껀": 11040,
      "중앙": 11041,
      "중한": 11042,
      "쥐교": 11043,
      "쥑만": 11044,
      "쥔쉼": 11045,
      "쥔쨩": 11046,
      "쥣많": 11047,
      "쥬챰": 11048,
      "쥰는": 11049,
      "쥼먈": 11050,
      "질만": 11051,
      "짖만": 11052,
      "짙만": 11053,
      "짚만": 11054,
      "짜단": 11055,
      "짝꼬": 11056,
      "짢는": 11057,
      "짤못": 11058,
      "짬만": 11059,
      "짬칸": 11060,
      "짱또": 11061,
      "짱웨": 11062,
      "짹읾": 11063,
      "쨔뤼": 11064,
      "쩌뮈": 11065,
      "쩍은": 11066,
      "쩐냘": 11067,
      "쩐판": 11068,
      "쩐확": 11069,
      "쩔태": 11070,
      "쩡샹": 11071,
      "쩡솝": 11072,
      "쩡송": 11073,
      "쩡쏢": 11074,
      "쩡쩡": 11075,
      "쩡쵸": 11076,
      "쩡톰": 11077,
      "쩨콩": 11078,
      "쪼큼": 11079,
      "쪼함": 11080,
      "쫍운": 11081,
      "쫴쿄": 11082,
      "쬐곤": 11083,
      "쭈눈": 11084,
      "쭈찾쟝": 11085,
      "쭉카": 11086,
      "쭌눈": 11087,
      "쭝에": 11088,
      "쭝오": 11089,
      "쭤셔": 11090,
      "쮜약": 11091,
      "쮜항": 11092,
      "쮸역": 11093,
      "쯩갼": 11094,
      "쯩운": 11095,
      "찌룰": 11096,
      "찌헤": 11097,
      "찍는": 11098,
      "찍캬": 11099,
      "찐쉼": 11100,
      "찔를": 11101,
      "찜댐": 11102,
      "찜쉴": 11103,
      "찜큐": 11104,
      "찝찝": 11105,
      "찢쏠": 11106,
      "착은": 11107,
      "착코": 11108,
      "찬는": 11109,
      "찰료": 11110,
      "찰뤼": 11111,
[...]
