{
  "version": "1.0",
  "truncation": null,
  "padding": null,
  "added_tokens": [
    {
      "id": 0,
      "content": "<pad>",
      "single_word": false,
      "lstrip": false,
      "rstrip": false,
      "normalized": false,
      "special": true
    },
    {
      "id": 1,
      "content": "<unk>",
      "single_word": false,
      "lstrip": false,
      "rstrip": false,
      "normalized": false,
      "special": true
    },
    {
      "id": 2,
      "content": "<bos>",
      "single_word": false,
      "lstrip": false,
      "rstrip": false,
      "normalized": false,
      "special": true
    },
    {
      "id": 3,
      "content": "<eos>",
      "single_word": false,
      "lstrip": false,
      "rstrip": false,
      "normalized": false,
      "special": true
    },
    {
      "id": 4,
      "content": "<mask>",
      "single_word": false,
      "lstrip": false,
      "rstrip": false,
      "normalized": false,
      "special": true
    }
  ],
  "normalizer": null,
  "pre_tokenizer": {
    "type": "Whitespace"
  },
  "post_processor": null,
  "decoder": null,
  "model": {
    "type": "BPE",
    "dropout": null,
    "unk_token": null,
    "continuing_subword_prefix": null,
    "end_of_word_suffix": null,
    "fuse_unk": false,
    "byte_fallback": false,
    "ignore_merges": false,
    "vocab": {
      "<pad>": 0,
      "<unk>": 1,
      "<bos>": 2,
      "<eos>": 3,
      "<mask>": 4,
      "!": 5,
      "\"": 6,
      "#": 7,
      "%": 8,
      "&": 9,
      "'": 10,
      "(": 11,
      ")": 12,
      "*": 13,
      "+": 14,
      "-": 15,
      ".": 16,
      "/": 17,
      "0": 18,
      "1": 19,
      "2": 20,
      "3": 21,
      "4": 22,
      "5": 23,
      "6": 24,
      "7": 25,
      "8": 26,
      "9": 27,
      ":": 28,
      ";": 29,
      "<": 30,
      "=": 31,
      ">": 32,
      "?": 33,
      "@": 34,
      "A": 35,
      "B": 36,
      "C": 37,
      "D": 38,
      "E": 39,
      "F": 40,
      "G": 41,
      "H": 42,
      "I": 43,
      "J": 44,
      "K": 45,
      "L": 46,
      "M": 47,
      "N": 48,
      "O": 49,
      "P": 50,
      "Q": 51,
      "R": 52,
      "S": 53,
      "T": 54,
      "U": 55,
      "V": 56,
      "W": 57,
      "X": 58,
      "Y": 59,
      "Z": 60,
      "[": 61,
      "]": 62,
      "^": 63,
      "_": 64,
      "`": 65,
      "a": 66,
      "b": 67,
      "c": 68,
      "d": 69,
      "e": 70,
      "f": 71,
      "g": 72,
      "h": 73,
      "i": 74,
      "j": 75,
      "k": 76,
      "l": 77,
      "m": 78,
      "n": 79,
      "o": 80,
      "p": 81,
      "r": 82,
      "s": 83,
      "t": 84,
      "u": 85,
      "v": 86,
      "w": 87,
      "x": 88,
      "y": 89,
      "z": 90,
      "{": 91,
      "|": 92,
      "}": 93,
      "~": 94,
      "°": 95,
      "´": 96,
      "·": 97,
      "×": 98,
      "˂": 99,
      "˃": 100,
      "̈": 101,
      "̑": 102,
      "̣": 103,
      "̥": 104,
      "̫": 105,
      "̴": 106,
      "̵": 107,
      "̶": 108,
      "̷": 109,
      "͈": 110,
      "д": 111,
      "и": 112,
      "к": 113,
      "п": 114,
      "р": 115,
      "у": 116,
      "ࡇ": 117,
      "ෆ": 118,
      "๑": 119,
      "ღ": 120,
      "ᆢ": 121,
      "ᐟ": 122,
      "ᴗ": 123,
      "ᵒ": 124,
      "—": 125,
      "‘": 126,
      "’": 127,
      "“": 128,
      "”": 129,
      "•": 130,
      "…": 131,
      "‧": 132,
      "‿": 133,
      "⁺": 134,
      "₩": 135,
      "→": 136,
      "■": 137,
      "▽": 138,
      "○": 139,
      "●": 140,
      "◟": 141,
      "◠": 142,
      "◡": 143,
      "★": 144,
      "☆": 145,
      "☜": 146,
      "☞": 147,
      "♡": 148,
      "♩": 149,
      "♪": 150,
      "ㄱ": 151,
      "ㄴ": 152,
      "ㄷ": 153,
      "ㄹ": 154,
      "ㅁ": 155,
      "ㅂ": 156,
      "ㅅ": 157,
      "ㅆ": 158,
      "ㅇ": 159,
      "ㅈ": 160,
      "ㅉ": 161,
      "ㅊ": 162,
      "ㅋ": 163,
      "ㅌ": 164,
      "ㅍ": 165,
      "ㅎ": 166,
      "ㅏ": 167,
      "ㅒ": 168,
      "ㅗ": 169,
      "ㅜ": 170,
      "ㅠ": 171,
      "ㅡ": 172,
      "ㆍ": 173,
      "前": 174,
      "가": 175,
      "각": 176,
      "간": 177,
      "갇": 178,
      "갈": 179,
      "갉": 180,
      "갊": 181,
      "감": 182,
      "갑": 183,
      "값": 184,
      "갓": 185,
      "갔": 186,
      "강": 187,
      "갖": 188,
      "갗": 189,
      "같": 190,
      "갚": 191,
      "갛": 192,
      "개": 193,
      "객": 194,
      "갠": 195,
      "갤": 196,
      "갬": 197,
      "갭": 198,
      "갯": 199,
      "갰": 200,
      "갱": 201,
      "갸": 202,
      "갹": 203,
      "갼": 204,
      "걀": 205,
      "걋": 206,
      "걍": 207,
      "걔": 208,
      "걘": 209,
      "걜": 210,
      "거": 211,
      "걱": 212,
      "건": 213,
      "걷": 214,
      "걸": 215,
      "걺": 216,
      "검": 217,
      "겁": 218,
      "것": 219,
      "겄": 220,
      "겅": 221,
      "겆": 222,
      "겉": 223,
      "겊": 224,
      "겋": 225,
      "게": 226,
      "겍": 227,
      "겐": 228,
      "겔": 229,
      "겜": 230,
      "겝": 231,
      "겟": 232,
      "겠": 233,
      "겡": 234,
      "겨": 235,
      "격": 236,
      "겪": 237,
      "견": 238,
      "겯": 239,
      "결": 240,
      "겸": 241,
      "겹": 242,
      "겻": 243,
      "겼": 244,
      "경": 245,
      "곁": 246,
      "계": 247,
      "곈": 248,
      "곌": 249,
      "곕": 250,
      "곗": 251,
      "고": 252,
      "곡": 253,
      "곤": 254,
      "곧": 255,
      "골": 256,
      "곪": 257,
      "곬": 258,
      "곯": 259,
      "곰": 260,
      "곱": 261,
      "곳": 262,
      "공": 263,
      "곶": 264,
      "과": 265,
      "곽": 266,
      "관": 267,
      "괄": 268,
      "괆": 269,
      "괌": 270,
      "괍": 271,
      "괏": 272,
      "광": 273,
      "괘": 274,
      "괜": 275,
      "괭": 276,
      "괴": 277,
      "괸": 278,
      "괼": 279,
      "굅": 280,
      "굉": 281,
      "교": 282,
      "굔": 283,
      "굘": 284,
      "굡": 285,
      "굣": 286,
      "구": 287,
      "국": 288,
      "군": 289,
      "굳": 290,
      "굴": 291,
      "굵": 292,
      "굶": 293,
      "굻": 294,
      "굼": 295,
      "굽": 296,
      "굿": 297,
      "궁": 298,
      "궂": 299,
      "궈": 300,
      "권": 301,
      "궐": 302,
      "궝": 303,
      "궤": 304,
      "궷": 305,
      "궹": 306,
      "귀": 307,
      "귁": 308,
      "귄": 309,
      "귈": 310,
      "귐": 311,
      "귑": 312,
      "귓": 313,
      "귕": 314,
      "규": 315,
      "균": 316,
      "귤": 317,
      "귬": 318,
      "그": 319,
      "극": 320,
      "근": 321,
      "귿": 322,
      "글": 323,
      "긁": 324,
      "금": 325,
      "급": 326,
      "긋": 327,
      "긍": 328,
      "긔": 329,
      "기": 330,
      "긱": 331,
      "긴": 332,
      "긷": 333,
      "길": 334,
      "긺": 335,
      "김": 336,
      "깁": 337,
      "깃": 338,
      "깅": 339,
      "깆": 340,
      "깊": 341,
      "까": 342,
      "깍": 343,
      "깎": 344,
      "깐": 345,
      "깔": 346,
      "깖": 347,
      "깜": 348,
      "깝": 349,
      "깟": 350,
      "깠": 351,
      "깡": 352,
      "깥": 353,
      "깨": 354,
      "깩": 355,
      "깬": 356,
      "깰": 357,
      "깸": 358,
      "깹": 359,
      "깻": 360,
      "깼": 361,
      "깽": 362,
      "깿": 363,
      "꺁": 364,
      "꺃": 365,
      "꺄": 366,
      "꺅": 367,
      "꺈": 368,
      "꺌": 369,
      "꺝": 370,
      "꺼": 371,
      "꺽": 372,
      "꺾": 373,
      "껀": 374,
      "껄": 375,
      "껆": 376,
      "껌": 377,
      "껍": 378,
      "껏": 379,
      "껐": 380,
      "껑": 381,
      "껕": 382,
      "께": 383,
      "껙": 384,
      "껜": 385,
      "껠": 386,
      "껨": 387,
      "껫": 388,
      "껭": 389,
      "껱": 390,
      "껴": 391,
      "껵": 392,
      "껸": 393,
      "껼": 394,
      "꼇": 395,
      "꼈": 396,
      "꼋": 397,
      "꼍": 398,
      "꼐": 399,
      "꼬": 400,
      "꼭": 401,
      "꼰": 402,
      "꼲": 403,
      "꼴": 404,
      "꼼": 405,
      "꼽": 406,
      "꼿": 407,
      "꽁": 408,
      "꽂": 409,
      "꽃": 410,
      "꽈": 411,
      "꽉": 412,
      "꽌": 413,
      "꽐": 414,
      "꽜": 415,
      "꽝": 416,
      "꽟": 417,
      "꽡": 418,
      "꽤": 419,
      "꽥": 420,
      "꽨": 421,
      "꽪": 422,
      "꽬": 423,
      "꽴": 424,
      "꽵": 425,
      "꽷": 426,
      "꽹": 427,
      "꽺": 428,
      "꽻": 429,
      "꾀": 430,
      "꾄": 431,
      "꾈": 432,
      "꾐": 433,
      "꾕": 434,
      "꾜": 435,
      "꾸": 436,
      "꾹": 437,
      "꾼": 438,
      "꿀": 439,
      "꿇": 440,
      "꿈": 441,
      "꿉": 442,
      "꿋": 443,
      "꿍": 444,
      "꿎": 445,
      "꿑": 446,
      "꿓": 447,
      "꿔": 448,
      "꿘": 449,
      "꿜": 450,
      "꿨": 451,
      "꿩": 452,
      "꿫": 453,
      "꿰": 454,
      "꿱": 455,
      "꿴": 456,
      "꿸": 457,
      "뀀": 458,
      "뀁": 459,
      "뀄": 460,
      "뀇": 461,
      "뀉": 462,
      "뀋": 463,
      "뀌": 464,
      "뀐": 465,
      "뀔": 466,
      "뀜": 467,
      "뀝": 468,
      "뀧": 469,
      "뀨": 470,
      "끄": 471,
      "끅": 472,
      "끈": 473,
      "끊": 474,
      "끌": 475,
      "끎": 476,
      "끓": 477,
      "끔": 478,
      "끕": 479,
      "끗": 480,
      "끙": 481,
      "끝": 482,
      "끟": 483,
      "끼": 484,
      "끽": 485,
      "낀": 486,
      "낄": 487,
      "낌": 488,
      "낍": 489,
      "낏": 490,
      "낑": 491,
      "낕": 492,
      "낗": 493,
      "나": 494,
      "낙": 495,
      "낚": 496,
      "난": 497,
      "낟": 498,
      "날": 499,
      "낡": 500,
      "낢": 501,
      "남": 502,
      "납": 503,
      "낫": 504,
      "났": 505,
      "낭": 506,
      "낮": 507,
      "낯": 508,
      "낱": 509,
      "낲": 510,
      "낳": 511,
      "내": 512,
      "낵": 513,
      "낸": 514,
      "낼": 515,
      "냄": 516,
      "냅": 517,
      "냇": 518,
      "냈": 519,
      "냉": 520,
      "냐": 521,
      "냑": 522,
      "냔": 523,
      "냘": 524,
      "냠": 525,
      "냣": 526,
      "냥": 527,
      "너": 528,
      "넉": 529,
      "넋": 530,
      "넌": 531,
      "널": 532,
      "넒": 533,
      "넓": 534,
      "넘": 535,
      "넙": 536,
      "넛": 537,
      "넜": 538,
      "넝": 539,
      "넣": 540,
      "네": 541,
      "넥": 542,
      "넨": 543,
      "넬": 544,
      "넴": 545,
      "넵": 546,
      "넷": 547,
      "넸": 548,
      "넹": 549,
      "녀": 550,
      "녁": 551,
      "년": 552,
      "녈": 553,
      "념": 554,
      "녑": 555,
      "녓": 556,
      "녔": 557,
      "녕": 558,
      "녘": 559,
      "녜": 560,
      "녠": 561,
      "녭": 562,
      "녯": 563,
      "노": 564,
      "녹": 565,
      "논": 566,
      "놀": 567,
      "놂": 568,
      "놈": 569,
      "놉": 570,
      "놋": 571,
      "농": 572,
      "높": 573,
      "놓": 574,
      "놔": 575,
      "놘": 576,
      "놜": 577,
      "놨": 578,
      "뇌": 579,
      "뇟": 580,
      "뇨": 581,
      "뇩": 582,
      "뇬": 583,
      "뇰": 584,
      "뇹": 585,
      "뇻": 586,
      "뇽": 587,
      "누": 588,
      "눅": 589,
      "눈": 590,
      "눋": 591,
      "눌": 592,
      "눔": 593,
      "눕": 594,
      "눗": 595,
      "눙": 596,
      "눠": 597,
      "눴": 598,
      "눼": 599,
      "뉘": 600,
      "뉙": 601,
      "뉜": 602,
      "뉠": 603,
      "뉨": 604,
      "뉩": 605,
      "뉫": 606,
      "뉭": 607,
      "뉴": 608,
      "뉵": 609,
      "뉸": 610,
      "뉼": 611,
      "늄": 612,
      "늅": 613,
      "늇": 614,
      "늉": 615,
      "느": 616,
      "늑": 617,
      "는": 618,
      "늘": 619,
      "늙": 620,
      "늚": 621,
      "늠": 622,
      "늡": 623,
      "늣": 624,
      "능": 625,
      "늦": 626,
      "늩": 627,
      "늪": 628,
      "늬": 629,
      "늰": 630,
      "늴": 631,
      "니": 632,
      "닉": 633,
      "닌": 634,
      "닐": 635,
      "닒": 636,
      "님": 637,
      "닙": 638,
      "닛": 639,
      "닝": 640,
      "닢": 641,
      "다": 642,
      "닥": 643,
      "닦": 644,
      "단": 645,
      "닫": 646,
      "달": 647,
      "닭": 648,
      "닮": 649,
      "닯": 650,
      "닳": 651,
      "담": 652,
      "답": 653,
      "닷": 654,
      "닸": 655,
      "당": 656,
      "닺": 657,
      "닻": 658,
      "닾": 659,
      "닿": 660,
      "대": 661,
      "댁": 662,
      "댄": 663,
      "댈": 664,
      "댐": 665,
      "댑": 666,
      "댓": 667,
      "댔": 668,
      "댕": 669,
      "댗": 670,
      "댙": 671,
      "댛": 672,
      "댜": 673,
      "더": 674,
      "덕": 675,
      "덖": 676,
      "던": 677,
      "덛": 678,
      "덜": 679,
      "덝": 680,
      "덞": 681,
      "덟": 682,
      "덣": 683,
      "덤": 684,
      "덥": 685,
      "덧": 686,
      "덨": 687,
      "덩": 688,
      "덪": 689,
      "덫": 690,
      "덮": 691,
      "덯": 692,
      "데": 693,
      "덱": 694,
      "덴": 695,
      "델": 696,
      "뎀": 697,
      "뎁": 698,
      "뎃": 699,
      "뎄": 700,
      "뎅": 701,
      "뎇": 702,
      "뎉": 703,
      "뎋": 704,
      "뎌": 705,
      "뎐": 706,
      "뎔": 707,
      "뎠": 708,
      "뎡": 709,
      "뎣": 710,
      "뎨": 711,
      "뎬": 712,
      "뎰": 713,
      "도": 714,
      "독": 715,
      "돈": 716,
      "돋": 717,
      "돌": 718,
      "돎": 719,
      "돐": 720,
      "돔": 721,
      "돕": 722,
      "돗": 723,
      "돘": 724,
      "동": 725,
      "돛": 726,
      "돝": 727,
      "돼": 728,
      "돽": 729,
      "됀": 730,
      "됃": 731,
      "됄": 732,
      "됆": 733,
      "됈": 734,
      "됌": 735,
      "됍": 736,
      "됏": 737,
      "됐": 738,
      "됑": 739,
      "됓": 740,
      "됕": 741,
      "되": 742,
      "된": 743,
      "될": 744,
      "됨": 745,
      "됩": 746,
      "됫": 747,
      "됳": 748,
      "됴": 749,
      "두": 750,
      "둑": 751,
      "둔": 752,
      "둘": 753,
      "둠": 754,
      "둡": 755,
      "둣": 756,
      "둥": 757,
      "둩": 758,
      "둫": 759,
      "뒈": 760,
      "뒝": 761,
      "뒤": 762,
      "뒨": 763,
      "뒬": 764,
      "뒵": 765,
      "뒷": 766,
      "뒹": 767,
      "뒿": 768,
      "듀": 769,
      "듄": 770,
      "듈": 771,
      "듐": 772,
      "듕": 773,
      "드": 774,
      "득": 775,
      "든": 776,
      "듣": 777,
      "들": 778,
      "듦": 779,
      "듬": 780,
      "듭": 781,
      "듯": 782,
      "등": 783,
      "듵": 784,
      "듷": 785,
      "디": 786,
      "딕": 787,
      "딘": 788,
      "딛": 789,
      "딜": 790,
      "딤": 791,
      "딥": 792,
      "딧": 793,
      "딨": 794,
      "딩": 795,
      "딪": 796,
      "딫": 797,
      "딭": 798,
      "딯": 799,
      "따": 800,
      "딱": 801,
      "딴": 802,
      "딸": 803,
      "딺": 804,
      "딻": 805,
      "땀": 806,
      "땁": 807,
      "땃": 808,
      "땄": 809,
      "땅": 810,
      "땋": 811,
      "때": 812,
      "땍": 813,
      "땐": 814,
      "땔": 815,
      "땜": 816,
      "땝": 817,
      "땟": 818,
      "땠": 819,
      "땡": 820,
      "땣": 821,
      "땥": 822,
      "땧": 823,
      "떠": 824,
      "떡": 825,
      "떤": 826,
      "떨": 827,
      "떪": 828,
      "떫": 829,
      "떰": 830,
      "떱": 831,
      "떳": 832,
      "떴": 833,
      "떵": 834,
      "떻": 835,
      "떼": 836,
      "떽": 837,
      "뗀": 838,
      "뗄": 839,
      "뗌": 840,
      "뗍": 841,
      "뗏": 842,
      "뗐": 843,
      "뗑": 844,
      "뗓": 845,
      "뗕": 846,
      "뗗": 847,
      "뗘": 848,
      "뗬": 849,
      "뗯": 850,
      "또": 851,
      "똑": 852,
      "똔": 853,
      "똘": 854,
      "똥": 855,
      "똭": 856,
      "뙅": 857,
      "뙇": 858,
      "뙈": 859,
      "뙉": 860,
      "뙌": 861,
      "뙐": 862,
      "뙝": 863,
      "뙤": 864,
      "뙨": 865,
      "뙬": 866,
      "뚜": 867,
      "뚝": 868,
      "뚠": 869,
      "뚤": 870,
      "뚫": 871,
      "뚬": 872,
      "뚱": 873,
      "뚵": 874,
      "뛔": 875,
      "뛰": 876,
      "뛴": 877,
      "뛸": 878,
      "뜀": 879,
      "뜁": 880,
      "뜅": 881,
      "뜋": 882,
      "뜨": 883,
      "뜩": 884,
      "뜬": 885,
      "뜯": 886,
      "뜰": 887,
      "뜸": 888,
      "뜹": 889,
      "뜻": 890,
      "띁": 891,
      "띃": 892,
      "띈": 893,
      "띌": 894,
      "띠": 895,
      "띤": 896,
      "띨": 897,
      "띰": 898,
      "띱": 899,
      "띳": 900,
      "띵": 901,
      "띻": 902,
      "라": 903,
      "락": 904,
      "띾": 905,
      "란": 906,
      "랃": 907,
      "랄": 908,
      "랅": 909,
      "랆": 910,
      "람": 911,
      "랍": 912,
      "랏": 913,
      "랐": 914,
      "랑": 915,
      "랒": 916,
      "랓": 917,
      "랕": 918,
      "랖": 919,
      "랗": 920,
      "래": 921,
      "랙": 922,
      "랜": 923,
      "랠": 924,
      "램": 925,
      "랩": 926,
      "랫": 927,
      "랬": 928,
      "랭": 929,
      "랴": 930,
      "략": 931,
      "랸": 932,
      "랼": 933,
      "럄": 934,
      "럇": 935,
      "량": 936,
      "러": 937,
      "럭": 938,
      "럯": 939,
      "런": 940,
      "럴": 941,
      "럶": 942,
      "럷": 943,
      "럼": 944,
      "럽": 945,
      "럿": 946,
      "렀": 947,
      "렁": 948,
      "렇": 949,
      "레": 950,
      "렉": 951,
      "렌": 952,
      "렐": 953,
      "렘": 954,
      "렙": 955,
      "렛": 956,
      "렜": 957,
      "렝": 958,
      "려": 959,
      "력": 960,
      "련": 961,
      "렬": 962,
      "렴": 963,
      "렵": 964,
      "렷": 965,
      "렸": 966,
      "령": 967,
      "렼": 968,
      "례": 969,
      "롄": 970,
      "롑": 971,
      "롓": 972,
      "로": 973,
      "록": 974,
      "론": 975,
      "롤": 976,
      "롦": 977,
      "롬": 978,
      "롭": 979,
      "롯": 980,
      "롱": 981,
      "롶": 982,
      "롷": 983,
      "롸": 984,
      "롼": 985,
      "뢀": 986,
      "뢌": 987,
      "뢍": 988,
      "뢰": 989,
      "뢴": 990,
      "룃": 991,
      "료": 992,
      "룍": 993,
      "룐": 994,
      "룔": 995,
      "룝": 996,
      "룟": 997,
      "룡": 998,
      "루": 999,
      "룩": 1000,
      "룬": 1001,
      "룯": 1002,
      "룰": 1003,
      "룸": 1004,
      "룹": 1005,
      "룻": 1006,
      "룽": 1007,
      "뤄": 1008,
      "뤘": 1009,
      "뤠": 1010,
      "뤼": 1011,
      "뤽": 1012,
      "륀": 1013,
      "륄": 1014,
      "륌": 1015,
      "륍": 1016,
      "륏": 1017,
      "륑": 1018,
      "류": 1019,
      "륙": 1020,
      "륜": 1021,
      "률": 1022,
      "륨": 1023,
      "륩": 1024,
      "륫": 1025,
      "륭": 1026,
      "르": 1027,
      "륵": 1028,
      "른": 1029,
      "를": 1030,
      "륽": 1031,
      "륾": 1032,
      "름": 1033,
      "릅": 1034,
      "릇": 1035,
      "릉": 1036,
      "릊": 1037,
      "릍": 1038,
      "릎": 1039,
      "릐": 1040,
      "릔": 1041,
      "릘": 1042,
      "리": 1043,
      "릭": 1044,
      "린": 1045,
      "릴": 1046,
      "릶": 1047,
      "림": 1048,
      "립": 1049,
      "릿": 1050,
      "링": 1051,
      "맆": 1052,
      "마": 1053,
      "막": 1054,
      "만": 1055,
      "많": 1056,
      "맏": 1057,
      "말": 1058,
      "맑": 1059,
      "맒": 1060,
      "맘": 1061,
      "맙": 1062,
      "맛": 1063,
      "망": 1064,
      "맞": 1065,
      "맡": 1066,
      "맣": 1067,
      "매": 1068,
      "맥": 1069,
      "맨": 1070,
      "맬": 1071,
      "맴": 1072,
      "맵": 1073,
      "맷": 1074,
      "맸": 1075,
      "맹": 1076,
      "맺": 1077,
      "맻": 1078,
      "맽": 1079,
      "맿": 1080,
      "먀": 1081,
      "먁": 1082,
      "먄": 1083,
      "먈": 1084,
      "먕": 1085,
      "먙": 1086,
      "머": 1087,
      "먹": 1088,
      "먼": 1089,
      "먾": 1090,
      "먿": 1091,
      "멀": 1092,
      "멁": 1093,
      "멂": 1094,
      "멈": 1095,
      "멉": 1096,
      "멋": 1097,
      "멍": 1098,
      "멎": 1099,
      "멑": 1100,
      "멓": 1101,
      "메": 1102,
      "멕": 1103,
      "멘": 1104,
      "멜": 1105,
      "멤": 1106,
      "멥": 1107,
      "멧": 1108,
      "멨": 1109,
      "멩": 1110,
      "멫": 1111,
      "멭": 1112,
      "멯": 1113,
      "며": 1114,
      "멱": 1115,
      "면": 1116,
      "멸": 1117,
      "몃": 1118,
      "몄": 1119,
      "명": 1120,
      "몇": 1121,
      "몉": 1122,
      "몌": 1123,
      "모": 1124,
      "목": 1125,
      "몫": 1126,
      "몬": 1127,
      "몰": 1128,
      "몲": 1129,
      "몸": 1130,
      "몹": 1131,
      "못": 1132,
      "몽": 1133,
      "뫠": 1134,
      "뫡": 1135,
      "뫣": 1136,
      "뫤": 1137,
      "뫨": 1138,
      "뫪": 1139,
      "뫰": 1140,
      "뫱": 1141,
      "뫳": 1142,
      "뫵": 1143,
      "묘": 1144,
      "묜": 1145,
      "묠": 1146,
      "묩": 1147,
      "묫": 1148,
      "묳": 1149,
      "무": 1150,
      "묵": 1151,
      "묶": 1152,
      "문": 1153,
      "묻": 1154,
      "물": 1155,
      "묽": 1156,
      "묾": 1157,
      "뭄": 1158,
      "뭅": 1159,
      "뭇": 1160,
      "뭉": 1161,
      "뭍": 1162,
      "뭏": 1163,
      "뭐": 1164,
      "뭔": 1165,
      "뭘": 1166,
      "뭡": 1167,
      "뭣": 1168,
      "뭫": 1169,
      "뭬": 1170,
      "뮈": 1171,
      "뮌": 1172,
      "뮐": 1173,
      "뮤": 1174,
      "뮨": 1175,
      "뮬": 1176,
      "뮴": 1177,
      "뮷": 1178,
      "므": 1179,
      "믄": 1180,
      "믈": 1181,
      "믐": 1182,
      "믓": 1183,
      "미": 1184,
      "믹": 1185,
      "민": 1186,
      "믿": 1187,
      "밀": 1188,
      "밂": 1189,
      "밈": 1190,
      "밉": 1191,
      "밋": 1192,
      "밌": 1193,
      "밍": 1194,
      "및": 1195,
      "밑": 1196,
      "밓": 1197,
      "바": 1198,
      "박": 1199,
      "밖": 1200,
      "밗": 1201,
      "반": 1202,
      "받": 1203,
      "발": 1204,
      "밝": 1205,
      "밞": 1206,
      "밟": 1207,
      "밤": 1208,
      "밥": 1209,
      "밧": 1210,
      "밨": 1211,
      "방": 1212,
      "밭": 1213,
      "배": 1214,
      "백": 1215,
      "밴": 1216,
      "밸": 1217,
      "뱀": 1218,
      "뱁": 1219,
      "뱃": 1220,
      "뱄": 1221,
      "뱅": 1222,
      "뱉": 1223,
      "뱌": 1224,
      "뱍": 1225,
      "뱐": 1226,
      "뱝": 1227,
      "버": 1228,
      "벅": 1229,
      "번": 1230,
      "벋": 1231,
      "벌": 1232,
      "벎": 1233,
      "범": 1234,
      "법": 1235,
      "벗": 1236,
      "벘": 1237,
      "벙": 1238,
      "벚": 1239,
      "베": 1240,
      "벡": 1241,
      "벤": 1242,
      "벧": 1243,
      "벨": 1244,
      "벰": 1245,
      "벱": 1246,
      "벳": 1247,
      "벴": 1248,
      "벵": 1249,
      "벼": 1250,
      "벽": 1251,
      "변": 1252,
      "별": 1253,
      "볌": 1254,
      "볍": 1255,
      "볏": 1256,
      "볐": 1257,
      "병": 1258,
      "볕": 1259,
      "볘": 1260,
      "볜": 1261,
      "볠": 1262,
      "볩": 1263,
      "볫": 1264,
      "보": 1265,
      "복": 1266,
      "볶": 1267,
      "본": 1268,
      "볼": 1269,
      "봄": 1270,
      "봅": 1271,
      "봇": 1272,
      "봉": 1273,
      "봐": 1274,
      "봔": 1275,
      "봤": 1276,
      "봥": 1277,
      "뵀": 1278,
      "뵐": 1279,
      "뵙": 1280,
      "뵤": 1281,
      "뵨": 1282,
      "뵬": 1283,
      "뵵": 1284,
      "뵷": 1285,
      "부": 1286,
      "북": 1287,
      "분": 1288,
      "붇": 1289,
      "불": 1290,
      "붉": 1291,
      "붊": 1292,
      "붐": 1293,
      "붑": 1294,
      "붓": 1295,
      "붕": 1296,
      "붙": 1297,
      "붚": 1298,
      "붸": 1299,
      "뷔": 1300,
      "뷕": 1301,
      "뷘": 1302,
      "뷜": 1303,
      "뷤": 1304,
      "뷧": 1305,
      "뷩": 1306,
      "뷰": 1307,
      "뷴": 1308,
      "뷸": 1309,
      "븀": 1310,
      "븃": 1311,
      "븅": 1312,
      "브": 1313,
      "븍": 1314,
      "븐": 1315,
      "블": 1316,
      "븜": 1317,
      "븝": 1318,
      "븟": 1319,
      "비": 1320,
      "빅": 1321,
      "빈": 1322,
      "빌": 1323,
      "빎": 1324,
      "빔": 1325,
      "빕": 1326,
      "빗": 1327,
      "빙": 1328,
      "빚": 1329,
      "빛": 1330,
      "빠": 1331,
      "빡": 1332,
      "빤": 1333,
      "빧": 1334,
      "빨": 1335,
      "빪": 1336,
      "빰": 1337,
      "빱": 1338,
      "빳": 1339,
      "빴": 1340,
      "빵": 1341,
      "빻": 1342,
      "빼": 1343,
      "빽": 1344,
      "뺀": 1345,
      "뺄": 1346,
      "뺌": 1347,
      "뺍": 1348,
      "뺏": 1349,
      "뺐": 1350,
      "뺑": 1351,
      "뺓": 1352,
      "뺕": 1353,
      "뺗": 1354,
      "뺘": 1355,
      "뺙": 1356,
      "뺨": 1357,
      "뺱": 1358,
      "뻐": 1359,
      "뻑": 1360,
      "뻔": 1361,
      "뻗": 1362,
      "뻘": 1363,
      "뻚": 1364,
      "뻠": 1365,
      "뻡": 1366,
      "뻣": 1367,
      "뻤": 1368,
      "뻥": 1369,
      "뻫": 1370,
      "뻬": 1371,
      "뼁": 1372,
      "뼈": 1373,
      "뼉": 1374,
      "뼘": 1375,
      "뼙": 1376,
      "뼛": 1377,
      "뼜": 1378,
      "뼝": 1379,
      "뼟": 1380,
      "뼡": 1381,
      "뼣": 1382,
      "뽀": 1383,
      "뽁": 1384,
      "뽄": 1385,
      "뽈": 1386,
      "뽐": 1387,
      "뽑": 1388,
      "뽕": 1389,
      "뽸": 1390,
      "뽹": 1391,
      "뽼": 1392,
      "뾀": 1393,
      "뾈": 1394,
      "뾉": 1395,
      "뾍": 1396,
      "뾰": 1397,
      "뿅": 1398,
      "뿌": 1399,
      "뿍": 1400,
      "뿐": 1401,
      "뿔": 1402,
      "뿜": 1403,
      "뿟": 1404,
      "뿡": 1405,
      "뿥": 1406,
      "쀼": 1407,
      "쁑": 1408,
      "쁘": 1409,
      "쁜": 1410,
      "쁠": 1411,
      "쁨": 1412,
      "쁩": 1413,
      "쁳": 1414,
      "삐": 1415,
      "삑": 1416,
      "삔": 1417,
      "삘": 1418,
      "삠": 1419,
      "삡": 1420,
      "삣": 1421,
      "삥": 1422,
      "삩": 1423,
      "삫": 1424,
      "사": 1425,
      "삭": 1426,
      "삮": 1427,
      "삯": 1428,
      "산": 1429,
      "삳": 1430,
      "살": 1431,
      "삵": 1432,
      "삶": 1433,
      "삷": 1434,
      "삼": 1435,
      "삽": 1436,
      "삿": 1437,
      "샀": 1438,
      "상": 1439,
      "샅": 1440,
      "샆": 1441,
      "색": 1442,
      "샌": 1443,
      "샐": 1444,
      "샘": 1445,
      "샙": 1446,
      "샛": 1447,
      "샜": 1448,
      "생": 1449,
      "샟": 1450,
      "샡": 1451,
      "샣": 1452,
      "샤": 1453,
      "샥": 1454,
      "샨": 1455,
      "샬": 1456,
      "샴": 1457,
      "샵": 1458,
      "샷": 1459,
      "샹": 1460,
      "샽": 1461,
      "샾": 1462,
      "샿": 1463,
      "섀": 1464,
      "섄": 1465,
      "섈": 1466,
      "섐": 1467,
      "섕": 1468,
      "서": 1469,
      "석": 1470,
      "섞": 1471,
      "섟": 1472,
      "선": 1473,
      "섣": 1474,
      "설": 1475,
      "섥": 1476,
      "섦": 1477,
      "섧": 1478,
      "섬": 1479,
      "섭": 1480,
      "섯": 1481,
      "섰": 1482,
      "성": 1483,
      "섵": 1484,
      "섶": 1485,
      "세": 1486,
      "섹": 1487,
      "센": 1488,
      "셀": 1489,
      "셈": 1490,
      "셉": 1491,
      "셋": 1492,
      "셌": 1493,
      "셍": 1494,
      "셏": 1495,
      "셑": 1496,
      "셓": 1497,
      "셔": 1498,
      "셕": 1499,
      "션": 1500,
      "셜": 1501,
      "셤": 1502,
      "셥": 1503,
      "셧": 1504,
      "셨": 1505,
      "셩": 1506,
      "셫": 1507,
      "셭": 1508,
      "셯": 1509,
      "셰": 1510,
      "셴": 1511,
      "셸": 1512,
      "솅": 1513,
      "소": 1514,
      "속": 1515,
      "솎": 1516,
      "손": 1517,
      "솔": 1518,
      "솖": 1519,
      "솜": 1520,
      "솝": 1521,
      "솟": 1522,
      "송": 1523,
      "솥": 1524,
      "쇄": 1525,
      "쇅": 1526,
      "쇆": 1527,
      "쇈": 1528,
      "쇌": 1529,
      "쇎": 1530,
      "쇔": 1531,
      "쇕": 1532,
      "쇗": 1533,
      "쇘": 1534,
      "쇙": 1535,
      "쇝": 1536,
      "쇠": 1537,
      "쇤": 1538,
      "쇨": 1539,
      "쇱": 1540,
      "쇳": 1541,
      "쇻": 1542,
      "쇼": 1543,
      "쇽": 1544,
      "숀": 1545,
      "숄": 1546,
      "숌": 1547,
      "숍": 1548,
      "숏": 1549,
      "숑": 1550,
      "숕": 1551,
      "숗": 1552,
      "수": 1553,
      "숙": 1554,
      "순": 1555,
      "숟": 1556,
      "술": 1557,
      "숨": 1558,
      "숩": 1559,
      "숫": 1560,
      "숬": 1561,
      "숭": 1562,
      "숯": 1563,
      "숱": 1564,
      "숲": 1565,
      "숳": 1566,
      "쉐": 1567,
      "쉑": 1568,
      "쉔": 1569,
      "쉘": 1570,
      "쉠": 1571,
      "쉥": 1572,
      "쉩": 1573,
      "쉬": 1574,
      "쉭": 1575,
      "쉰": 1576,
      "쉴": 1577,
      "쉼": 1578,
      "쉽": 1579,
      "쉿": 1580,
      "슁": 1581,
      "슅": 1582,
      "슇": 1583,
      "슈": 1584,
      "슉": 1585,
      "슌": 1586,
      "슐": 1587,
      "슘": 1588,
      "슛": 1589,
      "슝": 1590,
      "슡": 1591,
      "스": 1592,
      "슥": 1593,
      "슨": 1594,
      "슬": 1595,
      "슭": 1596,
      "슴": 1597,
      "습": 1598,
      "슷": 1599,
      "승": 1600,
      "슽": 1601,
      "슿": 1602,
      "시": 1603,
      "식": 1604,
      "신": 1605,
      "싣": 1606,
      "실": 1607,
      "싫": 1608,
      "심": 1609,
      "십": 1610,
      "싯": 1611,
      "싱": 1612,
      "싵": 1613,
      "싶": 1614,
      "싷": 1615,
      "싸": 1616,
      "싹": 1617,
      "싻": 1618,
      "싼": 1619,
      "싾": 1620,
      "쌀": 1621,
      "쌃": 1622,
      "쌈": 1623,
      "쌉": 1624,
      "쌋": 1625,
      "쌌": 1626,
      "쌍": 1627,
      "쌓": 1628,
      "쌔": 1629,
      "쌕": 1630,
      "쌘": 1631,
      "쌜": 1632,
      "쌤": 1633,
      "쌥": 1634,
      "쌧": 1635,
      "쌨": 1636,
      "쌩": 1637,
      "쌰": 1638,
      "쌴": 1639,
      "썅": 1640,
      "써": 1641,
      "썩": 1642,
      "썬": 1643,
      "썰": 1644,
      "썲": 1645,
      "썸": 1646,
      "썹": 1647,
      "썻": 1648,
      "썼": 1649,
      "썽": 1650,
      "쎄": 1651,
      "쎈": 1652,
      "쎌": 1653,
      "쎕": 1654,
      "쎙": 1655,
      "쎠": 1656,
      "쎴": 1657,
      "쏀": 1658,
      "쏘": 1659,
      "쏙": 1660,
      "쏜": 1661,
      "쏟": 1662,
      "쏠": 1663,
      "쏢": 1664,
      "쏨": 1665,
      "쏩": 1666,
      "쏫": 1667,
      "쏭": 1668,
      "쏯": 1669,
      "쏵": 1670,
      "쏼": 1671,
      "쐐": 1672,
      "쐤": 1673,
      "쐬": 1674,
      "쐰": 1675,
      "쐴": 1676,
      "쐼": 1677,
      "쐽": 1678,
      "쑈": 1679,
      "쑝": 1680,
      "쑤": 1681,
      "쑥": 1682,
      "쑨": 1683,
      "쑬": 1684,
      "쑴": 1685,
      "쑵": 1686,
      "쑹": 1687,
      "쒀": 1688,
      "쒔": 1689,
      "쒕": 1690,
      "쒜": 1691,
      "쒸": 1692,
      "쒼": 1693,
      "쓔": 1694,
      "쓩": 1695,
      "쓰": 1696,
      "쓱": 1697,
      "쓴": 1698,
      "쓸": 1699,
      "쓺": 1700,
      "쓿": 1701,
      "씀": 1702,
      "씁": 1703,
      "씃": 1704,
      "씅": 1705,
      "씨": 1706,
      "씩": 1707,
      "씬": 1708,
      "씰": 1709,
      "씸": 1710,
      "씹": 1711,
      "씻": 1712,
      "씽": 1713,
      "씾": 1714,
      "앃": 1715,
      "아": 1716,
      "악": 1717,
      "안": 1718,
      "앉": 1719,
      "않": 1720,
      "앋": 1721,
      "알": 1722,
      "앍": 1723,
      "앎": 1724,
      "앓": 1725,
      "암": 1726,
      "압": 1727,
      "앖": 1728,
      "앗": 1729,
      "았": 1730,
      "앙": 1731,
      "앚": 1732,
      "앜": 1733,
      "앝": 1734,
      "앞": 1735,
      "애": 1736,
      "액": 1737,
      "앤": 1738,
      "앨": 1739,
      "앰": 1740,
      "앱": 1741,
      "앳": 1742,
      "앴": 1743,
      "앵": 1744,
      "앷": 1745,
      "앹": 1746,
      "앻": 1747,
      "야": 1748,
      "약": 1749,
      "얀": 1750,
      "얄": 1751,
      "얇": 1752,
      "얌": 1753,
      "얍": 1754,
      "얏": 1755,
      "양": 1756,
      "얕": 1757,
      "얗": 1758,
      "얘": 1759,
      "얜": 1760,
      "얠": 1761,
      "얩": 1762,
      "얳": 1763,
      "어": 1764,
      "억": 1765,
      "언": 1766,
      "얹": 1767,
      "얺": 1768,
      "얻": 1769,
      "얼": 1770,
      "얽": 1771,
      "얾": 1772,
      "엃": 1773,
      "엄": 1774,
      "업": 1775,
      "없": 1776,
      "엇": 1777,
      "었": 1778,
      "엉": 1779,
      "엊": 1780,
      "엌": 1781,
      "엍": 1782,
      "엎": 1783,
      "에": 1784,
      "엑": 1785,
      "엔": 1786,
      "엘": 1787,
      "엠": 1788,
      "엡": 1789,
      "엣": 1790,
      "엥": 1791,
      "엩": 1792,
      "엫": 1793,
      "여": 1794,
      "역": 1795,
      "엮": 1796,
      "연": 1797,
      "열": 1798,
      "엶": 1799,
      "엷": 1800,
      "염": 1801,
      "엽": 1802,
      "엾": 1803,
      "엿": 1804,
      "였": 1805,
      "영": 1806,
      "옃": 1807,
      "옅": 1808,
      "옆": 1809,
      "옇": 1810,
      "예": 1811,
      "옌": 1812,
      "옐": 1813,
      "옘": 1814,
      "옙": 1815,
      "옛": 1816,
      "옜": 1817,
      "옟": 1818,
      "옣": 1819,
      "오": 1820,
      "옥": 1821,
      "온": 1822,
      "올": 1823,
      "옭": 1824,
      "옮": 1825,
      "옰": 1826,
      "옳": 1827,
      "옴": 1828,
      "옵": 1829,
      "옷": 1830,
      "옹": 1831,
      "옻": 1832,
      "와": 1833,
      "왁": 1834,
      "완": 1835,
      "왈": 1836,
      "왐": 1837,
      "왑": 1838,
      "왓": 1839,
      "왔": 1840,
      "왕": 1841,
      "왗": 1842,
      "왙": 1843,
      "왛": 1844,
      "왜": 1845,
      "왝": 1846,
      "왠": 1847,
      "왤": 1848,
      "왥": 1849,
      "왦": 1850,
      "왨": 1851,
      "왫": 1852,
      "왬": 1853,
      "왭": 1854,
      "왯": 1855,
      "왱": 1856,
      "왳": 1857,
      "외": 1858,
      "왹": 1859,
      "왼": 1860,
      "욀": 1861,
      "욈": 1862,
      "욉": 1863,
      "욋": 1864,
      "욍": 1865,
      "욑": 1866,
      "욓": 1867,
      "요": 1868,
      "욕": 1869,
      "욘": 1870,
      "욜": 1871,
      "욤": 1872,
      "욥": 1873,
      "욧": 1874,
      "용": 1875,
      "욭": 1876,
      "욯": 1877,
      "우": 1878,
      "욱": 1879,
      "운": 1880,
      "울": 1881,
      "욹": 1882,
      "욺": 1883,
      "움": 1884,
      "웁": 1885,
      "웃": 1886,
      "웅": 1887,
      "웉": 1888,
      "웋": 1889,
      "워": 1890,
      "웍": 1891,
      "원": 1892,
      "월": 1893,
      "웜": 1894,
      "웝": 1895,
      "웠": 1896,
      "웡": 1897,
      "웣": 1898,
      "웥": 1899,
      "웧": 1900,
      "웨": 1901,
      "웩": 1902,
      "웬": 1903,
      "웰": 1904,
      "웸": 1905,
      "웹": 1906,
      "웽": 1907,
      "윁": 1908,
      "윃": 1909,
      "위": 1910,
      "윅": 1911,
      "윈": 1912,
      "윌": 1913,
      "윔": 1914,
      "윕": 1915,
      "윗": 1916,
      "윙": 1917,
      "윝": 1918,
      "윟": 1919,
      "유": 1920,
      "육": 1921,
      "윤": 1922,
      "율": 1923,
      "윰": 1924,
      "윱": 1925,
      "윳": 1926,
      "윴": 1927,
      "융": 1928,
      "윷": 1929,
      "윹": 1930,
      "윻": 1931,
      "으": 1932,
      "윽": 1933,
      "은": 1934,
      "을": 1935,
      "읊": 1936,
      "음": 1937,
      "읍": 1938,
      "읏": 1939,
      "읐": 1940,
      "응": 1941,
      "읒": 1942,
      "읓": 1943,
      "읔": 1944,
      "읕": 1945,
      "읖": 1946,
      "읗": 1947,
      "의": 1948,
      "읜": 1949,
      "읠": 1950,
      "읨": 1951,
      "읫": 1952,
      "이": 1953,
      "익": 1954,
      "인": 1955,
      "일": 1956,
      "읽": 1957,
      "읾": 1958,
      "잃": 1959,
      "임": 1960,
      "입": 1961,
      "잇": 1962,
      "있": 1963,
      "잉": 1964,
      "잊": 1965,
      "잋": 1966,
      "잍": 1967,
      "잎": 1968,
      "잏": 1969,
      "자": 1970,
      "작": 1971,
      "잔": 1972,
      "잖": 1973,
      "잗": 1974,
      "잘": 1975,
      "잚": 1976,
      "잠": 1977,
      "잡": 1978,
      "잣": 1979,
      "잤": 1980,
      "장": 1981,
      "잦": 1982,
      "재": 1983,
      "잭": 1984,
      "잰": 1985,
      "잴": 1986,
      "잼": 1987,
      "잽": 1988,
      "잿": 1989,
      "쟀": 1990,
      "쟁": 1991,
      "쟅": 1992,
      "쟇": 1993,
      "쟈": 1994,
      "쟉": 1995,
      "쟌": 1996,
      "쟎": 1997,
      "쟐": 1998,
      "쟘": 1999,
      "쟝": 2000,
      "쟡": 2001,
      "쟤": 2002,
      "쟨": 2003,
      "쟬": 2004,
      "저": 2005,
      "적": 2006,
      "전": 2007,
      "젆": 2008,
      "젇": 2009,
      "절": 2010,
      "젊": 2011,
      "점": 2012,
      "접": 2013,
      "젓": 2014,
      "젔": 2015,
      "정": 2016,
      "젖": 2017,
      "제": 2018,
      "젝": 2019,
      "젠": 2020,
      "젤": 2021,
      "젬": 2022,
      "젭": 2023,
      "젯": 2024,
      "젱": 2025,
      "젵": 2026,
      "젷": 2027,
      "져": 2028,
      "젼": 2029,
      "졀": 2030,
      "졈": 2031,
      "졉": 2032,
      "졌": 2033,
      "졍": 2034,
      "졏": 2035,
      "졓": 2036,
      "졔": 2037,
      "조": 2038,
      "족": 2039,
      "존": 2040,
      "졸": 2041,
      "졺": 2042,
      "좀": 2043,
      "좁": 2044,
      "좃": 2045,
      "좄": 2046,
      "종": 2047,
      "좆": 2048,
      "좇": 2049,
      "좋": 2050,
      "좌": 2051,
      "좍": 2052,
      "좝": 2053,
      "좡": 2054,
      "좧": 2055,
      "좨": 2056,
      "좩": 2057,
      "좬": 2058,
      "좰": 2059,
      "좲": 2060,
      "좸": 2061,
      "좹": 2062,
      "좻": 2063,
      "좼": 2064,
      "좽": 2065,
      "좾": 2066,
      "좿": 2067,
      "죃": 2068,
      "죗": 2069,
      "죠": 2070,
      "죡": 2071,
      "죤": 2072,
      "죨": 2073,
      "죵": 2074,
      "죹": 2075,
      "주": 2076,
      "죽": 2077,
      "준": 2078,
      "줄": 2079,
      "줅": 2080,
      "줆": 2081,
      "줌": 2082,
      "줍": 2083,
      "줏": 2084,
      "중": 2085,
      "줕": 2086,
      "줗": 2087,
      "줬": 2088,
      "줯": 2089,
      "줴": 2090,
      "쥐": 2091,
      "쥑": 2092,
      "쥔": 2093,
      "쥘": 2094,
      "쥠": 2095,
      "쥡": 2096,
      "쥣": 2097,
      "쥩": 2098,
      "쥫": 2099,
      "쥬": 2100,
      "쥰": 2101,
      "쥴": 2102,
      "쥼": 2103,
      "즈": 2104,
      "즌": 2105,
      "즐": 2106,
      "즘": 2107,
      "즙": 2108,
      "즛": 2109,
      "증": 2110,
      "즣": 2111,
      "지": 2112,
      "직": 2113,
      "진": 2114,
      "짇": 2115,
      "질": 2116,
      "짊": 2117,
      "짐": 2118,
      "집": 2119,
      "짓": 2120,
      "징": 2121,
      "짖": 2122,
      "짙": 2123,
      "짚": 2124,
      "짛": 2125,
      "짜": 2126,
      "짝": 2127,
      "짟": 2128,
      "짠": 2129,
      "짢": 2130,
      "짤": 2131,
      "짧": 2132,
      "짬": 2133,
      "짭": 2134,
      "짯": 2135,
      "짰": 2136,
      "짱": 2137,
      "짷": 2138,
      "째": 2139,
      "짹": 2140,
      "짼": 2141,
      "쨀": 2142,
      "쨈": 2143,
      "쨉": 2144,
      "쨋": 2145,
      "쨌": 2146,
      "쨍": 2147,
      "쨔": 2148,
      "쨘": 2149,
      "쨩": 2150,
      "쩌": 2151,
      "쩍": 2152,
      "쩐": 2153,
      "쩔": 2154,
      "쩖": 2155,
      "쩜": 2156,
      "쩝": 2157,
      "쩟": 2158,
      "쩠": 2159,
      "쩡": 2160,
      "쩨": 2161,
      "쩬": 2162,
      "쩰": 2163,
      "쩽": 2164,
      "쪄": 2165,
      "쪘": 2166,
      "쪤": 2167,
      "쪼": 2168,
      "쪽": 2169,
      "쫀": 2170,
      "쫃": 2171,
      "쫄": 2172,
      "쫆": 2173,
      "쫌": 2174,
      "쫍": 2175,
      "쫏": 2176,
      "쫑": 2177,
      "쫓": 2178,
      "쫘": 2179,
      "쫙": 2180,
      "쫠": 2181,
      "쫴": 2182,
      "쬈": 2183,
      "쬐": 2184,
      "쬔": 2185,
      "쬘": 2186,
      "쬠": 2187,
      "쬡": 2188,
      "쬬": 2189,
      "쭁": 2190,
      "쭈": 2191,
      "쭉": 2192,
      "쭌": 2193,
      "쭐": 2194,
      "쭘": 2195,
      "쭙": 2196,
      "쭝": 2197,
      "쭤": 2198,
      "쭸": 2199,
      "쭹": 2200,
      "쮀": 2201,
      "쮜": 2202,
      "쮠": 2203,
      "쮸": 2204,
      "쯍": 2205,
      "쯔": 2206,
      "쯕": 2207,
      "쯘": 2208,
      "쯜": 2209,
      "쯞": 2210,
      "쯣": 2211,
      "쯤": 2212,
      "쯥": 2213,
      "쯧": 2214,
      "쯩": 2215,
      "찌": 2216,
      "찍": 2217,
      "찐": 2218,
      "찔": 2219,
      "찜": 2220,
      "찝": 2221,
      "찟": 2222,
      "찡": 2223,
      "찢": 2224,
      "찧": 2225,
      "차": 2226,
      "착": 2227,
      "찬": 2228,
      "찮": 2229,
      "찰": 2230,
      "참": 2231,
      "찹": 2232,
      "찻": 2233,
      "찼": 2234,
      "창": 2235,
      "찾": 2236,
      "채": 2237,
      "책": 2238,
      "챈": 2239,
      "챌": 2240,
      "챔": 2241,
      "챕": 2242,
      "챗": 2243,
      "챘": 2244,
      "챙": 2245,
      "챛": 2246,
      "챝": 2247,
      "챟": 2248,
      "챠": 2249,
      "챤": 2250,
      "챦": 2251,
      "챨": 2252,
      "챰": 2253,
      "챵": 2254,
      "처": 2255,
      "척": 2256,
      "천": 2257,
      "첞": 2258,
      "철": 2259,
      "첨": 2260,
      "첩": 2261,
      "첫": 2262,
      "첬": 2263,
      "청": 2264,
      "첮": 2265,
      "체": 2266,
      "첵": 2267,
      "첸": 2268,
      "첼": 2269,
      "쳄": 2270,
      "쳅": 2271,
      "쳇": 2272,
      "쳉": 2273,
      "쳍": 2274,
      "쳏": 2275,
      "쳐": 2276,
      "쳔": 2277,
      "쳘": 2278,
      "쳤": 2279,
      "쳧": 2280,
      "쳬": 2281,
      "쳰": 2282,
      "쳴": 2283,
      "촁": 2284,
      "초": 2285,
      "촉": 2286,
      "촌": 2287,
      "촐": 2288,
      "촘": 2289,
      "촙": 2290,
      "촛": 2291,
      "총": 2292,
      "촤": 2293,
      "촬": 2294,
      "쵀": 2295,
      "쵁": 2296,
      "쵄": 2297,
      "쵈": 2298,
      "쵐": 2299,
      "쵑": 2300,
      "쵓": 2301,
      "쵕": 2302,
      "최": 2303,
      "쵠": 2304,
      "쵤": 2305,
      "쵬": 2306,
      "쵭": 2307,
      "쵯": 2308,
      "쵱": 2309,
      "쵷": 2310,
      "쵸": 2311,
      "춈": 2312,
      "추": 2313,
      "축": 2314,
      "춘": 2315,
      "출": 2316,
      "춤": 2317,
      "춥": 2318,
      "춧": 2319,
      "충": 2320,
      "춭": 2321,
      "춯": 2322,
      "춰": 2323,
      "췄": 2324,
      "췇": 2325,
      "췌": 2326,
      "췐": 2327,
      "췔": 2328,
      "취": 2329,
      "췬": 2330,
      "췰": 2331,
      "췸": 2332,
      "췹": 2333,
      "췻": 2334,
      "췽": 2335,
      "츃": 2336,
      "츄": 2337,
      "츈": 2338,
      "츌": 2339,
      "츔": 2340,
      "츙": 2341,
      "츠": 2342,
      "측": 2343,
      "츤": 2344,
      "츨": 2345,
      "츰": 2346,
      "츱": 2347,
      "츳": 2348,
      "층": 2349,
      "츹": 2350,
      "츻": 2351,
      "치": 2352,
      "칙": 2353,
      "친": 2354,
      "칟": 2355,
      "칠": 2356,
      "칡": 2357,
      "침": 2358,
      "칩": 2359,
      "칫": 2360,
      "칭": 2361,
      "칱": 2362,
      "칳": 2363,
      "카": 2364,
      "칵": 2365,
      "칸": 2366,
      "칻": 2367,
      "칼": 2368,
      "칽": 2369,
      "칾": 2370,
      "캄": 2371,
      "캅": 2372,
      "캆": 2373,
      "캇": 2374,
      "캈": 2375,
      "캉": 2376,
      "캊": 2377,
      "캋": 2378,
      "캍": 2379,
      "캎": 2380,
      "캏": 2381,
      "캐": 2382,
      "캑": 2383,
      "캔": 2384,
      "캘": 2385,
      "캠": 2386,
      "캡": 2387,
      "캣": 2388,
      "캤": 2389,
      "캥": 2390,
      "캬": 2391,
      "캭": 2392,
      "캰": 2393,
      "캴": 2394,
      "캿": 2395,
      "컁": 2396,
      "컈": 2397,
      "컌": 2398,
      "컐": 2399,
      "커": 2400,
      "컥": 2401,
      "컨": 2402,
      "컫": 2403,
      "컬": 2404,
      "컮": 2405,
      "컴": 2406,
      "컵": 2407,
      "컷": 2408,
      "컸": 2409,
      "컹": 2410,
      "컺": 2411,
      "컽": 2412,
      "컾": 2413,
      "컿": 2414,
      "케": 2415,
      "켁": 2416,
      "켄": 2417,
      "켈": 2418,
      "켐": 2419,
      "켑": 2420,
      "켓": 2421,
      "켔": 2422,
      "켕": 2423,
      "켜": 2424,
      "켝": 2425,
      "켞": 2426,
      "켠": 2427,
      "켣": 2428,
      "켤": 2429,
      "켬": 2430,
      "켭": 2431,
      "켯": 2432,
      "켰": 2433,
      "켱": 2434,
      "켵": 2435,
      "켸": 2436,
      "켼": 2437,
      "콀": 2438,
      "콉": 2439,
      "콋": 2440,
      "코": 2441,
      "콕": 2442,
      "콘": 2443,
      "콛": 2444,
      "콜": 2445,
      "콞": 2446,
      "콠": 2447,
      "콣": 2448,
      "콤": 2449,
      "콥": 2450,
      "콧": 2451,
      "콩": 2452,
      "콪": 2453,
      "콰": 2454,
      "콱": 2455,
      "콴": 2456,
      "콸": 2457,
      "콺": 2458,
      "쾀": 2459,
      "쾁": 2460,
      "쾃": 2461,
      "쾅": 2462,
      "쾌": 2463,
      "쾐": 2464,
      "쾡": 2465,
      "쾨": 2466,
      "쾬": 2467,
      "쾰": 2468,
      "쾽": 2469,
      "쿄": 2470,
      "쿈": 2471,
      "쿌": 2472,
      "쿕": 2473,
      "쿗": 2474,
      "쿠": 2475,
      "쿡": 2476,
      "쿤": 2477,
      "쿧": 2478,
      "쿨": 2479,
      "쿩": 2480,
      "쿪": 2481,
      "쿯": 2482,
      "쿰": 2483,
      "쿱": 2484,
      "쿳": 2485,
      "쿵": 2486,
      "쿶": 2487,
      "쿼": 2488,
      "퀀": 2489,
      "퀄": 2490,
      "퀑": 2491,
      "퀘": 2492,
      "퀫": 2493,
      "퀭": 2494,
      "퀴": 2495,
      "퀵": 2496,
      "퀸": 2497,
      "퀼": 2498,
      "큄": 2499,
      "큅": 2500,
      "큇": 2501,
      "큉": 2502,
      "큐": 2503,
      "큔": 2504,
      "큘": 2505,
      "큠": 2506,
      "크": 2507,
      "큭": 2508,
      "큰": 2509,
      "큳": 2510,
      "클": 2511,
      "큵": 2512,
      "큼": 2513,
      "큽": 2514,
      "큿": 2515,
      "킁": 2516,
      "킈": 2517,
      "키": 2518,
      "킥": 2519,
      "킨": 2520,
      "킫": 2521,
      "킬": 2522,
      "킮": 2523,
      "킴": 2524,
      "킵": 2525,
      "킷": 2526,
      "킹": 2527,
      "킺": 2528,
      "킾": 2529,
      "타": 2530,
      "탁": 2531,
      "탄": 2532,
      "탈": 2533,
      "탉": 2534,
      "탊": 2535,
      "탐": 2536,
      "탑": 2537,
      "탓": 2538,
      "탔": 2539,
      "탕": 2540,
      "태": 2541,
      "택": 2542,
      "탠": 2543,
      "탤": 2544,
      "탬": 2545,
      "탭": 2546,
      "탯": 2547,
      "탰": 2548,
      "탱": 2549,
      "탳": 2550,
      "탵": 2551,
      "탷": 2552,
      "탸": 2553,
      "턍": 2554,
      "터": 2555,
      "턱": 2556,
      "턴": 2557,
      "털": 2558,
      "턹": 2559,
      "턺": 2560,
      "텀": 2561,
      "텁": 2562,
      "텃": 2563,
      "텄": 2564,
      "텅": 2565,
      "테": 2566,
      "텍": 2567,
      "텐": 2568,
      "텔": 2569,
      "템": 2570,
      "텝": 2571,
      "텟": 2572,
      "텡": 2573,
      "텥": 2574,
      "텧": 2575,
      "텨": 2576,
      "텬": 2577,
      "텰": 2578,
      "텼": 2579,
      "텿": 2580,
      "톄": 2581,
      "톈": 2582,
      "톌": 2583,
      "토": 2584,
      "톡": 2585,
      "톤": 2586,
      "톨": 2587,
      "톰": 2588,
      "톱": 2589,
      "톳": 2590,
      "통": 2591,
      "톺": 2592,
      "퇘": 2593,
      "퇙": 2594,
      "퇜": 2595,
      "퇠": 2596,
      "퇨": 2597,
      "퇩": 2598,
      "퇫": 2599,
      "퇭": 2600,
      "퇲": 2601,
      "퇴": 2602,
      "퇸": 2603,
      "퇼": 2604,
      "툇": 2605,
      "툉": 2606,
      "툐": 2607,
      "투": 2608,
      "툭": 2609,
      "툰": 2610,
      "툴": 2611,
      "툼": 2612,
      "툽": 2613,
      "툿": 2614,
      "퉁": 2615,
      "퉅": 2616,
      "퉇": 2617,
      "퉤": 2618,
      "퉷": 2619,
      "튀": 2620,
      "튁": 2621,
      "튄": 2622,
      "튈": 2623,
      "튐": 2624,
      "튑": 2625,
      "튕": 2626,
      "튙": 2627,
      "튛": 2628,
      "튜": 2629,
      "튠": 2630,
      "튤": 2631,
      "튬": 2632,
      "튱": 2633,
      "트": 2634,
      "특": 2635,
      "튼": 2636,
      "튿": 2637,
      "틀": 2638,
      "틂": 2639,
      "틈": 2640,
      "틉": 2641,
      "틋": 2642,
      "틑": 2643,
      "틓": 2644,
      "틔": 2645,
      "티": 2646,
      "틱": 2647,
      "틴": 2648,
      "틸": 2649,
      "팀": 2650,
      "팁": 2651,
      "팃": 2652,
      "팅": 2653,
      "팉": 2654,
      "팋": 2655,
      "파": 2656,
      "팍": 2657,
      "팎": 2658,
      "팏": 2659,
      "판": 2660,
      "팓": 2661,
      "팔": 2662,
      "팕": 2663,
      "팖": 2664,
      "팗": 2665,
      "팜": 2666,
      "팝": 2667,
      "팟": 2668,
      "팠": 2669,
      "팡": 2670,
      "팥": 2671,
      "패": 2672,
      "팩": 2673,
      "팬": 2674,
      "팰": 2675,
      "팸": 2676,
      "팹": 2677,
      "팻": 2678,
      "팼": 2679,
      "팽": 2680,
      "퍁": 2681,
      "퍄": 2682,
      "퍅": 2683,
      "퍈": 2684,
      "퍕": 2685,
      "퍼": 2686,
      "퍽": 2687,
      "펀": 2688,
      "펃": 2689,
      "펄": 2690,
      "펆": 2691,
      "펌": 2692,
      "펍": 2693,
      "펏": 2694,
      "펐": 2695,
      "펑": 2696,
      "펒": 2697,
      "페": 2698,
      "펙": 2699,
      "펜": 2700,
      "펟": 2701,
      "펠": 2702,
      "펨": 2703,
      "펩": 2704,
      "펫": 2705,
      "펬": 2706,
      "펭": 2707,
      "펴": 2708,
      "펵": 2709,
      "편": 2710,
      "펼": 2711,
      "폄": 2712,
      "폅": 2713,
      "폇": 2714,
      "폈": 2715,
      "평": 2716,
      "폍": 2717,
      "폐": 2718,
      "폔": 2719,
      "폘": 2720,
      "폡": 2721,
      "폣": 2722,
      "포": 2723,
      "폭": 2724,
      "폮": 2725,
      "폰": 2726,
      "폴": 2727,
      "폼": 2728,
      "폽": 2729,
      "폿": 2730,
      "퐁": 2731,
      "퐈": 2732,
      "퐌": 2733,
      "퐜": 2734,
      "퐝": 2735,
      "퐸": 2736,
      "푈": 2737,
      "푑": 2738,
      "표": 2739,
      "푠": 2740,
      "푤": 2741,
      "푭": 2742,
      "푯": 2743,
      "푸": 2744,
      "푹": 2745,
      "푼": 2746,
      "푿": 2747,
      "풀": 2748,
      "풁": 2749,
      "풂": 2750,
      "품": 2751,
      "풉": 2752,
      "풋": 2753,
      "풍": 2754,
      "풑": 2755,
      "풒": 2756,
      "풰": 2757,
      "퓌": 2758,
      "퓍": 2759,
      "퓐": 2760,
      "퓔": 2761,
      "퓜": 2762,
      "퓟": 2763,
      "퓡": 2764,
      "퓨": 2765,
      "퓬": 2766,
      "퓰": 2767,
      "퓸": 2768,
      "퓻": 2769,
      "퓽": 2770,
      "프": 2771,
      "픅": 2772,
      "픈": 2773,
      "플": 2774,
      "픔": 2775,
      "픕": 2776,
      "픗": 2777,
      "피": 2778,
      "픽": 2779,
      "핀": 2780,
      "필": 2781,
      "핆": 2782,
      "핌": 2783,
      "핍": 2784,
      "핏": 2785,
      "핑": 2786,
      "핒": 2787,
      "핓": 2788,
      "하": 2789,
      "학": 2790,
      "한": 2791,
      "할": 2792,
      "핢": 2793,
      "핥": 2794,
      "함": 2795,
      "합": 2796,
      "핫": 2797,
      "항": 2798,
      "해": 2799,
      "핵": 2800,
      "핸": 2801,
      "핼": 2802,
      "햄": 2803,
      "햅": 2804,
      "햇": 2805,
      "했": 2806,
      "행": 2807,
      "햋": 2808,
      "햍": 2809,
      "햏": 2810,
      "햐": 2811,
      "향": 2812,
      "허": 2813,
      "헉": 2814,
      "헌": 2815,
      "헐": 2816,
      "헒": 2817,
      "헕": 2818,
      "험": 2819,
      "헙": 2820,
      "헛": 2821,
      "헝": 2822,
      "헤": 2823,
      "헥": 2824,
      "헨": 2825,
      "헬": 2826,
      "헴": 2827,
      "헵": 2828,
      "헷": 2829,
      "헹": 2830,
      "헽": 2831,
      "헿": 2832,
      "혀": 2833,
      "혁": 2834,
      "현": 2835,
      "혈": 2836,
      "혐": 2837,
      "협": 2838,
      "혓": 2839,
      "혔": 2840,
      "형": 2841,
      "혗": 2842,
      "혙": 2843,
      "혛": 2844,
      "혜": 2845,
      "혠": 2846,
      "혤": 2847,
      "혭": 2848,
      "혷": 2849,
      "호": 2850,
      "혹": 2851,
      "혼": 2852,
      "홀": 2853,
      "홅": 2854,
      "홈": 2855,
      "홉": 2856,
      "홋": 2857,
      "홍": 2858,
      "홑": 2859,
      "화": 2860,
      "확": 2861,
      "환": 2862,
      "활": 2863,
      "홧": 2864,
      "황": 2865,
      "홭": 2866,
      "홰": 2867,
      "홱": 2868,
      "홴": 2869,
      "홸": 2870,
      "홽": 2871,
      "횀": 2872,
      "횁": 2873,
      "횃": 2874,
      "횅": 2875,
      "횉": 2876,
      "회": 2877,
      "획": 2878,
      "횐": 2879,
      "횔": 2880,
      "횝": 2881,
      "횟": 2882,
      "횡": 2883,
      "횥": 2884,
      "횧": 2885,
      "효": 2886,
      "횬": 2887,
      "횰": 2888,
      "횹": 2889,
      "횻": 2890,
      "훃": 2891,
      "후": 2892,
      "훅": 2893,
      "훈": 2894,
      "훌": 2895,
      "훑": 2896,
      "훔": 2897,
      "훗": 2898,
      "훙": 2899,
      "훝": 2900,
      "훤": 2901,
      "훨": 2902,
      "훼": 2903,
      "훽": 2904,
      "휀": 2905,
      "휄": 2906,
      "휑": 2907,
      "휕": 2908,
      "휘": 2909,
      "휙": 2910,
      "휜": 2911,
      "휠": 2912,
      "휨": 2913,
      "휩": 2914,
      "휫": 2915,
      "휭": 2916,
      "휱": 2917,
      "휳": 2918,
      "휴": 2919,
      "휵": 2920,
      "휸": 2921,
      "휼": 2922,
      "흄": 2923,
      "흇": 2924,
      "흉": 2925,
      "흍": 2926,
      "흐": 2927,
      "흑": 2928,
      "흔": 2929,
      "흖": 2930,
      "흗": 2931,
      "흘": 2932,
      "흙": 2933,
      "흠": 2934,
      "흡": 2935,
      "흣": 2936,
      "흥": 2937,
      "흩": 2938,
      "흫": 2939,
      "희": 2940,
      "흰": 2941,
      "흴": 2942,
      "흼": 2943,
      "흽": 2944,
      "힁": 2945,
      "힇": 2946,
      "히": 2947,
      "힉": 2948,
      "힌": 2949,
      "힐": 2950,
      "힘": 2951,
      "힙": 2952,
      "힛": 2953,
      "힝": 2954,
      "힡": 2955,
      "힣": 2956,
      "..": 2957,
      "!!": 2958,
      "...": 2959,
      "뉘댜": 2960,
      "ㅋㅋ": 2961,
      "ㅎㅎ": 2962,
      "~~": 2963,
      "^^": 2964,
      "ㅠㅠ": 2965,
      "효텔": 2966,
      "좋았": 2967,
      "뉘타": 2968,
      "학교": 2969,
      "뉘따": 2970,
      "효뗄": 2971,
      "념뮤": 2972,
      "넒뮤": 2973,
      "10": 2974,
      "좋앝": 2975,
      "좋야": 2976,
      "눈뒈": 2977,
      "눈테": 2978,
      "좋앗": 2979,
      "눈뎨": 2980,
      "학꼬": 2981,
      "눈떼": 2982,
      "학코": 2983,
      "좋운": 2984,
      "좋교": 2985,
      "!!!": 2986,
      "씁뉘": 2987,
      "녀뮤": 2988,
      "햐교": 2989,
      "좋얏": 2990,
      "뤼댜": 2991,
      "는뎨": 2992,
      "한눈": 2993,
      "여오": 2994,
      "합뉘": 2995,
      "20": 2996,
      "는뒈": 2997,
      "얘악": 2998,
      "....": 2999,
      "위옹": 3000,
      "졍먈": 3001,
      "췬졀": 3002,
      "는테": 3003,
      "옇헹": 3004,
      "눼오": 3005,
      "숩뉘": 3006,
      "좋햐": 3007,
      "학쿄": 3008,
      "찐졀": 3009,
      "좋은": 3010,
      "는떼": 3011,
      "녜오": 3012,
      "ㅋㅋㅋㅋ": 3013,
      "찐쩔": 3014,
      "ㅜㅜ": 3015,
      "췬젊": 3016,
      "췬쩔": 3017,
      "햐꼬": 3018,
      "햐코": 3019,
      "칼끎": 3020,
      "좋꼬": 3021,
      "췬철": 3022,
      "찐젊": 3023,
      "꺌끎": 3024,
      "위용": 3025,
      "좋코": 3026,
      "효텐": 3027,
      "찐철": 3028,
      "췬절": 3029,
      ":)": 3030,
      "서오": 3031,
      "팡뮨": 3032,
      "얘약": 3033,
      "씁뉘댜": 3034,
      "좋얕": 3035,
      "찐절": 3036,
      "좋흖": 3037,
      "TV": 3038,
      "짊많": 3039,
      "칼꿈": 3040,
      "화쟝": 3041,
      "방뮨": 3042,
      "옛셔": 3043,
      "옇행": 3044,
      "한는": 3045,
      "좋씁": 3046,
      "30": 3047,
      "잇눈": 3048,
      "염쩡": 3049,
      "묘텔": 3050,
      "꺌꿈": 3051,
      "죃았": 3052,
      "방문": 3053,
      "햐쿄": 3054,
      "뉘탸": 3055,
      "좋었": 3056,
      "엣셔": 3057,
      "있눈": 3058,
      "칼큼": 3059,
      "100": 3060,
      "닐댜": 3061,
      "학꾜": 3062,
      "쥠많": 3063,
      "닒댜": 3064,
      "많죡": 3065,
      "빵뮨": 3066,
      "효뗀": 3067,
      "함먼": 3068,
      "쥐많": 3069,
      "헷써": 3070,
      "닙댜": 3071,
      "얾쩡": 3072,
      "ㅋㅋㅋ": 3073,
      "헷셔": 3074,
      "좋훈": 3075,
      "합뉘댜": 3076,
      "좋쿄": 3077,
      "침많": 3078,
      "!!!!": 3079,
      "닌댜": 3080,
      "졍맑": 3081,
      "닉댜": 3082,
      "1충": 3083,
      "뤼따": 3084,
      "많촉": 3085,
      "잊눈": 3086,
      "엣써": 3087,
      "슉쇼": 3088,
      "숲뉘": 3089,
      "캑꿋": 3090,
      "깔끎": 3091,
      "쟝닒": 3092,
      "헉교": 3093,
      "꺌큼": 3094,
      "닛댜": 3095,
      "뤼타": 3096,
      "졍맒": 3097,
      "깖꿈": 3098,
      "숩뉘댜": 3099,
      "햐는": 3100,
      "니댜": 3101,
      "쑥쇼": 3102,
      "셩뷔": 3103,
      "12": 3104,
      "쥑언": 3105,
      "헤오": 3106,
      "쟝뉨": 3107,
      "팡문": 3108,
      "★★": 3109,
      "팡위": 3110,
      "객쉴": 3111,
      "청먈": 3112,
      "님댜": 3113,
      "옛써": 3114,
      "좋움": 3115,
      "쩡먈": 3116,
      "1쯩": 3117,
      "묘뗄": 3118,
      "렴뮤": 3119,
      "룬뒈": 3120,
      "닝댜": 3121,
      "슉쏘": 3122,
      "깖끎": 3123,
      "닢댜": 3124,
      "있는": 3125,
      "짊만": 3126,
      "럶뮤": 3127,
      "좋울": 3128,
      "햐눈": 3129,
      "??": 3130,
      "~!": 3131,
      "헤셔": 3132,
      "눈톄": 3133,
      "죃야": 3134,
      "캑끝": 3135,
      "15": 3136,
      "객씰": 3137,
      "잎뉘": 3138,
      "울료": 3139,
      "방위": 3140,
      "좋엍": 3141,
      "찜많": 3142,
      "했셔": 3143,
      "첵끄": 3144,
      "헤윤": 3145,
      "숲뉘댜": 3146,
      "~~~": 3147,
      "써오": 3148,
      "치많": 3149,
      "11": 3150,
      "씁뉘타": 3151,
      "껙꿋": 3152,
      "우료": 3153,
      "셔오": 3154,
      "쑥쏘": 3155,
      "눈뛔": 3156,
      "읊료": 3157,
      "좋숩": 3158,
      "객싫": 3159,
      "깔꿈": 3160,
      "댜움": 3161,
      "쥬챠": 3162,
      "햐오": 3163,
      "썽뷔": 3164,
      "갹걱": 3165,
      "죃앝": 3166,
      "쥠만": 3167,
      "ㅎㅎㅎ": 3168,
      "께끝": 3169,
      "씁뉘따": 3170,
      "쩡결": 3171,
      "완젼": 3172,
      "윕뉘": 3173,
      "펜션": 3174,
      "콴뤼": 3175,
      "방움": 3176,
      "깖큼": 3177,
      "잊는": 3178,
      "학궤": 3179,
      "눈퉤": 3180,
      "룬테": 3181,
      "많쪽": 3182,
      "예셔": 3183,
      "웨셔": 3184,
      "좋숲": 3185,
      "학고": 3186,
      "함면": 3187,
      "쌩갹": 3188,
      "찍언": 3189,
      ").": 3190,
      "만촉": 3191,
      "췸데": 3192,
      "헤써": 3193,
      "껙끝": 3194,
      "룬뎨": 3195,
      "청맒": 3196,
      "☆☆": 3197,
      "광얀": 3198,
      "첵쿠": 3199,
      "캑싫": 3200,
      "좋야오": 3201,
      "엉쟝": 3202,
      "염청": 3203,
      "잇는": 3204,
      "죃얏": 3205,
      "--": 3206,
      "캑쉴": 3207,
      "합뉘타": 3208,
      "쩡맒": 3209,
      "학꽤": 3210,
      "팡움": 3211,
      "펜선": 3212,
      "께꿋": 3213,
      "니따": 3214,
      "여요": 3215,
      "엾눈": 3216,
      "욧선": 3217,
      "츄쳔": 3218,
      "쥔쨔": 3219,
      "쥬짜": 3220,
      "얘오": 3221,
      "~^^": 3222,
      "깔큼": 3223,
      "려뮤": 3224,
      "죃교": 3225,
      "쩡쇼": 3226,
      "쬐교": 3227,
      "찜데": 3228,
      "췌약": 3229,
      "청맑": 3230,
      "5셩": 3231,
      "빵문": 3232,
      "캑씰": 3233,
      "꽝얀": 3234,
      "뤼탸": 3235,
      "셩피": 3236,
      "칙언": 3237,
      "헉코": 3238,
      "른뒈": 3239,
      "쥐만": 3240,
      "쥑원": 3241,
      "쾅얀": 3242,
      "5썽": 3243,
      "쩡맑": 3244,
      "쉿썰": 3245,
      "쎄오": 3246,
      "엘립": 3247,
      "캐꿋": 3248,
      "헉꼬": 3249,
      "닌따": 3250,
      "좋음": 3251,
      "찌많": 3252,
      "합뉘따": 3253,
      "헉쿄": 3254,
      "른뎨": 3255,
      "만죡": 3256,
      "학께": 3257,
      "닛따": 3258,
      "슈옇": 3259,
      "예오": 3260,
      "좋엇": 3261,
      "학계": 3262,
      "닉따": 3263,
      "했써": 3264,
      "갹격": 3265,
      "깩쉴": 3266,
      "셩삐": 3267,
      "셰오": 3268,
      "있여": 3269,
      "힐륑": 3270,
      "괜짢": 3271,
      "닒타": 3272,
      "럼한": 3273,
      "룬떼": 3274,
      "만위": 3275,
      "윈떼": 3276,
      "빵위": 3277,
      "싣셜": 3278,
      "쑵뉘": 3279,
      "죠쉭": 3280,
      "창닒": 3281,
      "캑끗": 3282,
      "닛타": 3283,
      "뵤댜": 3284,
      "찜만": 3285,
      "니타": 3286,
      "닝타": 3287,
      "쬐약": 3288,
      "꽝않": 3289,
      "닒따": 3290,
      "짱뉨": 3291,
      "함머": 3292,
      "합뤼": 3293,
      "24": 3294,
      "괜챦": 3295,
      "닙따": 3296,
      "죃앗": 3297,
      "죠흖": 3298,
      "캐끝": 3299,
      "홅텔": 3300,
      "댜룬": 3301,
      "완쩐": 3302,
      "윕뉘댜": 3303,
      "잎뉘댜": 3304,
      "죠옹": 3305,
      "넴쌔": 3306,
      "략교": 3307,
      "먼셔": 3308,
      "얾청": 3309,
      "츄쩐": 3310,
      "관뤼": 3311,
      "만쪽": 3312,
      "잊여": 3313,
      "좋훔": 3314,
      "홀텔": 3315,
      "홈텔": 3316,
      "쀼갸": 3317,
      "쯥뉘": 3318,
      "많휘": 3319,
      "썽삐": 3320,
      "엿셔": 3321,
      "잇교": 3322,
      "팡음": 3323,
      "깸삥": 3324,
      "많한": 3325,
      "먀움": 3326,
      "야찜": 3327,
      "쥔차": 3328,
      "햐꾜": 3329,
      "호뗄": 3330,
      "닢따": 3331,
      "얘억": 3332,
      "혹텔": 3333,
      "넒묽": 3334,
      "님타": 3335,
      "닢타": 3336,
      "쉿셜": 3337,
      "죃운": 3338,
      "22": 3339,
      "깩싫": 3340,
      "부갸": 3341,
      "캐끗": 3342,
      "핫쉭": 3343,
      "핫씩": 3344,
      "혹뗄": 3345,
      "쉬셜": 3346,
      "핫쉬": 3347,
      "는뛔": 3348,
      "야오": 3349,
      "윈눈": 3350,
      "좋꾜": 3351,
      "쭈쩐": 3352,
      "친젊": 3353,
      "23": 3354,
      "ㅡㅡ": 3355,
      "꺄쥐": 3356,
      "둘위": 3357,
      "메유": 3358,
      "샤람": 3359,
      "씁뤼": 3360,
      "씻셜": 3361,
      "엽헹": 3362,
      "요션": 3363,
      "쩡쏘": 3364,
      "ㅠㅠㅠ": 3365,
      "념묶": 3366,
      "닝따": 3367,
      "슉밗": 3368,
      "칙원": 3369,
      "만한": 3370,
      "숩뉘타": 3371,
      "윗눈": 3372,
      "침만": 3373,
      "쾅앉": 3374,
      "하교": 3375,
      "햇써": 3376,
      "홀뗄": 3377,
      "00": 3378,
      "19": 3379,
      "깍걱": 3380,
      "께쿳": 3381,
      "싸람": 3382,
      "옹햇": 3383,
      "햐께": 3384,
      "헤운": 3385,
      "홋텔": 3386,
      "화짱": 3387,
      "뉩댜": 3388,
      "른떼": 3389,
      "방음": 3390,
      "빻뮨": 3391,
      "썽피": 3392,
      "좋쑵": 3393,
      "홉텔": 3394,
      "깩씰": 3395,
      "옻선": 3396,
      "창뉨": 3397,
      "한룬": 3398,
      "햐쥐": 3399,
      "헌눈": 3400,
      "부까": 3401,
      "예써": 3402,
      "웨써": 3403,
      "졍됴": 3404,
      "죠씩": 3405,
      "쩌움": 3406,
      "쩡켤": 3407,
      "헙뉘": 3408,
      "좋햐오": 3409,
      "광앉": 3410,
      "셩퓌": 3411,
      "윈테": 3412,
      "쩡걸": 3413,
      "찐젼": 3414,
      "쾅않": 3415,
      "호텔": 3416,
      "홍텔": 3417,
      "화창": 3418,
      "2윈": 3419,
      "껙쿳": 3420,
      "서요": 3421,
      "씨썰": 3422,
      "얏쉽": 3423,
      "여욧": 3424,
      "예악": 3425,
      "쟝위": 3426,
      "짱닒": 3427,
      "쭈쳔": 3428,
      "휠륑": 3429,
      "는톄": 3430,
      "닐따": 3431,
      "먼써": 3432,
      "부됴": 3433,
      "야췸": 3434,
      "옻션": 3435,
      "위취": 3436,
      "좋을": 3437,
      "췌교": 3438,
      "혼뗄": 3439,
      "님따": 3440,
      "싣썰": 3441,
      "여셔": 3442,
      "엿써": 3443,
      "졍먄": 3444,
      "친쨔": 3445,
      "넴세": 3446,
      "닉꺄": 3447,
      "른테": 3448,
      "뷴듦": 3449,
      "쉰눈": 3450,
      "좇쉭": 3451,
      "죠햐": 3452,
      "칵격": 3453,
      "팡뮬": 3454,
      "학케": 3455,
      "핫씨": 3456,
      "홑텔": 3457,
      "?)": 3458,
      "닉타": 3459,
      "숩뉘따": 3460,
      "여용": 3461,
      "옹햐": 3462,
      "요선": 3463,
      "위뜨": 3464,
      "쳐움": 3465,
      "한떼": 3466,
      "혼텔": 3467,
      "황쟝": 3468,
      "1밗": 3469,
      "쉬썰": 3470,
      "쑤옇": 3471,
      "좋눼": 3472,
      "죃은": 3473,
      "찐쨔": 3474,
      "친졀": 3475,
      "네오": 3476,
      "서셔": 3477,
      "완천": 3478,
      "넒뭅": 3479,
      "뒈여": 3480,
      "어헹": 3481,
      "췰졀": 3482,
      "한냐": 3483,
      "햐꽤": 3484,
      "끄윈": 3485,
      "넒문": 3486,
      "넒물": 3487,
      "슉뱍": 3488,
      "쩡껼": 3489,
      "췬젼": 3490,
      "친절": 3491,
      "녜왜": 3492,
      "섕갹": 3493,
      "서써": 3494,
      "옹했": 3495,
      "욧션": 3496,
      "움쉭": 3497,
      "좋핫": 3498,
      "췸많": 3499,
      "홅뗄": 3500,
      "별료": 3501,
      "뷴들": 3502,
      "여왜": 3503,
      "윌랴": 3504,
      "좋약": 3505,
      "쳐음": 3506,
      "추챠": 3507,
      "췸때": 3508,
      "~~~~": 3509,
      "객실": 3510,
      "분눈": 3511,
      "숩뤼": 3512,
      "카쥐": 3513,
      "칵걱": 3514,
      "햐먼": 3515,
      "홑뗄": 3516,
      "광않": 3517,
      "껙끗": 3518,
      "꽝앉": 3519,
      "념묵": 3520,
      "념뭄": 3521,
      "념뭍": 3522,
      "위찌": 3523,
      "젼먕": 3524,
      "짊먾": 3525,
      "찍원": 3526,
      "홍뗄": 3527,
      "40": 3528,
      "갹컥": 3529,
      "께끗": 3530,
      "쀼카": 3531,
      "싣섦": 3532,
      "쏘움": 3533,
      "씬졀": 3534,
      "야추": 3535,
      "위랴": 3536,
      "위였": 3537,
      "위투": 3538,
      "퇴여": 3539,
      "펀함": 3540,
      "햐쉬": 3541,
      "눼왜": 3542,
      "쉐오": 3543,
      "씨셜": 3544,
      "음쉭": 3545,
      "죃었": 3546,
      "찜때": 3547,
      "합닙": 3548,
      "넒묶": 3549,
      "단눈": 3550,
      "방뮬": 3551,
      "샤옹": 3552,
      "쉬섦": 3553,
      "움웨": 3554,
      "위왱": 3555,
      "좋악": 3556,
      "쫏씩": 3557,
      "쭈챠": 3558,
      "촛쉭": 3559,
      "팡운": 3560,
      "홉뗄": 3561,
      "1뱍": 3562,
      "녜요": 3563,
      "는퉤": 3564,
      "댜음": 3565,
      "옥쟝": 3566,
      "움씩": 3567,
      "움예": 3568,
      "짱위": 3569,
      "청결": 3570,
      "췬찰": 3571,
      "치만": 3572,
      "칼쿰": 3573,
      "캑쿳": 3574,
      "펀햐": 3575,
      "햇씁": 3576,
      "활쟝": 3577,
      "효떼": 3578,
      "갸걱": 3579,
      "넒뭏": 3580,
      "맛있": 3581,
      "방욺": 3582,
      "쩌음": 3583,
      "캑꿎": 3584,
      "괜챤": 3585,
      "깍격": 3586,
      "넒묵": 3587,
      "넒뭍": 3588,
      "뉘떠": 3589,
      "췌코": 3590,
      "햇눈뒈": 3591,
      "홋뗄": 3592,
      "씁뉘탸": 3593,
      "(?)": 3594,
      "2밗": 3595,
      "닐타": 3596,
      "씬절": 3597,
      "야쥬": 3598,
      "촛씩": 3599,
      "했눈": 3600,
      "했숩": 3601,
      "괸챦": 3602,
      "넴섀": 3603,
      "념묾": 3604,
      "뉠댜": 3605,
      "룐투": 3606,
      "부카": 3607,
      "뷰샨": 3608,
      "쉿섧": 3609,
      "쌀람": 3610,
      "쑥밗": 3611,
      "여욜": 3612,
      "잎뉘타": 3613,
      "죃흖": 3614,
      "쥑퀀": 3615,
      "한뉘": 3616,
      "햇눈": 3617,
      "했씁": 3618,
      "갸격": 3619,
      "뉘터": 3620,
      "댜눈": 3621,
      "슈엉": 3622,
      "얘얕": 3623,
      "위눈": 3624,
      "음웨": 3625,
      "잊교": 3626,
      "좇씩": 3627,
      "좋고": 3628,
      "쥐건": 3629,
      "퓨갸": 3630,
      "듦위": 3631,
      "뤠오": 3632,
      "받댜": 3633,
      "뷴둘": 3634,
      "빨료": 3635,
      "쉿섦": 3636,
      "씻섧": 3637,
      "어셔": 3638,
      "쥑건": 3639,
      "췌꼬": 3640,
      "친차": 3641,
      "핫씬": 3642,
      "화쟝싫": 3643,
      "냄쌔": 3644,
      "방운": 3645,
      "있교": 3646,
      "좋암": 3647,
      "쯥뉘댜": 3648,
      "췬잘": 3649,
      "친쩔": 3650,
      "캐쿳": 3651,
      "햐씨": 3652,
      "넒묻": 3653,
      "녜욤": 3654,
      "방됴": 3655,
      "뵤타": 3656,
      "뷴틀": 3657,
      "죃엍": 3658,
      "췌악": 3659,
      "췬썰": 3660,
      "28": 3661,
      "2충": 3662,
      "♡♡": 3663,
      "괸찬": 3664,
      "깩꿋": 3665,
      "넒묾": 3666,
      "넜뮤": 3667,
      "념묻": 3668,
      "뮤엿": 3669,
      "쇼움": 3670,
      "쉬섧": 3671,
      "윈뒈": 3672,
      "윕취": 3673,
      "잊엊": 3674,
      "죃쿄": 3675,
      "췸태": 3676,
      "캑실": 3677,
      "향샹": 3678,
      "환쟝": 3679,
      "3윌": 3680,
      "꺌쿰": 3681,
      "넒뭉": 3682,
      "눅뀜": 3683,
      "딴눈": 3684,
      "렴한": 3685,
      "룐뜨": 3686,
      "셍칵": 3687,
      "쉭갼": 3688,
      "여욥": 3689,
      "좋흠": 3690,
      "청걸": 3691,
      "췰젊": 3692,
      "친철": 3693,
      "캭걱": 3694,
      "퓬눈": 3695,
      "학곳": 3696,
      "했눈테": 3697,
      "좋야요": 3698,
      "괸짢": 3699,
      "깩끝": 3700,
      "뜨윈": 3701,
      "랴윤": 3702,
      "삵람": 3703,
      "셍갹": 3704,
      "쉭교": 3705,
      "씬젊": 3706,
      "야쉽": 3707,
      "어오": 3708,
      "억귀": 3709,
      "윈텔": 3710,
      "쥐눈": 3711,
      "찐눈": 3712,
      "창위": 3713,
      "췬잚": 3714,
      "쿠윈": 3715,
      "했눈뒈": 3716,
      "첵끄윈": 3717,
      "50": 3718,
      "군셩": 3719,
      "널뮤": 3720,
      "녀물": 3721,
      "눼요": 3722,
      "눼욜": 3723,
      "뗌뮨": 3724,
      "뙤여": 3725,
      "쑵뉘댜": 3726,
      "씻썰": 3727,
      "어행": 3728,
      "왔셔": 3729,
      "윈뎨": 3730,
      "윗샹": 3731,
      "잇움": 3732,
      "잇코": 3733,
      "좋앍": 3734,
      "좋앙": 3735,
      "죃햐": 3736,
      "죠용": 3737,
      "초씩": 3738,
      "켐삥": 3739,
      "학끼": 3740,
      "햐계": 3741,
      "햐케": 3742,
      "혹깡": 3743,
      "군쳐": 3744,
      "꺈끎": 3745,
      "넓뮤": 3746,
      "뤼떠": 3747,
      "립뉘": 3748,
      "많언": 3749,
      "면써": 3750,
      "서용": 3751,
      "얏쒸": 3752,
      "엎눈": 3753,
      "찐차": 3754,
      "툿슉": 3755,
      "팡은": 3756,
      "퓨까": 3757,
      "학골": 3758,
      "햐궤": 3759,
      "념문": 3760,
      "렇께": 3761,
      "쌩칵": 3762,
      "쑥뱍": 3763,
      "쑥팍": 3764,
      "엾는": 3765,
      "잊코": 3766,
      "젼맣": 3767,
      "졍말": 3768,
      "좋욺": 3769,
      "죃울": 3770,
      "죠훈": 3771,
      "쩡컬": 3772,
      "찐잘": 3773,
      "췰쩔": 3774,
      "팔료": 3775,
      "햐씩": 3776,
      "홈뗄": 3777,
      "18": 3778,
      "1팍": 3779,
      "견묾": 3780,
      "괜찬": 3781,
      "념뭏": 3782,
      "닮많": 3783,
      "만휘": 3784,
      "묘듀": 3785,
      "묵였": 3786,
      "벌료": 3787,
      "샹때": 3788,
      "썽퓌": 3789,
      "씬눈": 3790,
      "야위": 3791,
      "웨오": 3792,
      "잇룬": 3793,
      "좋알": 3794,
      "찌만": 3795,
      "칟됴": 3796,
      "켁꿋": 3797,
      "학곡": 3798,
      "한뒈": 3799,
      "햐고": 3800,
      "효톄": 3801,
      "좋았씁": 3802,
      "합뉘탸": 3803,
      "견뮬": 3804,
      "념물": 3805,
      "눼용": 3806,
      "리댜": 3807,
      "븃샨": 3808,
      "빵음": 3809,
      "샬람": 3810,
      "서왜": 3811,
      "쌩깍": 3812,
      "여욕": 3813,
      "엾교": 3814,
      "윤데": 3815,
      "좋압": 3816,
      "찐썰": 3817,
      "청쇼": 3818,
      "청쏘": 3819,
      "췰절": 3820,
      "팡울": 3821,
      "펜썬": 3822,
      "편위": 3823,
      "학귀": 3824,
      "한뎨": 3825,
      "혹컁": 3826,
      "넘뮤": 3827,
      "넷오": 3828,
      "념뭅": 3829,
      "닙타": 3830,
      "빵운": 3831,
      "뿌샨": 3832,
      "숄뤼": 3833,
      "써셔": 3834,
      "씩갼": 3835,
      "엽행": 3836,
      "옜셔": 3837,
      "왔써": 3838,
      "인눈": 3839,
      "졍멁": 3840,
      "좋댜": 3841,
      "죃얕": 3842,
      "찐찰": 3843,
      "펼료": 3844,
      "깩실": 3845,
      "넒뭄": 3846,
      "넴쌕": 3847,
      "닌타": 3848,
      "델륑": 3849,
      "뤼터": 3850,
      "서욤": 3851,
      "셔셔": 3852,
      "야윳": 3853,
      "예약": 3854,
      "윗는": 3855,
      "읽랴": 3856,
      "잇여": 3857,
      "좆쉭": 3858,
      "죃움": 3859,
      "쥑얹": 3860,
      "쬐코": 3861,
      "찜태": 3862,
      "탄눈": 3863,
      "투윈": 3864,
      "햇셔": 3865,
      "헤왜": 3866,
      "헷쩌": 3867,
      "확쟝": 3868,
      ".....": 3869,
      "!!!!!": 3870,
      "----": 3871,
      "2뱍": 3872,
      "괸챤": 3873,
      "넌뮤": 3874,
      "넛뮤": 3875,
      "니탸": 3876,
      "뜰위": 3877,
      "레됴": 3878,
      "많죹": 3879,
      "붇싼": 3880,
      "빵움": 3881,
      "빻위": 3882,
      "씻섦": 3883,
      "업눈": 3884,
      "었셔": 3885,
      "용했": 3886,
      "윈쥐": 3887,
      "음씩": 3888,
      "졍또": 3889,
      "좋꽤": 3890,
      "좋안": 3891,
      "펀위": 3892,
      "햇숩": 3893,
      "헙뉘댜": 3894,
      "각걱": 3895,
      "넣뮤": 3896,
      "녀묵": 3897,
      "념묽": 3898,
      "누뀜": 3899,
      "려윤": 3900,
      "례오": 3901,
      "릴댜": 3902,
      "많위": 3903,
      "묘텐": 3904,
      "쑥쑈": 3905,
      "야쒸": 3906,
      "욕쟝": 3907,
      "쪼옹": 3908,
      "찍갸": 3909,
      "찜규": 3910,
      "칙얹": 3911,
      "탁갸": 3912,
      "편함": 3913,
      "학퀘": 3914,
      "헌는": 3915,
      "13": 3916,
      "21": 3917,
      "갊샤": 3918,
      "깍컥": 3919,
      "닒탸": 3920,
      "된눈": 3921,
      "따움": 3922,
      "략코": 3923,
      "릶댜": 3924,
      "묘둔": 3925,
      "쀼됴": 3926,
      "씬철": 3927,
      "쟝젊": 3928,
      "좆씩": 3929,
      "좋훌": 3930,
      "쪼용": 3931,
      "초쉭": 3932,
      "췌쿄": 3933,
      "카격": 3934,
      "캐꿎": 3935,
      "푸땁": 3936,
      "학공": 3937,
      "..?": 3938,
      "갈끎": 3939,
      "깖쿰": 3940,
      "꺈꿈": 3941,
      "껙꿎": 3942,
      "넨오": 3943,
      "녀뭏": 3944,
      "녜욜": 3945,
      "따음": 3946,
      "락교": 3947,
      "략꼬": 3948,
      "많쿰": 3949,
      "사오": 3950,
      "씁님": 3951,
      "윈톄": 3952,
      "잇꼬": 3953,
      "잇였": 3954,
      "잊룬": 3955,
      "찍건": 3956,
      "찍퀀": 3957,
      "취많": 3958,
      "췸규": 3959,
      "팡됴": 3960,
      "푼듦": 3961,
      "학켸": 3962,
      "햐류": 3963,
      "휼룽": 3964,
      "숩뉘탸": 3965,
      "꺄윤": 3966,
      "넙뮤": 3967,
      "녜욕": 3968,
      "련쥐": 3969,
      "싣섧": 3970,
      "씁닉": 3971,
      "억끼": 3972,
      "염썽": 3973,
      "옹할": 3974,
      "인테": 3975,
      "잋눈": 3976,
      "쭈짜": 3977,
      "펀한": 3978,
      "푼둘": 3979,
      "퓨카": 3980,
      "한른": 3981,
      "했숲": 3982,
      "햐룬": 3983,
      "헉고": 3984,
      "헉꾜": 3985,
      "1윈": 3986,
      "25": 3987,
      "4윈": 3988,
      "객꿋": 3989,
      "넉뮤": 3990,
      "닮먼": 3991,
      "맛짚": 3992,
      "면셔": 3993,
      "묘뗀": 3994,
      "묘뚜": 3995,
      "묘뜬": 3996,
      "묫한": 3997,
      "방울": 3998,
      "뵤따": 3999,
      "숲뉘타": 4000,
      "슉빡": 4001,
      "씬쩔": 4002,
      "어써": 4003,
      "여욘": 4004,
      "완쳔": 4005,
      "윈는": 4006,
      "읾랴": 4007,
      "있움": 4008,
      "졍토": 4009,
      "쥐퀀": 4010,
      "췰철": 4011,
      "캭격": 4012,
      "툿쑥": 4013,
      "햐댜": 4014,
      "헉꽤": 4015,
      "..!": 4016,
      "2쯩": 4017,
      "괸짠": 4018,
      "귀웨": 4019,
      "냔한": 4020,
      "넝뮤": 4021,
      "눼욤": 4022,
      "듦뤼": 4023,
      "많원": 4024,
      "씁니": 4025,
      "씨섦": 4026,
      "옹헷": 4027,
      "용할": 4028,
      "윌탄": 4029,
      "쟝륌": 4030,
      "좋앓": 4031,
      "쩡됴": 4032,
      "쫏쉭": 4033,
      "쭉쇼": 4034,
      "찐잚": 4035,
      "창먈": 4036,
      "칙권": 4037,
      "탄는": 4038,
      "탸오": 4039,
      "포댜": 4040,
      "합닝": 4041,
      "헌룬": 4042,
      "화쟝쉴": 4043,
      "2인": 4044,
      "3윈": 4045,
      "4썽": 4046,
      "공갼": 4047,
      "깩쿳": 4048,
      "넋뮤": 4049,
      "넥오": 4050,
      "닿황": 4051,
      "딸룬": 4052,
      "랸눈": 4053,
      "린댜": 4054,
      "뱌료": 4055,
      "빵읊": 4056,
      "섕칵": 4057,
      "숙쇼": 4058,
      "여욤": 4059,
      "왓써": 4060,
      "용햇": 4061,
      "있꼬": 4062,
      "있룬": 4063,
      "있엊": 4064,
      "좋씁뉘": 4065,
      "쥠먾": 4066,
      "췸만": 4067,
      "틋한": 4068,
      "함꼐": 4069,
      "해셔": 4070,
      "해오": 4071,
      "환짱": 4072,
      "4셩": 4073,
      "4인": 4074,
      "군쩌": 4075,
      "너왓": 4076,
      "넒뭇": 4077,
      "녀묶": 4078,
      "념무": 4079,
      "눅킴": 4080,
      "댜욺": 4081,
      "립댜": 4082,
      "빵뮬": 4083,
      "삶람": 4084,
      "서욜": 4085,
      "싸쟝닒": 4086,
      "얀네": 4087,
      "욘눈": 4088,
      "윔찌": 4089,
      "윗쌩": 4090,
      "윗썼": 4091,
      "음예": 4092,
      "잃랴": 4093,
      "있댜": 4094,
      "좋앎": 4095,
      "췻쏘": 4096,
      "켑슐": 4097,
      "표댜": 4098,
      "푼위": 4099,
      "학곤": 4100,
      "합닐": 4101,
      "핫교": 4102,
      "했눈떼": 4103,
      "햐른": 4104,
      "헤용": 4105,
      "1빡": 4106,
      "2윌": 4107,
      "갈꿈": 4108,
      "갼눙": 4109,
      "교오": 4110,
      "구낭": 4111,
      "너뮤": 4112,
      "넴섹": 4113,
      "릭댜": 4114,
      "만언": 4115,
      "분는": 4116,
      "뽀댜": 4117,
      "샤친": 4118,
      "서욘": 4119,
      "슡쇼": 4120,
      "쌩캭": 4121,
      "쏜뉨": 4122,
      "얹오": 4123,
      "었써": 4124,
      "위랗": 4125,
      "윈찌": 4126,
      "윕뉘타": 4127,
      "윕뉘따": 4128,
      "좋쯥": 4129,
      "직언": 4130,
      "철렴": 4131,
      "타움": 4132,
      "펀뤼": 4133,
      "편했": 4134,
      "학곰": 4135,
      "할교": 4136,
      "핫셧": 4137,
      "햐치": 4138,
      "췬졀햐": 4139,
      "화쟝씰": 4140,
      "냄섀": 4141,
      "넒무": 4142,
      "넴오": 4143,
      "녀묽": 4144,
      "념뮨": 4145,
      "눈뎅": 4146,
      "뉨댜": 4147,
      "닌탸": 4148,
      "돼여": 4149,
      "많족": 4150,
      "맛잊": 4151,
      "뿟싼": 4152,
      "샤쟝뉨": 4153,
      "숲뉘따": 4154,
      "슉쑈": 4155,
      "씁닛": 4156,
      "앎쩡": 4157,
      "얩뿌": 4158,
      "엔눈": 4159,
      "엣쩌": 4160,
      "윌런": 4161,
      "인떼": 4162,
      "죃코": 4163,
      "짊먼": 4164,
      "초옹": 4165,
      "카치": 4166,
      "칸눙": 4167,
      "칼금": 4168,
      "캅뉘": 4169,
      "푼틀": 4170,
      "합닛": 4171,
      "햇는": 4172,
      "햇눈테": 4173,
      "휼륭": 4174,
      "2팍": 4175,
      "3읾": 4176,
      "~!!": 4177,
      "■■": 4178,
      "깩끗": 4179,
      "껀뮬": 4180,
      "껙싫": 4181,
      "넹오": 4182,
      "녀묻": 4183,
      "뉠따": 4184,
      "들위": 4185,
      "따오": 4186,
      "딱갸": 4187,
      "락코": 4188,
      "란눈": 4189,
      "부캬": 4190,
      "빵울": 4191,
      "빵은": 4192,
      "빻움": 4193,
      "뻬위": 4194,
      "쀼까": 4195,
      "샤쥔": 4196,
      "셍깍": 4197,
      "쇼음": 4198,
      "슉팍": 4199,
      "얻셔": 4200,
      "옇쟝": 4201,
      "옛악": 4202,
      "위련": 4203,
      "위예": 4204,
      "인뎨": 4205,
      "좋숳": 4206,
      "죃꼬": 4207,
      "쥐먾": 4208,
      "쩡먄": 4209,
      "쪼쉭": 4210,
      "초햐": 4211,
      "탬뮨": 4212,
      "학곪": 4213,
      "핥류": 4214,
      "했눈뎨": 4215,
      "햐면": 4216,
      "횬텔": 4217,
      "~~^^": 4218,
      "ㅠㅠㅠㅠ": 4219,
      "각격": 4220,
      "군낭": 4221,
      "끼예": 4222,
      "냑교": 4223,
      "넵오": 4224,
      "녜욘": 4225,
      "누킴": 4226,
      "닮만": 4227,
      "됨먼": 4228,
      "론뜨": 4229,
      "릭갸": 4230,
      "먾죡": 4231,
      "뮤뤼": 4232,
      "받타": 4233,
      "빻문": 4234,
      "셩뷕": 4235,
      "쉴위": 4236,
      "쑥쪼": 4237,
      "씁뤼댜": 4238,
      "었오": 4239,
      "엎오": 4240,
      "옜악": 4241,
      "욺료": 4242,
      "잇쿄": 4243,
      "쥑안": 4244,
      "쪼씩": 4245,
      "쬐꼬": 4246,
      "챵뮨": 4247,
      "췬눈": 4248,
      "켁끝": 4249,
      "핏수": 4250,
      "함멸": 4251,
      "핫싶": 4252,
      "햋셔": 4253,
      "헤아": 4254,
      "확윈": 4255,
      "갸컥": 4256,
      "납프": 4257,
      "녀뭍": 4258,
      "념뭇": 4259,
      "는뎃": 4260,
      "링댜": 4261,
      "먈할": 4262,
      "뷴위": 4263,
      "션됴": 4264,
      "쉰는": 4265,
      "습뉘": 4266,
      "쌍테": 4267,
      "써요": 4268,
      "쑵뉘타": 4269,
      "쒸댜": 4270,
      "역키": 4271,
      "옌악": 4272,
      "옐약": 4273,
      "왓숲": 4274,
      "욕교": 4275,
      "용한": 4276,
      "윤때": 4277,
      "있엿": 4278,
      "잎뉘따": 4279,
      "쟝릶": 4280,
      "쩐먕": 4281,
      "청켤": 4282,
      "쿠인": 4283,
      "탈룬": 4284,
      "학곬": 4285,
      "핥꼬": 4286,
      "휠링": 4287,
      "좋았숩": 4288,
      "위옹할": 4289,
      "14": 4290,
      "깸핑": 4291,
      "꺄찌": 4292,
      "껆끎": 4293,
      "넒뮨": 4294,
      "넓교": 4295,
      "녜욧": 4296,
      "눼욧": 4297,
      "뉘였": 4298,
      "닙탸": 4299,
      "렇계": 4300,
      "룬톄": 4301,
      "릿댜": 4302,
      "븃싼": 4303,
      "뿐둘": 4304,
      "썬오": 4305,
      "썹오": 4306,
      "썽위": 4307,
      "야뉘": 4308,
      "얘뿌": 4309,
      "여써": 4310,
      "엾위": 4311,
      "옘악": 4312,
      "옛쩌": 4313,
      "온눈": 4314,
      "우몌": 4315,
      "위냐": 4316,
      "윔취": 4317,
      "졍멂": 4318,
      "쩐맣": 4319,
      "쩡걺": 4320,
      "쬐악": 4321,
      "췸꾸": 4322,
      "치햐": 4323,
      "칙건": 4324,
      "칵컥": 4325,
      "푼눈": 4326,
      "학곱": 4327,
      "한댜": 4328,
      "할류": 4329,
      "함케": 4330,
      "합꼬": 4331,
      "핫쎄": 4332,
      "해써": 4333,
      "헤요": 4334,
      "......": 4335,
      "★★★★": 4336,
      "괜짠": 4337,
      "꺽졍": 4338,
      "껙쉴": 4339,
      "넬오": 4340,
      "눼욘": 4341,
      "뉘튀": 4342,
      "닯룬": 4343,
      "뤽코": 4344,
      "릭꼬": 4345,
      "림댜": 4346,
      "볘위": 4347,
      "붙샨": 4348,
      "뷰싼": 4349,
      "뷴뜰": 4350,
      "뼈오": 4351,
      "섯셔": 4352,
      "싸쥔": 4353,
      "싸쟝뉨": 4354,
      "씁닢": 4355,
      "았써": 4356,
      "엘뤼": 4357,
      "옮먼": 4358,
      "왓눈뎨": 4359,
      "욤먼": 4360,
      "죃엇": 4361,
      "줍번": 4362,
      "쥔눈": 4363,
      "쥔챠": 4364,
      "쥩언": 4365,
      "추짜": 4366,
      "칙퀀": 4367,
      "탐먼": 4368,
      "편햐": 4369,
      "푸싼": 4370,
      "합니": 4371,
      "햐머": 4372,
      "헤쩌": 4373,
      "활짱": 4374,
      "홧창": 4375,
      "횬쟈": 4376,
      "갈큼": 4377,
      "까격": 4378,
      "껄끎": 4379,
      "껆꿈": 4380,
      "끼웨": 4381,
      "녀문": 4382,
      "녀뭄": 4383,
      "녀뭅": 4384,
      "녀뭇": 4385,
      "녜용": 4386,
      "뇰려": 4387,
      "눼욥": 4388,
      "닥갸": 4389,
      "뜯한": 4390,
      "람먼": 4391,
      "뤽교": 4392,
      "맞있": 4393,
      "받닥": 4394,
      "방예": 4395,
      "붇샨": 4396,
      "뷴틂": 4397,
      "샤어": 4398,
      "숲뤼댜": 4399,
      "슈엽": 4400,
      "쌍때": 4401,
      "쑤엉": 4402,
      "씩교": 4403,
      "악칸": 4404,
      "옐악": 4405,
      "요먼": 4406,
      "윌찌": 4407,
      "윙취": 4408,
      "음뭬": 4409,
      "잊꼬": 4410,
      "잋는": 4411,
      "젼허": 4412,
      "좋하": 4413,
      "죃훈": 4414,
      "쪼훈": 4415,
      "쭐쟝": 4416,
      "찍얹": 4417,
      "콩갼": 4418,
      "풋샨": 4419,
      "퓬듦": 4420,
      "학키": 4421,
      "항교": 4422,
      "햐찌": 4423,
      "황창": 4424,
      ".)": 4425,
      "27": 4426,
      "3읽": 4427,
      "견묽": 4428,
      "귁갸": 4429,
      "께꿎": 4430,
      "널교": 4431,
      "녀무": 4432,
      "녀묾": 4433,
      "념뭉": 4434,
      "눈뎁": 4435,
      "늑뀜": 4436,
      "렇케": 4437,
      "뤽갸": 4438,
      "많햐": 4439,
      "먾쪽": 4440,
      "방토": 4441,
      "뿐들": 4442,
      "쀼눈": 4443,
      "삣수": 4444,
      "샤쟝닒": 4445,
      "샹테": 4446,
      "샹황": 4447,
      "셔뷔": 4448,
      "셩위": 4449,
      "쉬눈": 4450,
      "싸창닒": 4451,
      "써써": 4452,
      "씁닝": 4453,
      "얘프": 4454,
      "억오": 4455,
      "엶쩡": 4456,
      "엾움": 4457,
      "엾음": 4458,
      "욺쉭": 4459,
      "움먼": 4460,
      "윗교": 4461,
      "쟝졈": 4462,
      "좋습": 4463,
      "좋녜오": 4464,
      "쥬찾": 4465,
      "쩔럼": 4466,
      "쩔렴": 4467,
      "쪼햐": 4468,
      "천먕": 4469,
      "췻쇼": 4470,
      "친눈": 4471,
      "카걱": 4472,
      "펀학": 4473,
      "표함": 4474,
      "한변": 4475,
      "함만": 4476,
      "헤줏": 4477,
      "홧쟝": 4478,
      "췬졀핫": 4479,
      "찐쩔햐": 4480,
      "2빡": 4481,
      "5뷴": 4482,
      "격졍": 4483,
      "깥운": 4484,
      "껆큼": 4485,
      "납뿌": 4486,
      "넸오": 4487,
      "뉜타": 4488,
      "뉠랴": 4489,
      "닉카": 4490,
      "닛쓰": 4491,
      "뤼여": 4492,
      "뤽꼬": 4493,
      "린눈": 4494,
      "방물": 4495,
      "서욧": 4496,
      "셧셔": 4497,
      "숀닒": 4498,
      "쉬썲": 4499,
      "싯썰": 4500,
      "싶운": 4501,
      "씨섧": 4502,
      "씬는": 4503,
      "씸만": 4504,
      "않앗": 4505,
      "얻써": 4506,
      "옐립": 4507,
      "옹핥": 4508,
      "요레": 4509,
      "욜레": 4510,
      "우뇨": 4511,
      "윌단": 4512,
      "윗찌": 4513,
      "음먼": 4514,
      "잊였": 4515,
      "적윈": 4516,
      "쩌렴": 4517,
      "쮸쩐": 4518,
      "청또": 4519,
      "췬쨔": 4520,
      "캬윤": 4521,
      "케꿋": 4522,
      "크련": 4523,
      "탁교": 4524,
      "퓌폐": 4525,
      "학굡": 4526,
      "한코": 4527,
      "합뤼댜": 4528,
      "햇눈뎨": 4529,
      "했는": 4530,
      "햐곧": 4531,
      "헤쑤": 4532,
      "헤욕": 4533,
      "헤율": 4534,
      "찐젊핫": 4535,
      "객쉰": 4536,
      "걋셩": 4537,
      "군썽": 4538,
      "까걱": 4539,
      "껱꿋": 4540,
      "끄련": 4541,
      "눼욕": 4542,
      "늑킴": 4543,
      "딱꼬": 4544,
      "랴운": 4545,
      "랴코": 4546,
      "룬뛔": 4547,
      "먼위": 4548,
      "먾촉": 4549,
      "복교": 4550,
      "부눈": 4551,
      "뷴눈": 4552,
      "셔써": 4553,
      "쇼뤼": 4554,
      "쌩각": 4555,
      "썼오": 4556,
      "썽삑": 4557,
      "앝쉽": 4558,
      "엌오": 4559,
      "욧썬": 4560,
      "용핥": 4561,
      "위서": 4562,
      "입옹": 4563,
      "좋앉": 4564,
      "좋한": 4565,
      "줍편": 4566,
      "쭙편": 4567,
      "챵문": 4568,
      "치건": 4569,
      "친는": 4570,
      "캬걱": 4571,
      "컨뮬": 4572,
      "팡물": 4573,
      "팡웨": 4574,
      "펀얀": 4575,
      "페위": 4576,
      "편햇": 4577,
      "푼틂": 4578,
      "풋싼": 4579,
      "퓻샨": 4580,
      "한퉤": 4581,
      "함교": 4582,
      "함꿰": 4583,
      "합리": 4584,
      "훑룽": 4585,
      "휨틀": 4586,
      "01": 4587,
      "깝뉘댜": 4588,
      "깟셩": 4589,
      "꺄치": 4590,
      "꿴챦": 4591,
      "냄세": 4592,
      "냔눈": 4593,
      "놓휴": 4594,
      "뉜댜": 4595,
      "뉨타": 4596,
      "닉교": 4597,
      "닐탸": 4598,
      "맆댜": 4599,
      "많쏙": 4600,
      "맛쥡": 4601,
      "명위": 4602,
      "명한": 4603,
      "뮈염": 4604,
      "뻥뮨": 4605,
      "셨셔": 4606,
      "숩닢": 4607,
      "숳뉘댜": 4608,
      "쉭깐": 4609,
      "싯섦": 4610,
      "싯셜": 4611,
      "싸친": 4612,
      "쌩꺅": 4613,
      "쐬교": 4614,
      "씁닙": 4615,
      "야셔": 4616,
      "얀뉘": 4617,
      "얻오": 4618,
      "얽오": 4619,
      "엉오": 4620,
      "역끼": 4621,
      "왓셔": 4622,
      "웬눈": 4623,
      "위칟": 4624,
      "윅교": 4625,
      "윅찌": 4626,
      "읾련": 4627,
      "잇욺": 4628,
      "있였": 4629,
      "잊샹": 4630,
      "잎뤼": 4631,
      "젼화": 4632,
      "쥐햐": 4633,
      "쩌럼": 4634,
      "쬐쿄": 4635,
      "찍교": 4636,
      "쳐욺": 4637,
      "캑쉰": 4638,
      "컨묾": 4639,
      "켁싫": 4640,
      "펀햇": 4641,
      "펀했": 4642,
      "포따": 4643,
      "푸됴": 4644,
      "합닢": 4645,
      "핫코": 4646,
      "햇눈떼": 4647,
      "했슈": 4648,
      "햐냐": 4649,
      "헤쥬": 4650,
      "~~!": 4651,
      "???": 4652,
      "첵쿠윈": 4653,
      "3씨": 4654,
      "깝뉘": 4655,
      "냑코": 4656,
      "녕뮤": 4657,
      "된는": 4658,
      "뒤션": 4659,
      "딱교": 4660,
      "똥위": 4661,
      "뙨는": 4662,
      "렛셔": 4663,
      "륀눈": 4664,
      "밞료": 4665,
      "뵤위": 4666,
      "뿐틀": 4667,
      "샤짱뉨": 4668,
      "샨짹": 4669,
      "쉭코": 4670,
      "쏜닒": 4671,
      "야쭈": 4672,
      "얀햐": 4673,
      "언오": 4674,
      "얼오": 4675,
      "엄오": 4676,
      "옥싫": 4677,
      "욘쩐": 4678,
      "우먼": 4679,
      "윌딴": 4680,
      "잊쿄": 4681,
      "쟝됴": 4682,
      "좋앞": 4683,
      "죃음": 4684,
      "칙안": 4685,
      "콴뉘": 4686,
      "타눈": 4687,
      "탐만": 4688,
      "편뤼": 4689,
      "편학": 4690,
      "푼들": 4691,
      "학곯": 4692,
      "학콥": 4693,
      "합닉": 4694,
      "핫쉰": 4695,
      "햇는뒈": 4696,
      "찐졀햐": 4697,
      "2퍅": 4698,
      "갼눈": 4699,
      "너왔": 4700,
      "녀뮨": 4701,
      "데료": 4702,
      "따눈": 4703,
      "땀먼": 4704,
      "떼뮨": 4705,
      "뗄뤼": 4706,
      "랴꼬": 4707,
      "뤼예": 4708,
      "륀는": 4709,
      "만운": 4710,
      "많쵁": 4711,
      "멱읊": 4712,
      "뮤뉘": 4713,
      "방은": 4714,
      "뱌댜": 4715,
      "빵웨": 4716,
      "뿐듦": 4717,
      "셍각": 4718,
      "쉬갼": 4719,
      "썩오": 4720,
      "썸오": 4721,
      "썽쇼": 4722,
      "얾썽": 4723,
      "옇짱": 4724,
      "운냐": 4725,
      "위칙": 4726,
      "윈취": 4727,
      "잊른": 4728,
      "좋눼오": 4729,
      "쥑권": 4730,
      "쥑컨": 4731,
      "쨩싫": 4732,
      "청됴": 4733,
      "청먄": 4734,
      "충예": 4735,
      "췌얕": 4736,
      "칟토": 4737,
      "캭컥": 4738,
      "타룬": 4739,
      "태문": 4740,
      "팡욺": 4741,
      "푸갸": 4742,
      "핏쓰": 4743,
      "학굘": 4744,
      "항꼬": 4745,
      "험먼": 4746,
      "헙뤼": 4747,
      "효깡": 4748,
      "횻텔": 4749,
      "1쭝": 4750,
      "6충": 4751,
      "zz": 4752,
      "곗쇽": 4753,
      "관뉘": 4754,
      "귄는": 4755,
      "꾸윈": 4756,
      "끄인": 4757,
      "눈덱": 4758,
      "댜교": 4759,
      "따룬": 4760,
      "뤼교": 4761,
      "붙싼": 4762,
      "빵됴": 4763,
      "삣쓰": 4764,
      "서욥": 4765,
      "셔요": 4766,
      "셩쑤": 4767,
      "셰용": 4768,
      "수탸": 4769,
      "숩님": 4770,
      "쉬칸": 4771,
      "쉰쭉": 4772,
      "슈엉쟝": 4773,
      "썽맒": 4774,
      "썽먈": 4775,
      "쑥빡": 4776,
      "씁닐": 4777,
      "씨는": 4778,
      "앉뉘": 4779,
      "았셔": 4780,
      "얀닌": 4781,
      "업오": 4782,
      "엇오": 4783,
      "엾룬": 4784,
      "옜써": 4785,
      "오쩡": 4786,
      "옥교": 4787,
      "윌련": 4788,
      "윗취": 4789,
      "윙찌": 4790,
      "잇엿": 4791,
      "잊댜": 4792,
      "쟝휘": 4793,
      "젊럼": 4794,
      "죃을": 4795,
      "중웨": 4796,
      "쥠먼": 4797,
      "쥬찻": 4798,
      "쩌오": 4799,
      "쩡말": 4800,
      "찍권": 4801,
      "쳐렴": 4802,
      "초흖": 4803,
      "췰잘": 4804,
      "치퀀": 4805,
      "캑찔": 4806,
      "켁씰": 4807,
      "켁쿳": 4808,
      "쿄오": 4809,
      "키예": 4810,
      "타음": 4811,
      "퇸눈": 4812,
      "편뉘": 4813,
      "푼한": 4814,
      "퓨캬": 4815,
      "핥교": 4816,
      "햄오": 4817,
      "헤슈": 4818,
      "헤욥": 4819,
      "효퉤": 4820,
      "횰텔": 4821,
      "ㅋㅋㅋㅋㅋ": 4822,
      "★★★★★": 4823,
      "1씅": 4824,
      "굴련": 4825,
      "귀눈": 4826,
      "깖금": 4827,
      "냔방": 4828,
      "네요": 4829,
      "뉠타": 4830,
      "뉩타": 4831,
      "단는": 4832,
      "두뤼": 4833,
      "뒷선": 4834,
      "뙤였": 4835,
      "려었": 4836,
      "모텔": 4837,
      "묵눈": 4838,
      "분듦": 4839,
      "빚수": 4840,
      "뻘료": 4841,
      "뻥위": 4842,
      "쉿썲": 4843,
      "슈앙": 4844,
      "싸쟝": 4845,
      "쏘음": 4846,
      "쑤엉쟝": 4847,
      "쑥퍅": 4848,
      "씁닐댜": 4849,
      "씸먼": 4850,
      "얀뉜": 4851,
      "엊오": 4852,
      "역귀": 4853,
      "엾여": 4854,
      "예눈": 4855,
      "옐뤼": 4856,
      "옙악": 4857,
      "옥죠": 4858,
      "완뼉": 4859,
      "우로": 4860,
      "움면": 4861,
      "윈위": 4862,
      "윤치": 4863,
      "을료": 4864,
      "임옹": 4865,
      "잇엊": 4866,
      "있쿄": 4867,
      "잊엿": 4868,
      "쟝쩜": 4869,
      "좋읊": 4870,
      "좋숩뉘": 4871,
      "쥬번": 4872,
      "쮸챠": 4873,
      "출쟝": 4874,
      "췰찰": 4875,
      "탈른": 4876,
      "펜산": 4877,
      "학콜": 4878,
      "한펀": 4879,
      "함꼬": 4880,
      "좋햐요": 4881,
      "5셩굽": 4882,
      "슈옇쟝": 4883,
      "2만": 4884,
      "갹꺄": 4885,
      "구련": 4886,
      "긷됴": 4887,
      "난눈": 4888,
      "닥교": 4889,
      "닿휘": 4890,
      "데한": 4891,
      "떤눈": 4892,
      "랴됴": 4893,
      "뤼눈": 4894,
      "맛윗": 4895,
      "묘튼": 4896,
      "묵얻": 4897,
      "빚쓰": 4898,
      "뿐뜰": 4899,
      "쀼캬": 4900,
      "샤찐": 4901,
      "숲닢": 4902,
      "숳뉘": 4903,
      "싣썲": 4904,
      "써왜": 4905,
      "씁닌": 4906,
      "씁닛댜": 4907,
      "씨갼": 4908,
      "씨눈": 4909,
      "씩칸": 4910,
      "씸데": 4911,
      "없오": 4912,
      "에써": 4913,
      "옅셔": 4914,
      "왓눈테": 4915,
      "요썬": 4916,
      "웰립": 4917,
      "읊뇨": 4918,
      "있코": 4919,
      "잊썼": 4920,
      "잊엇": 4921,
      "잎옹": 4922,
      "져럼": 4923,
      "좋곳": 4924,
      "좋곶": 4925,
      "좋얍": 4926,
      "쥬찼": 4927,
      "짱문": 4928,
      "짱운": 4929,
      "쨍갹": 4930,
      "쫓쉭": 4931,
      "쬐얕": 4932,
      "찐규": 4933,
      "찐챠": 4934,
      "천맣": 4935,
      "청위": 4936,
      "추찼": 4937,
      "췰젼": 4938,
      "캑끅": 4939,
      "콴뤽": 4940,
      "큰냥": 4941,
      "탬문": 4942,
      "툴위": 4943,
      "펀뉘": 4944,
      "폼먼": 4945,
      "학곶": 4946,
      "한테": 4947,
      "한톄": 4948,
      "핫셔": 4949,
      "햐곡": 4950,
      "헵편": 4951,
      "홧짱": 4952,
      "횻뗄": 4953,
      "찐젊햐": 4954,
      "꽝얀뤼": 4955,
      "1퍅": 4956,
      "2읾": 4957,
      "5쩡": 4958,
      "5충": 4959,
      "70": 4960,
      "9충": 4961,
      "ㄷㄷ": 4962,
      "ㅠㅜ": 4963,
      "객찔": 4964,
      "깐는": 4965,
      "끄낭": 4966,
      "닛수": 4967,
      "닝탸": 4968,
      "댜른": 4969,
      "댜쉬": 4970,
      "됩뉘": 4971,
      "떼위": 4972,
      "랴는": 4973,
      "롓셔": 4974,
      "만끎": 4975,
      "맞잊": 4976,
      "매유": 4977,
      "먀음": 4978,
      "멂뮬": 4979,
      "못한": 4980,
      "방툐": 4981,
      "복꼬": 4982,
      "뵤윈": 4983,
      "뵤탸": 4984,
      "빵물": 4985,
      "뿌싼": 4986,
      "셔율": 4987,
      "쉼먼": 4988,
      "슡쏘": 4989,
      "싫먕": 4990,
      "싸옹": 4991,
      "싸찐": 4992,
      "씬썰": 4993,
      "씬쭉": 4994,
      "악갼": 4995,
      "악깐": 4996,
      "야웃": 4997,
      "얏셔": 4998,
      "얘아": 4999,
      "얘졍": 5000,
      "어끼": 5001,
      "언략": 5002,
      "얽요": 5003,
      "엎는": 5004,
      "엘닙": 5005,
      "엾코": 5006,
      "오청": 5007,
      "왓눈": 5008,
      "요면": 5009,
      "욤면": 5010,
      "욧산": 5011,
      "우뮈": 5012,
      "운료": 5013,
      "웰뤼": 5014,
      "위썼": 5015,
      "위엇": 5016,
      "읫샤": 5017,
      "읽단": 5018,
      "있른": 5019,
      "쟝샤": 5020,
      "좋곧": 5021,
      "좋않": 5022,
      "중위": 5023,
      "쥐권": 5024,
      "쩡뷔": 5025,
      "쩡쑈": 5026,
      "창맑": 5027,
      "챵싫": 5028,
      "천화": 5029,
      "캅뉘댜": 5030,
      "쾅얄": 5031,
      "쾐챦": 5032,
      "태뮨": 5033,
      "탸움": 5034,
      "통위": 5035,
      "펜셜": 5036,
      "학곧": 5037,
      "한뻔": 5038,
      "핥오": 5039,
      "함며": 5040,
      "합닒": 5041,
      "합닒댜": 5042,
      "합닝댜": 5043,
      "행오": 5044,
      "햐따": 5045,
      "헉께": 5046,
      "헤욤": 5047,
      "횹텔": 5048,
      "200": 5049,
      "헤윤데": 5050,
      "갊면": 5051,
      "객끝": 5052,
      "격청": 5053,
      "꺅격": 5054,
      "껙씰": 5055,
      "냐요": 5056,
      "뉨따": 5057,
      "닛탸": 5058,
      "닭룬": 5059,
      "댜만": 5060,
      "델링": 5061,
      "됨면": 5062,
      "땀만": 5063,
      "렸셔": 5064,
      "론투": 5065,
      "만죠": 5066,
      "맡짚": 5067,
      "멂묾": 5068,
      "받따": 5069,
      "받탁": 5070,
      "밟료": 5071,
      "뷔뻬": 5072,
      "뽀따": 5073,
      "쀼는": 5074,
      "셍캭": 5075,
      "숩뤼댜": 5076,
      "쉬교": 5077,
      "쉼면": 5078,
      "슉숄": 5079,
      "쌓테": 5080,
      "썽결": 5081,
      "쑤쳔": 5082,
      "앉운": 5083,
      "않앝": 5084,
      "얩프": 5085,
      "옹위": 5086,
      "완벅": 5087,
      "왈젼": 5088,
      "위얻": 5089,
      "위웨": 5090,
      "윈뛔": 5091,
      "윌취": 5092,
      "윤옇": 5093,
      "있었": 5094,
      "잎니": 5095,
      "좋합": 5096,
      "죠슅": 5097,
      "죡끔": 5098,
      "쥐먼": 5099,
      "쥐컨": 5100,
      "진차": 5101,
      "쯥뉘타": 5102,
      "창맒": 5103,
      "천쳬": 5104,
      "쳐럼": 5105,
      "켠팃": 5106,
      "쾅얺": 5107,
      "키웨": 5108,
      "타틋": 5109,
      "토한": 5110,
      "퍄댜": 5111,
      "푸까": 5112,
      "하코": 5113,
      "학굣": 5114,
      "합교": 5115,
      "핫셨": 5116,
      "했는뒈": 5117,
      "햐곰": 5118,
      "햐취": 5119,
      "햐켸": 5120,
      "헹복": 5121,
      "황짱": 5122,
      "힐링": 5123,
      "췬쩔햐": 5124,
      "1팏": 5125,
      "갖쥐": 5126,
      "갚뉘": 5127,
      "개꿋": 5128,
      "깜먼": 5129,
      "꺄걱": 5130,
      "께오": 5131,
      "꽝얄": 5132,
      "꽤척": 5133,
      "냄쌕": 5134,
      "냔팡": 5135,
      "넓코": 5136,
      "념뮬": 5137,
      "닥카": 5138,
      "댜많": 5139,
      "둘려": 5140,
      "땅한": 5141,
      "랴셔": 5142,
      "레된": 5143,
      "룬퉤": 5144,
      "릭교": 5145,
      "립부": 5146,
      "많끔": 5147,
      "맞짚": 5148,
      "먼촉": 5149,
      "벤션": 5150,
      "뻥문": 5151,
      "샤짱": 5152,
      "서욕": 5153,
      "숩닒": 5154,
      "숲뤼": 5155,
      "쉭꼬": 5156,
      "쉭쿄": 5157,
      "싫맣": 5158,
      "썽맑": 5159,
      "쑵뉘따": 5160,
      "앝쒸": 5161,
      "업는": 5162,
      "옷션": 5163,
      "완졀": 5164,
      "운뒈": 5165,
      "욹료": 5166,
      "윈냐": 5167,
      "윌떼": 5168,
      "읽랗": 5169,
      "읽련": 5170,
      "잉옹": 5171,
      "잊써": 5172,
      "좋곰": 5173,
      "쥔쌰": 5174,
      "쩌욺": 5175,
      "쩐화": 5176,
      "쭝웨": 5177,
      "찌먾": 5178,
      "찍껀": 5179,
      "칱언": 5180,
      "칱원": 5181,
      "켱위": 5182,
      "퀸눈": 5183,
      "타는": 5184,
      "트립": 5185,
      "틂뤼": 5186,
      "틂위": 5187,
      "퍼오": 5188,
      "펀앉": 5189,
      "펀휘": 5190,
      "폐위": 5191,
      "퓌뻬": 5192,
      "하꼬": 5193,
      "학굔": 5194,
      "핥코": 5195,
      "함마": 5196,
      "함코": 5197,
      "핫꼬": 5198,
      "핫씹": 5199,
      "햇숲": 5200,
      "했뎐": 5201,
      "했는떼": 5202,
      "헉궤": 5203,
      "헤쭈": 5204,
      "헹폭": 5205,
      "홅텐": 5206,
      "확인": 5207,
      "환창": 5208,
      "효뗄위": 5209,
      "17": 5210,
      "3명": 5211,
      "3셩": 5212,
      "4윌": 5213,
      "?!": 5214,
      "PC": 5215,
      "곶위": 5216,
      "구런": 5217,
      "군냥": 5218,
      "굴런": 5219,
      "까윤": 5220,
      "깹슐": 5221,
      "껀띳": 5222,
      "껀묾": 5223,
      "께굿": 5224,
      "껱끝": 5225,
      "냐눈": 5226,
      "냐왔": 5227,
      "냐욘": 5228,
      "넒뮬": 5229,
      "넒뮴": 5230,
      "넵뷰": 5231,
      "녀뭉": 5232,
      "눈뎄": 5233,
      "댜는": 5234,
      "댜씨": 5235,
      "데뷔": 5236,
      "듦여": 5237,
      "땀많": 5238,
      "뗌뮤": 5239,
      "립뉘댜": 5240,
      "만족": 5241,
      "만죹": 5242,
      "많죠": 5243,
      "맞찝": 5244,
      "먀댜": 5245,
      "묫함": 5246,
      "뮬위": 5247,
      "부또": 5248,
      "빵예": 5249,
      "뼝읽": 5250,
      "셔욹": 5251,
      "셰왜": 5252,
      "솖뤼": 5253,
      "숀눈": 5254,
      "쉬뤼": 5255,
      "쉬셔": 5256,
      "썲오": 5257,
      "쑥숄": 5258,
      "쒜오": 5259,
      "씸많": 5260,
      "않눈": 5261,
      "았쒸": 5262,
      "얀흖": 5263,
      "억키": 5264,
      "에셔": 5265,
      "에오": 5266,
      "엶오": 5267,
      "엽숨": 5268,
      "엽씨": 5269,
      "엾댜": 5270,
      "옮면": 5271,
      "요산": 5272,
      "욘는": 5273,
      "우롬": 5274,
      "울뇨": 5275,
      "웅데": 5276,
      "위칫": 5277,
      "윈랴": 5278,
      "윕쉴": 5279,
      "윗셍": 5280,
      "윗써": 5281,
      "익교": 5282,
      "있욺": 5283,
      "잎뿌": 5284,
      "져휘": 5285,
      "졍툐": 5286,
      "좋골": 5287,
      "좋넬": 5288,
      "죡큼": 5289,
      "쩨윌": 5290,
      "쭙뉘": 5291,
      "창릶": 5292,
      "쵸쉭": 5293,
      "췸떼": 5294,
      "츄쳘": 5295,
      "콴꽝": 5296,
      "큰쩌": 5297,
      "탁캬": 5298,
      "퇴교": 5299,
      "파료": 5300,
      "팡툐": 5301,
      "퓬는": 5302,
      "한교": 5303,
      "한국": 5304,
      "합님": 5305,
      "핫써": 5306,
      "햐쥐많": 5307,
      "향위": 5308,
      "헤욧": 5309,
      "헤울": 5310,
      "헤춧": 5311,
      "...?": 5312,
      "효텔위": 5313,
      "좋앗씁": 5314,
      "좋얏셔": 5315,
      "2022": 5316,
      "ㅋㅋㅋㅋㅋㅋ": 5317,
      "☆☆☆☆": 5318,
      "6쯩": 5319,
      "갼는": 5320,
      "귀예": 5321,
      "깐눈": 5322,
      "깝뻬": 5323,
      "꺈큼": 5324,
      "꿴찬": 5325,
      "냔는": 5326,
      "넒뮷": 5327,
      "놓교": 5328,
      "뉜따": 5329,
      "닥꼬": 5330,
      "닫쉬": 5331,
      "댜갸": 5332,
      "떠뉘": 5333,
      "랴교": 5334,
      "리타": 5335,
      "림따": 5336,
      "만끔": 5337,
      "많훈": 5338,
      "맞쥡": 5339,
      "먕위": 5340,
      "뮨줴": 5341,
      "방읊": 5342,
      "벤선": 5343,
      "부꺄": 5344,
      "뷔수": 5345,
      "뷔헤": 5346,
      "뿍씬": 5347,
      "뿐눈": 5348,
      "뿟샨": 5349,
      "쉬는": 5350,
      "쉼함": 5351,
      "싸청": 5352,
      "싼첵": 5353,
      "썽오": 5354,
      "썽켤": 5355,
      "쓰탸": 5356,
      "씨교": 5357,
      "씨깐": 5358,
      "앉았": 5359,
      "않닉": 5360,
      "얘왜": 5361,
      "얘욘": 5362,
      "예억": 5363,
      "옛션": 5364,
      "옥짱": 5365,
      "옷선": 5366,
      "윈퉤": 5367,
      "인텔": 5368,
      "읾단": 5369,
      "잃련": 5370,
      "잇른": 5371,
      "잇얻": 5372,
      "잊숩": 5373,
      "잊옹": 5374,
      "쟈쩨": 5375,
      "졉군셩": 5376,
      "좃쉭": 5377,
      "좋곤": 5378,
      "좋함": 5379,
      "쥐는": 5380,
      "쥘쨔": 5381,
      "쥬편": 5382,
      "쫴꼬": 5383,
      "쮜많": 5384,
      "쯥뤼": 5385,
      "찌건": 5386,
      "찍컨": 5387,
      "찜먾": 5388,
      "찜쿠": 5389,
      "청멂": 5390,
      "쳔맣": 5391,
      "췌고": 5392,
      "츄썬": 5393,
      "츌쟝": 5394,
      "치먾": 5395,
      "침먼": 5396,
      "침먾": 5397,
      "캬격": 5398,
      "컥졍": 5399,
      "켱혐": 5400,
      "큰쳐": 5401,
      "퇸는": 5402,
      "튜쑥": 5403,
      "햐귀": 5404,
      "헉계": 5405,
      "홑텐": 5406,
      "훑륭": 5407,
      "휵끼": 5408,
      "힌륑": 5409,
      "췬절햐": 5410,
      "첵끄인": 5411,
      "광얀뤼": 5412,
      "화짱싫": 5413,
      "황쟝씰": 5414,
      "1인": 5415,
      "가쥐": 5416,
      "갸눈": 5417,
      "곪빵": 5418,
      "공깐": 5419,
      "공샤": 5420,
      "깃됴": 5421,
      "깝교": 5422,
      "껀티": 5423,
      "꽁샤": 5424,
      "꾄챦": 5425,
      "꾜오": 5426,
      "꾸오": 5427,
      "꿴짢": 5428,
      "끄냥": 5429,
      "냄섹": 5430,
      "넥요": 5431,
      "넹쟝": 5432,
      "눈델": 5433,
      "뉨위": 5434,
      "는델": 5435,
      "닙떠": 5436,
      "닳룬": 5437,
      "두려": 5438,
      "딸른": 5439,
      "뜩휘": 5440,
      "랐셔": 5441,
      "략쿄": 5442,
      "렘삥": 5443,
      "렘쌔": 5444,
      "련투": 5445,
      "룝삐": 5446,
      "뤽까": 5447,
      "만셔": 5448,
      "맞댜": 5449,
      "맡잊": 5450,
      "몽텔": 5451,
      "부를": 5452,
      "분틀": 5453,
      "붊펀": 5454,
      "붓싼": 5455,
      "뷴뉘": 5456,
      "빗수": 5457,
      "뻔쩨": 5458,
      "뽀함": 5459,
      "쀼토": 5460,
      "삐쓰": 5461,
      "샤용": 5462,
      "션위": 5463,
      "쉬쩔": 5464,
      "쉿설": 5465,
      "습뉘댜": 5466,
      "썬땍": 5467,
      "쏘뤼": 5468,
      "쓴눈": 5469,
      "씬젼": 5470,
      "씸함": 5471,
      "압예": 5472,
      "었씁": 5473,
      "엾엊": 5474,
      "엾쿄": 5475,
      "옌약": 5476,
      "옘약": 5477,
      "옥씰": 5478,
      "욕죠": 5479,
      "욕창": 5480,
      "용햐": 5481,
      "웨눈": 5482,
      "위런": 5483,
      "윅코": 5484,
      "윈쌩": 5485,
      "윌랗": 5486,
      "윕뤼댜": 5487,
      "윤엉": 5488,
      "인냐": 5489,
      "읾량": 5490,
      "있꾜": 5491,
      "쟝운": 5492,
      "젼활": 5493,
      "졍돎": 5494,
      "졔윌": 5495,
      "죃꽤": 5496,
      "줴윌": 5497,
      "쩍인": 5498,
      "쪼흖": 5499,
      "찐는": 5500,
      "창졈": 5501,
      "천활": 5502,
      "촉끔": 5503,
      "췰잚": 5504,
      "츄짜": 5505,
      "친챠": 5506,
      "칸눈": 5507,
      "캇썽": 5508,
      "켐핑": 5509,
      "켠딪": 5510,
      "쿤쳐": 5511,
      "타많": 5512,
      "통얀": 5513,
      "틀여": 5514,
      "펴오": 5515,
      "푿떠": 5516,
      "퓨됴": 5517,
      "하꾜": 5518,
      "하오": 5519,
      "학콕": 5520,
      "햐골": 5521,
      "햐키": 5522,
      "화청": 5523,
      "환샹": 5524,
      "좋야욤": 5525,
      "위옹핥": 5526,
      "위옹했": 5527,
      "헤윤때": 5528,
      "5썽굽": 5529,
      "**": 5530,
      "1됴": 5531,
      "4충": 5532,
      "5만": 5533,
      "각컥": 5534,
      "곗쏙": 5535,
      "굔는": 5536,
      "구냥": 5537,
      "껄꿈": 5538,
      "꽁칸": 5539,
      "꾄짢": 5540,
      "냑꼬": 5541,
      "눈뎀": 5542,
      "뉘띠": 5543,
      "뉘수": 5544,
      "뉩따": 5545,
      "데삐": 5546,
      "델료": 5547,
      "둘됴": 5548,
      "뒈눈": 5549,
      "듦렸": 5550,
      "따른": 5551,
      "뙨눈": 5552,
      "뚤위": 5553,
      "뛔여": 5554,
      "뜻한": 5555,
      "람면": 5556,
      "렴묻": 5557,
      "례왜": 5558,
      "뤼꼬": 5559,
      "뤼코": 5560,
      "륄를": 5561,
      "립따": 5562,
      "맏짚": 5563,
      "먼쥐": 5564,
      "메우": 5565,
      "메욺": 5566,
      "메웅": 5567,
      "며뮬": 5568,
      "면쥐": 5569,
      "몌됴": 5570,
      "몸텔": 5571,
      "뮨위": 5572,
      "부는": 5573,
      "붉편": 5574,
      "빻됴": 5575,
      "뻔뤼": 5576,
      "뿌됴": 5577,
      "뿐위": 5578,
      "쀼가": 5579,
      "셔왜": 5580,
      "셔욺": 5581,
      "셥빛": 5582,
      "셧써": 5583,
      "숙쏘": 5584,
      "숩닛댜": 5585,
      "쉐욤": 5586,
      "슈얍": 5587,
      "슉쏜": 5588,
      "썽슉": 5589,
      "쒸눈": 5590,
      "씁닙댜": 5591,
      "씬잚": 5592,
      "씬켱": 5593,
      "앉앝": 5594,
      "야씸": 5595,
      "야요": 5596,
      "얘요": 5597,
      "엎위": 5598,
      "역껀": 5599,
      "역오": 5600,
      "엶청": 5601,
      "옅써": 5602,
      "옇창": 5603,
      "옙뿌": 5604,
      "완썬": 5605,
      "욕씰": 5606,
      "위뚜": 5607,
      "위샹": 5608,
      "위헤": 5609,
      "윌량": 5610,
      "윌쮜": 5611,
      "윗쌍": 5612,
      "윤태": 5613,
      "인퉤": 5614,
      "읽탄": 5615,
      "잊움": 5616,
      "잎닌": 5617,
      "젼췌": 5618,
      "좋곱": 5619,
      "좋콤": 5620,
      "죡굼": 5621,
      "줏씩": 5622,
      "쩍윈": 5623,
      "쩨오": 5624,
      "쭉쏘": 5625,
      "쭙변": 5626,
      "찾쟝": 5627,
      "첵갸": 5628,
      "쵯샹": 5629,
      "췌꾜": 5630,
      "췬는": 5631,
      "췸쿠": 5632,
      "츄챠": 5633,
      "치권": 5634,
      "카찌": 5635,
      "켁꿎": 5636,
      "켁끗": 5637,
      "콴광": 5638,
      "탭뷔": 5639,
      "팡토": 5640,
      "퍄료": 5641,
      "펄료": 5642,
      "푼뜰": 5643,
      "푼윅": 5644,
      "퓨샨": 5645,
      "퓬틀": 5646,
      "피쓰": 5647,
      "학꼽": 5648,
      "합뉨": 5649,
      "핫식": 5650,
      "핫찌": 5651,
      "햇는뎨": 5652,
      "했쩌": 5653,
      "햐곪": 5654,
      "횃뗄": 5655,
      "ㅎㅎㅎㅎ": 5656,
      "2023": 5657,
      "췬젊햐": 5658,
      "죃야오": 5659,
      "첵쿠인": 5660,
      "헤운데": 5661,
      "광앉뤼": 5662,
      "2게": 5663,
      "6많": 5664,
      "갊먼": 5665,
      "갸셩": 5666,
      "갸썽": 5667,
      "갸죡": 5668,
      "갼딴": 5669,
      "광얄": 5670,
      "구료": 5671,
      "긺를": 5672,
      "까꺽": 5673,
      "깝폐": 5674,
      "냐교": 5675,
      "뉘랴": 5676,
      "닉꾜": 5677,
      "닉탸": 5678,
      "닮베": 5679,
      "닿윌": 5680,
      "댈료": 5681,
      "럶묽": 5682,
      "렘세": 5683,
      "렵교": 5684,
      "룝뷔": 5685,
      "뤽캬": 5686,
      "릭꺄": 5687,
      "만흖": 5688,
      "많흖": 5689,
      "맏쥡": 5690,
      "방또": 5691,
      "부토": 5692,
      "붇텨": 5693,
      "뷰떠": 5694,
      "뷰산": 5695,
      "샤창뉨": 5696,
      "섕각": 5697,
      "섕꺅": 5698,
      "섕캭": 5699,
      "섧오": 5700,
      "섶빛": 5701,
      "셔욘": 5702,
      "순눈": 5703,
      "슉쪼": 5704,
      "슴먼": 5705,
      "신눈": 5706,
      "썬눈": 5707,
      "쎄욘": 5708,
      "쎄욤": 5709,
      "쑤챠": 5710,
      "앉네": 5711,
      "앎청": 5712,
      "았쉽": 5713,
      "얍뻬": 5714,
      "언한": 5715,
      "엇써": 5716,
      "여멘": 5717,
      "염창": 5718,
      "옅오": 5719,
      "욕꼬": 5720,
      "우면": 5721,
      "운떼": 5722,
      "움뭬": 5723,
      "위써": 5724,
      "윈뗄": 5725,
      "윈셍": 5726,
      "윗룬": 5727,
      "윗여": 5728,
      "읗태": 5729,
      "인뒈": 5730,
      "인뗄": 5731,
      "잃옹": 5732,
      "있타": 5733,
      "잊서": 5734,
      "잊음": 5735,
      "잎씰": 5736,
      "잎뉘탸": 5737,
      "젼쳬": 5738,
      "졀데": 5739,
      "좋공": 5740,
      "좋궤": 5741,
      "좋학": 5742,
      "좋항": 5743,
      "좋숲뉘": 5744,
      "쥬윈": 5745,
      "짱또": 5746,
      "쩡삐": 5747,
      "쭈엌": 5748,
      "쭙번": 5749,
      "찐굳": 5750,
      "찐꾸": 5751,
      "찾창": 5752,
      "철럼": 5753,
      "청토": 5754,
      "춥번": 5755,
      "츄엌": 5756,
      "카먼": 5757,
      "칵꺽": 5758,
      "캬운": 5759,
      "콧위": 5760,
      "콴릭": 5761,
      "쾐짢": 5762,
      "크낭": 5763,
      "탸뜯": 5764,
      "팎웨": 5765,
      "팡또": 5766,
      "푸탑": 5767,
      "하쿄": 5768,
      "학콧": 5769,
      "한낟": 5770,
      "합닝타": 5771,
      "핫쉐": 5772,
      "행복": 5773,
      "햐뉘": 5774,
      "허교": 5775,
      "헉케": 5776,
      "홰텔": 5777,
      "홽텔": 5778,
      "효컁": 5779,
      "좋았숲": 5780,
      "좋앝숩": 5781,
      "좋앝여오": 5782,
      "씁뉘터": 5783,
      "화창씰": 5784,
      "3쉬": 5785,
      "3썽": 5786,
      "값뉘댜": 5787,
      "갸면": 5788,
      "갸셩뷔": 5789,
      "귄눈": 5790,
      "껀딪": 5791,
      "께끅": 5792,
      "꽤적": 5793,
      "꾜똥": 5794,
      "끊낭": 5795,
      "끌련": 5796,
      "끽갸": 5797,
      "냐왓": 5798,
      "녔뮤": 5799,
      "녜욥": 5800,
      "뉠탸": 5801,
      "됩뉘댜": 5802,
      "따는": 5803,
      "딱카": 5804,
      "딱코": 5805,
      "똥얀": 5806,
      "랸는": 5807,
      "렛써": 5808,
      "렵꼬": 5809,
      "뤼얻": 5810,
      "륄룰": 5811,
      "륩쁘": 5812,
      "먀따": 5813,
      "묘델륑": 5814,
      "뮌한": 5815,
      "방웨": 5816,
      "뵨뉘": 5817,
      "뷰뉘": 5818,
      "빵욺": 5819,
      "빻운": 5820,
      "뻔위": 5821,
      "뿌텨": 5822,
      "뿔편": 5823,
      "쁘룐": 5824,
      "살람": 5825,
      "섯써": 5826,
      "섶삐": 5827,
      "쉿쩔": 5828,
      "싶울": 5829,
      "쌍닒": 5830,
      "쑥솥": 5831,
      "씩갸": 5832,
      "씩언": 5833,
      "엑셔": 5834,
      "엾꼬": 5835,
      "엾였": 5836,
      "옜약": 5837,
      "옻썬": 5838,
      "울롤": 5839,
      "웨또": 5840,
      "웬는": 5841,
      "위는": 5842,
      "위쓺": 5843,
      "위씨": 5844,
      "윌눈": 5845,
      "윗서": 5846,
      "잇씁": 5847,
      "젊위": 5848,
      "젊은": 5849,
      "졀럼": 5850,
      "졍돐": 5851,
      "좃씩": 5852,
      "좋얄": 5853,
      "좋할": 5854,
      "죃고": 5855,
      "죃숲": 5856,
      "죠왱": 5857,
      "직원": 5858,
      "진쨔": 5859,
      "쩡또": 5860,
      "쫴약": 5861,
      "청껼": 5862,
      "청말": 5863,
      "첵구": 5864,
      "췬굳": 5865,
      "췸큐": 5866,
      "칙갸": 5867,
      "카운": 5868,
      "케끗": 5869,
      "켁쉴": 5870,
      "켠띠": 5871,
      "펀헷": 5872,
      "편얀": 5873,
      "편휘": 5874,
      "푿싼": 5875,
      "퓨눈": 5876,
      "학꼐": 5877,
      "학꿰": 5878,
      "합릭": 5879,
      "합닒타": 5880,
      "핫쉼": 5881,
      "했는뎨": 5882,
      "헵번": 5883,
      "횅텔": 5884,
      "좋았여오": 5885,
      "좋앗숩": 5886,
      "찐철햐": 5887,
      "칼큼한": 5888,
      "2효": 5889,
      "3잃": 5890,
      "500": 5891,
      "80": 5892,
      "IP": 5893,
      "….": 5894,
      "갊싸": 5895,
      "갖죡": 5896,
      "꺁싫": 5897,
      "꼇됴": 5898,
      "끝한": 5899,
      "낀는": 5900,
      "난는": 5901,
      "냐는": 5902,
      "냐룸": 5903,
      "냐욥": 5904,
      "넴쎄": 5905,
      "념뮴": 5906,
      "누료": 5907,
      "눈덴": 5908,
      "눈찌": 5909,
      "눙한": 5910,
      "뎁뷔": 5911,
      "돼엊": 5912,
      "뒈셔": 5913,
      "따윌": 5914,
      "때료": 5915,
      "뚜슉": 5916,
      "뜨뤼": 5917,
      "락꼬": 5918,
      "랴눈": 5919,
      "랴또": 5920,
      "럇셔": 5921,
      "러왓": 5922,
      "런찌": 5923,
      "럶뭅": 5924,
      "렌많": 5925,
      "뤼쿄": 5926,
      "린는": 5927,
      "릶타": 5928,
      "만움": 5929,
      "먕잎": 5930,
      "몃쥔": 5931,
      "모뗄": 5932,
      "몽뗄": 5933,
      "묘투": 5934,
      "묠룩": 5935,
      "묵울": 5936,
      "뮨읊": 5937,
      "밂뤼": 5938,
      "밝료": 5939,
      "밭댜": 5940,
      "뵨눈": 5941,
      "뷴는": 5942,
      "뷴든": 5943,
      "빵잇": 5944,
      "뻔한": 5945,
      "샤위": 5946,
      "선쀼": 5947,
      "숀뉨": 5948,
      "숳뤼": 5949,
      "숳뉘타": 5950,
      "쉐왜": 5951,
      "슉퍅": 5952,
      "싣삶": 5953,
      "싣설": 5954,
      "쌍위": 5955,
      "써욹": 5956,
      "써율": 5957,
      "쎄요": 5958,
      "씨먼": 5959,
      "씩코": 5960,
      "아헹": 5961,
      "악귀": 5962,
      "앉뉜": 5963,
      "앉오": 5964,
      "얀닒": 5965,
      "얘욤": 5966,
      "엇셔": 5967,
      "엾얻": 5968,
      "예됴": 5969,
      "옻셜": 5970,
      "완전": 5971,
      "욘됴": 5972,
      "우롤": 5973,
      "우뭬": 5974,
      "울롭": 5975,
      "움식": 5976,
      "웅태": 5977,
      "위엊": 5978,
      "위틂": 5979,
      "윗꼬": 5980,
      "윗섕": 5981,
      "윗서써": 5982,
      "읊롤": 5983,
      "음몌": 5984,
      "읾런": 5985,
      "잇댜": 5986,
      "있서": 5987,
      "있셔": 5988,
      "잊셔": 5989,
      "절렴": 5990,
      "젊운": 5991,
      "좋계": 5992,
      "좋따": 5993,
      "좋얌": 5994,
      "죃훔": 5995,
      "죠식": 5996,
      "줍변": 5997,
      "쥑월": 5998,
      "쥩원": 5999,
      "쥬싸": 6000,
      "쩡멂": 6001,
      "쮸쳔": 6002,
      "찜먼": 6003,
      "창됴": 6004,
      "쳍쿠": 6005,
      "쵸흖": 6006,
      "충에": 6007,
      "췌꽤": 6008,
      "췸테": 6009,
      "칙컨": 6010,
      "카오": 6011,
      "칸는": 6012,
      "캅뻬": 6013,
      "캐끅": 6014,
      "캡슐": 6015,
      "캬면": 6016,
      "켱취": 6017,
      "쿨련": 6018,
      "타툿": 6019,
      "탄한": 6020,
      "탐많": 6021,
      "탐빼": 6022,
      "펜눈": 6023,
      "푸샨": 6024,
      "푿샨": 6025,
      "픽갸": 6026,
      "학콩": 6027,
      "학퀴": 6028,
      "합닌": 6029,
      "합립": 6030,
      "항코": 6031,
      "항쿄": 6032,
      "해운": 6033,
      "햇는테": 6034,
      "행운": 6035,
      "햐짖": 6036,
      "헐신": 6037,
      "험면": 6038,
      "헤됴": 6039,
      "헤욘": 6040,
      "헤욜": 6041,
      "헤추": 6042,
      "헷슈": 6043,
      "홈뻬": 6044,
      "확창": 6045,
      "환쌍": 6046,
      "효뛔": 6047,
      "휴귀": 6048,
      "힐뉭": 6049,
      "10쉬": 6050,
      "좋얏써": 6051,
      "방뮨할": 6052,
      "방문핥": 6053,
      "방움위": 6054,
      "--------": 6055,
      "1젊": 6056,
      "3펀": 6057,
      "5많": 6058,
      "갇탸": 6059,
      "객신": 6060,
      "갸카": 6061,
      "갹꺽": 6062,
      "갹켝": 6063,
      "긷토": 6064,
      "까컥": 6065,
      "깔쿰": 6066,
      "깩꿎": 6067,
      "꺅걱": 6068,
      "껄큼": 6069,
      "꽝얺": 6070,
      "끊썽": 6071,
      "냄색": 6072,
      "냘룸": 6073,
      "널꼬": 6074,
      "네왜": 6075,
      "녑뮤": 6076,
      "놓코": 6077,
      "눈텔": 6078,
      "는뎅": 6079,
      "능한": 6080,
      "닮면": 6081,
      "댜먼": 6082,
      "댜쒸": 6083,
      "돼였": 6084,
      "딴는": 6085,
      "뙤눈": 6086,
      "램삥": 6087,
      "랴위": 6088,
      "럶문": 6089,
      "렇궤": 6090,
      "렵코": 6091,
      "뤼꺄": 6092,
      "뤼죠": 6093,
      "륄랴": 6094,
      "륌뮈": 6095,
      "륨운": 6096,
      "리따": 6097,
      "릴랴": 6098,
      "립퓨": 6099,
      "릿따": 6100,
      "맞쟈": 6101,
      "먼쪽": 6102,
      "먾죹": 6103,
      "먾한": 6104,
      "먾휘": 6105,
      "멱울": 6106,
      "묾로": 6107,
      "밧댜": 6108,
      "뵤윈눈": 6109,
      "븃텨": 6110,
      "빠댜": 6111,
      "뼈뉘": 6112,
      "쀼또": 6113,
      "사셔": 6114,
      "사요": 6115,
      "선퓨": 6116,
      "셜됴": 6117,
      "수려": 6118,
      "숩닉댜": 6119,
      "쉭칸": 6120,
      "쉼한": 6121,
      "슈앞": 6122,
      "싯섧": 6123,
      "썰오": 6124,
      "썽쏘": 6125,
      "쏘욺": 6126,
      "씁닒댜": 6127,
      "씨많": 6128,
      "씬잘": 6129,
      "씬찰": 6130,
      "아셔": 6131,
      "안앝": 6132,
      "않았": 6133,
      "야닌": 6134,
      "야쥑": 6135,
      "야찍": 6136,
      "억쉬": 6137,
      "언락": 6138,
      "업움": 6139,
      "엌끼": 6140,
      "엣섞": 6141,
      "였오": 6142,
      "옥쉴": 6143,
      "옥실": 6144,
      "옥초": 6145,
      "울론": 6146,
      "울롬": 6147,
      "위교": 6148,
      "윈치": 6149,
      "윕찌": 6150,
      "윟뉘": 6151,
      "익옹": 6152,
      "인는": 6153,
      "읽딴": 6154,
      "읾용": 6155,
      "잇용": 6156,
      "있숩": 6157,
      "잊숲": 6158,
      "잊얻": 6159,
      "잋룬": 6160,
      "잎닙": 6161,
      "젼쩨": 6162,
      "좋곡": 6163,
      "좋곪": 6164,
      "좋곯": 6165,
      "좋얇": 6166,
      "죃약": 6167,
      "죠햐오": 6168,
      "쥐윈": 6169,
      "쥔는": 6170,
      "쥬짝": 6171,
      "쩨끄윈": 6172,
      "쮸짜": 6173,
      "찍꼬": 6174,
      "찍캬": 6175,
      "찜꾸": 6176,
      "청멁": 6177,
      "춥편": 6178,
      "충칸": 6179,
      "칟또": 6180,
      "칵캅": 6181,
      "캬눈": 6182,
      "캬쥐": 6183,
      "캬컥": 6184,
      "캭교": 6185,
      "컨묽": 6186,
      "켁실": 6187,
      "켑술": 6188,
      "콴쾅": 6189,
      "크런": 6190,
      "탁꼬": 6191,
      "탁탁": 6192,
      "탤료": 6193,
      "파탁": 6194,
      "팡예": 6195,
      "푸캬": 6196,
      "푸텨": 6197,
      "푹씬": 6198,
      "퓨또": 6199,
      "퓨토": 6200,
      "퓬위": 6201,
      "학꼴": 6202,
      "한닉": 6203,
      "함몇": 6204,
      "합링": 6205,
      "햇뎐": 6206,
      "햇쯥": 6207,
      "햋써": 6208,
      "햐요": 6209,
      "햐침많": 6210,
      "향교": 6211,
      "화쨩": 6212,
      "횬뗄": 6213,
      "횰뗄": 6214,
      "10많": 6215,
      "10뷴": 6216,
      "좋야셔": 6217,
      "한눈웨": 6218,
      "20많": 6219,
      "꺌끎한": 6220,
      "꺌꿈한": 6221,
      "화짱씰": 6222,
      "갇따": 6223,
      "값뉘": 6224,
      "갖촉": 6225,
      "갖치": 6226,
      "건뮬": 6227,
      "관리": 6228,
      "관쾅": 6229,
      "굔눈": 6230,
      "굣위": 6231,
      "구렇": 6232,
      "굴료": 6233,
      "귁카": 6234,
      "긁런": 6235,
      "까운": 6236,
      "깍교": 6237,
      "깠운": 6238,
      "깥은": 6239,
      "껙실": 6240,
      "끄윌": 6241,
      "끝네": 6242,
      "난한": 6243,
      "녀뮬": 6244,
      "녁뮤": 6245,
      "념뮷": 6246,
      "눈뎃": 6247,
      "눈쥐": 6248,
      "님탸": 6249,
      "닳른": 6250,
      "뎁피": 6251,
      "동않": 6252,
      "둘립": 6253,
      "둘여": 6254,
      "뗌문": 6255,
      "뜨예": 6256,
      "란는": 6257,
      "럶뭍": 6258,
      "럶뭏": 6259,
      "룩뀜": 6260,
      "뤠왜": 6261,
      "뤼는": 6262,
      "륍댜": 6263,
      "립푸": 6264,
      "만헌": 6265,
      "많교": 6266,
      "많끎": 6267,
      "맏댜": 6268,
      "맡쥡": 6269,
      "먼죡": 6270,
      "멂묽": 6271,
      "멓위": 6272,
      "멱였": 6273,
      "몰텔": 6274,
      "묵엇": 6275,
      "받탸": 6276,
      "뱌타": 6277,
      "불룰": 6278,
      "붊편": 6279,
      "붸위": 6280,
      "뷰텨": 6281,
      "샤챵": 6282,
      "샨첵": 6283,
      "술럽": 6284,
      "쉬짱": 6285,
      "슅교": 6286,
      "식깐": 6287,
      "싣션": 6288,
      "싼짹": 6289,
      "써뤼": 6290,
      "썰멍": 6291,
      "썹빛": 6292,
      "쏫씩": 6293,
      "쐬약": 6294,
      "쑤눈": 6295,
      "쒸타": 6296,
      "씩깐": 6297,
      "씬축": 6298,
      "씸면": 6299,
      "씹운": 6300,
      "아써": 6301,
      "악끼": 6302,
      "악켱": 6303,
      "안았": 6304,
      "앉햐": 6305,
      "않뉘": 6306,
      "않야": 6307,
      "약갼": 6308,
      "어키": 6309,
      "업교": 6310,
      "없씨": 6311,
      "옌는": 6312,
      "옙뼈": 6313,
      "옙약": 6314,
      "옙오": 6315,
      "왈쩐": 6316,
      "위셔": 6317,
      "윅취": 6318,
      "윕뤼": 6319,
      "은냐": 6320,
      "잃량": 6321,
      "있썼": 6322,
      "있얻": 6323,
      "있여오": 6324,
      "잊꾜": 6325,
      "잎뤼댜": 6326,
      "쟝울": 6327,
      "져렴": 6328,
      "좋네": 6329,
      "좋녜": 6330,
      "좋얀": 6331,
      "좋헛": 6332,
      "짱뮨": 6333,
      "쩡쇽": 6334,
      "쩡쏙": 6335,
      "쪽굼": 6336,
      "쫏식": 6337,
      "쭈쳘": 6338,
      "쭐짱": 6339,
      "찌퀀": 6340,
      "찍안": 6341,
      "찍쿄": 6342,
      "창륌": 6343,
      "창젊": 6344,
      "창쩜": 6345,
      "천황": 6346,
      "초훈": 6347,
      "췸땍": 6348,
      "친잚": 6349,
      "캄샤": 6350,
      "캬뻬": 6351,
      "켱헒": 6352,
      "코오": 6353,
      "콩깐": 6354,
      "쾨척": 6355,
      "쿤낭": 6356,
      "퀴예": 6357,
      "클렵": 6358,
      "킥갸": 6359,
      "타뜯": 6360,
      "탁코": 6361,
      "탓씨": 6362,
      "탸교": 6363,
      "투뤼": 6364,
      "툿슡": 6365,
      "퍼뉘": 6366,
      "풂펀": 6367,
      "퓰룰": 6368,
      "학콘": 6369,
      "합릴": 6370,
      "항샹": 6371,
      "핸오": 6372,
      "핼써": 6373,
      "햇는떼": 6374,
      "했쑤": 6375,
      "했쯥": 6376,
      "행폭": 6377,
      "햐쉰": 6378,
      "햐쮜": 6379,
      "햐콜": 6380,
      "홋뗀": 6381,
      "환붉": 6382,
      "환켱": 6383,
      "휵귀": 6384,
      "좋야욥": 6385,
      "좋운뎨": 6386,
      "위용할": 6387,
      "핫씩교": 6388,
      "1많": 6389,
      "1윌": 6390,
      "1첨": 6391,
      "26": 6392,
      "2많": 6393,
      "2셩": 6394,
      "3멍": 6395,
      "60": 6396,
      "7충": 6397,
      "90": 6398,
      ";;": 6399,
      "SU": 6400,
      "ㄹㅇ": 6401,
      "간눈": 6402,
      "갖창": 6403,
      "개끗": 6404,
      "갸먼": 6405,
      "갸써": 6406,
      "겆됴": 6407,
      "겜삥": 6408,
      "군낳": 6409,
      "규오": 6410,
      "까교": 6411,
      "까눈": 6412,
      "까뻬": 6413,
      "깜샤": 6414,
      "꺄취": 6415,
      "껀딛": 6416,
      "껀띠": 6417,
      "껙끅": 6418,
      "꽤쩍": 6419,
      "낢만": 6420,
      "낢쟈": 6421,
      "넓꼬": 6422,
      "네예": 6423,
      "넴째": 6424,
      "뉘꺄": 6425,
      "뉜뎨": 6426,
      "늑꺼": 6427,
      "닥코": 6428,
      "닿한": 6429,
      "두립": 6430,
      "둘뤼": 6431,
      "뒤선": 6432,
      "딴젊": 6433,
      "뜨윌": 6434,
      "랒셔": 6435,
      "렇꼐": 6436,
      "레토": 6437,
      "력쓰": 6438,
      "뤼됴": 6439,
      "뤼웨": 6440,
      "뤽카": 6441,
      "륀댜": 6442,
      "릭타": 6443,
      "린타": 6444,
      "릴룰": 6445,
      "릿수": 6446,
      "맛잇": 6447,
      "멈뮬": 6448,
      "몲루": 6449,
      "못뗄": 6450,
      "묵꼬": 6451,
      "묵옃": 6452,
      "묵코": 6453,
      "묾위": 6454,
      "뮨냔": 6455,
      "복쿄": 6456,
      "부룰": 6457,
      "뼝챵": 6458,
      "뽀타": 6459,
      "뿌갸": 6460,
      "뿌떠": 6461,
      "뿐뉘": 6462,
      "삐헤": 6463,
      "섕깍": 6464,
      "섯오": 6465,
      "섰교": 6466,
      "셩비": 6467,
      "셩슉": 6468,
      "셰요": 6469,
      "쇼욺": 6470,
      "쉬댜": 6471,
      "쉭간": 6472,
      "쉭닿": 6473,
      "쉭됴": 6474,
      "쉰축": 6475,
      "싣셔": 6476,
      "싸용": 6477,
      "싸창뉨": 6478,
      "써욧": 6479,
      "써움": 6480,
      "쎄왜": 6481,
      "쑤얍": 6482,
      "쑥박": 6483,
      "씁닒": 6484,
      "씁닌댜": 6485,
      "씁뤼타": 6486,
      "씨룬": 6487,
      "씩됴": 6488,
      "씩안": 6489,
      "씬랴": 6490,
      "씻썲": 6491,
      "악캅": 6492,
      "앞위": 6493,
      "야뻬": 6494,
      "야욧": 6495,
      "얏슁": 6496,
      "얘용": 6497,
      "언후": 6498,
      "언휘": 6499,
      "얾창": 6500,
      "업위": 6501,
      "엎방": 6502,
      "엥셔": 6503,
      "여뭬": 6504,
      "여옥": 6505,
      "엾읊": 6506,
      "엿오": 6507,
      "영오": 6508,
      "와셔": 6509,
      "요셜": 6510,
      "욕초": 6511,
      "욕코": 6512,
      "욘슈": 6513,
      "우멘": 6514,
      "운뎨": 6515,
      "욺웨": 6516,
      "움찍": 6517,
      "웨여": 6518,
      "웨요": 6519,
      "위햐": 6520,
      "윌뒈": 6521,
      "윌랒": 6522,
      "윕닛": 6523,
      "윗샤": 6524,
      "윗섰": 6525,
      "인쥐": 6526,
      "읽옹": 6527,
      "잃단": 6528,
      "있엇": 6529,
      "쟘됴": 6530,
      "젝공": 6531,
      "젝꽁": 6532,
      "졀렴": 6533,
      "졍똘": 6534,
      "졔읽": 6535,
      "좋곬": 6536,
      "좋굣": 6537,
      "죃훌": 6538,
      "죠끔": 6539,
      "죠찍": 6540,
      "줴읽": 6541,
      "줴읾": 6542,
      "쥘차": 6543,
      "짱릶": 6544,
      "쩡토": 6545,
      "쪼햐오": 6546,
      "쭈썬": 6547,
      "쭈역": 6548,
      "찍카": 6549,
      "창쏘": 6550,
      "천쩨": 6551,
      "추변": 6552,
      "췬꾸": 6553,
      "췰썰": 6554,
      "췻숄": 6555,
      "츙젼": 6556,
      "치먼": 6557,
      "친쌰": 6558,
      "친썰": 6559,
      "칠젊": 6560,
      "카눈": 6561,
      "칾샤": 6562,
      "캄먼": 6563,
      "케쿳": 6564,
      "켠티": 6565,
      "콩칸": 6566,
      "콴릿": 6567,
      "쾐챤": 6568,
      "쿨료": 6569,
      "탁카": 6570,
      "탸읾": 6571,
      "퇴눈": 6572,
      "툇싫": 6573,
      "팃선": 6574,
      "펑위": 6575,
      "펑윌": 6576,
      "풀펀": 6577,
      "퓌쓰": 6578,
      "학뀌": 6579,
      "한따": 6580,
      "합닙댜": 6581,
      "합닌댜": 6582,
      "합뤼타": 6583,
      "합닌따": 6584,
      "핫섯": 6585,
      "햇교": 6586,
      "햇쩌": 6587,
      "행셔": 6588,
      "햐곯": 6589,
      "햐멸": 6590,
      "헤춘": 6591,
      "홍텐": 6592,
      "화쌍": 6593,
      "확싫": 6594,
      "홰뗄": 6595,
      "횬차": 6596,
      "..)": 6597,
      "좋야써": 6598,
      "ㅜㅜㅜㅜ": 6599,
      "찐철핫": 6600,
      "30뷴": 6601,
      "깔꿈햐": 6602,
      "슈옇짱": 6603,
      "깸삥쟝": 6604,
      "SUV": 6605,
      "16": 6606,
      "1뺙": 6607,
      "2멍": 6608,
      "2일": 6609,
      "5푼": 6610,
      "8얼": 6611,
      "갖쟝": 6612,
      "갸꺽": 6613,
      "걍쭈": 6614,
      "깜면": 6615,
      "꺁쉴": 6616,
      "꺌금": 6617,
      "꽁갼": 6618,
      "끈쳐": 6619,
      "냑쿄": 6620,
      "냔빵": 6621,
      "녀뮴": 6622,
      "뉜탸": 6623,
      "는뎀": 6624,
      "는뗏": 6625,
      "늚료": 6626,
      "닉코": 6627,
      "단녔": 6628,
      "데피": 6629,
      "듦됴": 6630,
      "딱까": 6631,
      "떼됴": 6632,
      "똔눈": 6633,
      "뜬눈": 6634,
      "랴쿄": 6635,
      "러오": 6636,
      "레또": 6637,
      "력교": 6638,
      "렴묵": 6639,
      "뤼한": 6640,
      "뤽꺄": 6641,
      "륨됴": 6642,
      "른뛔": 6643,
      "른퉤": 6644,
      "릭까": 6645,
      "릭쿄": 6646,
      "린뎨": 6647,
      "릴를": 6648,
      "맆타": 6649,
      "많헌": 6650,
      "맏칩": 6651,
      "메뜨": 6652,
      "멸뤼": 6653,
      "못함": 6654,
      "발료": 6655,
      "방옛": 6656,
      "방을": 6657,
      "방일": 6658,
      "밭닥": 6659,
      "뱌따": 6660,
      "불편": 6661,
      "뷔쓰": 6662,
      "뷴됴": 6663,
      "빗쓰": 6664,
      "빨뇨": 6665,
      "뽁됴": 6666,
      "뿌뉘": 6667,
      "뿌쥐": 6668,
      "뿐툴": 6669,
      "샬착": 6670,
      "션땍": 6671,
      "션텍": 6672,
      "셜위": 6673,
      "셰욘": 6674,
      "셰욥": 6675,
      "숩니": 6676,
      "숩닙댜": 6677,
      "숲닒": 6678,
      "쉠먼": 6679,
      "쉬깐": 6680,
      "쉭운": 6681,
      "쉰켱": 6682,
      "슈견": 6683,
      "십쥐": 6684,
      "싶푼": 6685,
      "쌍뉨": 6686,
      "써욺": 6687,
      "썬는": 6688,
      "쑈움": 6689,
      "쑥뺙": 6690,
      "쑨눈": 6691,
      "쒸따": 6692,
      "쒸코": 6693,
      "쒼눈": 6694,
      "씁뤼따": 6695,
      "씻설": 6696,
      "안눈": 6697,
      "안운": 6698,
      "앉는": 6699,
      "않꼬": 6700,
      "않쥬": 6701,
      "압오": 6702,
      "았오": 6703,
      "앙한": 6704,
      "야눅": 6705,
      "야뉨": 6706,
      "약깝": 6707,
      "얘욕": 6708,
      "억씨": 6709,
      "었떤": 6710,
      "엎교": 6711,
      "엎숨": 6712,
      "엔립": 6713,
      "엥써": 6714,
      "여옭": 6715,
      "엾오": 6716,
      "였셔": 6717,
      "오한": 6718,
      "오ㅠㅠ": 6719,
      "욘똘": 6720,
      "움슅": 6721,
      "위똥": 6722,
      "윈갸": 6723,
      "윈뗀": 6724,
      "윌위": 6725,
      "윕니댜": 6726,
      "윤떼": 6727,
      "읏료": 6728,
      "인샹": 6729,
      "일떼": 6730,
      "일옹": 6731,
      "읽락": 6732,
      "잃랗": 6733,
      "잇엇": 6734,
      "있숲": 6735,
      "있쌍": 6736,
      "잊옅": 6737,
      "젼예": 6738,
      "젼황": 6739,
      "좋겠": 6740,
      "좋귄": 6741,
      "좋쭙": 6742,
      "좋타": 6743,
      "좋향": 6744,
      "좋숩뉘댜": 6745,
      "죠컨": 6746,
      "쥬쨔": 6747,
      "징많": 6748,
      "짜람": 6749,
      "짱젊": 6750,
      "쩌셔": 6751,
      "쩜뮈": 6752,
      "쩡멁": 6753,
      "쩡피": 6754,
      "쫴교": 6755,
      "쭈윈": 6756,
      "찍까": 6757,
      "챰교": 6758,
      "천환": 6759,
      "쵸햐": 6760,
      "췸먾": 6761,
      "췻솖": 6762,
      "캄착": 6763,
      "캬먼": 6764,
      "컥청": 6765,
      "컬뤼": 6766,
      "켓셔": 6767,
      "켠뒷": 6768,
      "켠뮬": 6769,
      "콩간": 6770,
      "클런": 6771,
      "타쉬": 6772,
      "탄젊": 6773,
      "탄졈": 6774,
      "탕휘": 6775,
      "틀위": 6776,
      "팖료": 6777,
      "펀냔": 6778,
      "푸뉘": 6779,
      "푸떠": 6780,
      "푸뤼": 6781,
      "푼는": 6782,
      "퓌수": 6783,
      "퓟수": 6784,
      "퓻싼": 6785,
      "하께": 6786,
      "학꼰": 6787,
      "한낳": 6788,
      "한챰": 6789,
      "한녜오": 6790,
      "할코": 6791,
      "핫신": 6792,
      "핫셰오": 6793,
      "핼오": 6794,
      "햇쑵": 6795,
      "햇움": 6796,
      "햐굔": 6797,
      "햐타": 6798,
      "햐짊만": 6799,
      "햐쥐만": 6800,
      "헷섣": 6801,
      "혹뗀": 6802,
      "홀텐": 6803,
      "홈텐": 6804,
      "홉텐": 6805,
      "홸텔": 6806,
      "횀텔": 6807,
      "훌룽": 6808,
      "좋야욜": 6809,
      "씁뉘떠": 6810,
      "합뉘터": 6811,
      "췬젊핫": 6812,
      "췬철함": 6813,
      "찐젊한": 6814,
      "찐절햐": 6815,
      "빵뮨할": 6816,
      "쾅얀뤼": 6817,
      "엘립뻬": 6818,
      "핫쉬교": 6819,
      "슈엉창": 6820,
      "21넌": 6821,
      "1토": 6822,
      "7얼": 6823,
      "각꺽": 6824,
      "갸쥐": 6825,
      "갹캅": 6826,
      "구낳": 6827,
      "궤오": 6828,
      "근쳐": 6829,
      "깡쭈": 6830,
      "꺄오": 6831,
      "끈쩌": 6832,
      "끼눈": 6833,
      "넒코": 6834,
      "네욜": 6835,
      "넴색": 6836,
      "넷셔": 6837,
      "넷써": 6838,
      "뇬투": 6839,
      "눼온": 6840,
      "는덴": 6841,
      "는쥐": 6842,
      "늙료": 6843,
      "늦궤": 6844,
      "니떠": 6845,
      "닉떠": 6846,
      "단졈": 6847,
      "닯른": 6848,
      "닻쉬": 6849,
      "데고": 6850,
      "뒈였": 6851,
      "따쉬": 6852,
      "따욺": 6853,
      "뗌먀": 6854,
      "략꾜": 6855,
      "렇퀘": 6856,
      "렘섀": 6857,
      "려웠": 6858,
      "려윰": 6859,
      "룐눈": 6860,
      "룹쁘": 6861,
      "뤠요": 6862,
      "뤼랴": 6863,
      "륨위": 6864,
      "른톄": 6865,
      "릶따": 6866,
      "만쏙": 6867,
      "만야": 6868,
      "많은": 6869,
      "많힘": 6870,
      "먼한": 6871,
      "묜닒": 6872,
      "묵엊": 6873,
      "벡쿠": 6874,
      "봤는뒈": 6875,
      "부꺼": 6876,
      "붙텨": 6877,
      "뷴뚤": 6878,
      "뷴툴": 6879,
      "뷸를": 6880,
      "뿐틂": 6881,
      "쀼떠": 6882,
      "쀼샨": 6883,
      "삵착": 6884,
      "샤청": 6885,
      "샹텍": 6886,
      "셍꺅": 6887,
      "수눈": 6888,
      "수렵": 6889,
      "쉬원": 6890,
      "쉭위": 6891,
      "쉿션": 6892,
      "슈춘": 6893,
      "슭렵": 6894,
      "싸남": 6895,
      "쐬쿄": 6896,
      "쑴먼": 6897,
      "씨션": 6898,
      "씨쩔": 6899,
      "씰네": 6900,
      "씰먕": 6901,
      "악오": 6902,
      "앉훈": 6903,
      "않닒": 6904,
      "앎오": 6905,
      "았씁": 6906,
      "얀훈": 6907,
      "얘뼈": 6908,
      "얘욜": 6909,
      "얘픈": 6910,
      "얾오": 6911,
      "업꼬": 6912,
      "여옳": 6913,
      "역헹": 6914,
      "옙프": 6915,
      "온선": 6916,
      "옹울": 6917,
      "왔눈뒈": 6918,
      "왔눈뎨": 6919,
      "요교": 6920,
      "욕쿄": 6921,
      "우뤼": 6922,
      "운테": 6923,
      "움에": 6924,
      "웨토": 6925,
      "위섰": 6926,
      "윅갸": 6927,
      "윈샹": 6928,
      "윈언": 6929,
      "윌냐": 6930,
      "윌뱐": 6931,
      "윌테": 6932,
      "윕뉘탸": 6933,
      "윤테": 6934,
      "읊로": 6935,
      "읊롯": 6936,
      "음슅": 6937,
      "읗데": 6938,
      "읫싸": 6939,
      "읾딴": 6940,
      "잇언": 6941,
      "잊섰": 6942,
      "잊었": 6943,
      "쟘많": 6944,
      "쟝냔": 6945,
      "정먈": 6946,
      "좇찍": 6947,
      "좋겟": 6948,
      "좋굡": 6949,
      "좋양": 6950,
      "좋우": 6951,
      "죃흠": 6952,
      "죠한": 6953,
      "쨩위": 6954,
      "쩔데": 6955,
      "쩝큰": 6956,
      "쩨왜": 6957,
      "쫏찍": 6958,
      "쭈천": 6959,
      "쭝예": 6960,
      "찜떼": 6961,
      "창결": 6962,
      "창첨": 6963,
      "챵위": 6964,
      "천췌": 6965,
      "천확": 6966,
      "청걺": 6967,
      "첵공": 6968,
      "쳬끄": 6969,
      "쳬쿠": 6970,
      "쵸씩": 6971,
      "추찻": 6972,
      "췌끄윈": 6973,
      "췬차": 6974,
      "췸댄": 6975,
      "캄싸": 6976,
      "캅뉘타": 6977,
      "커율": 6978,
      "쾅얹": 6979,
      "쾬챦": 6980,
      "쿠낭": 6981,
      "쿠련": 6982,
      "크료": 6983,
      "킨눈": 6984,
      "탁까": 6985,
      "탈랴": 6986,
      "탐면": 6987,
      "턴뉘": 6988,
      "톨료": 6989,
      "트렸": 6990,
      "틂립": 6991,
      "팡읽": 6992,
      "펑졈": 6993,
      "편않": 6994,
      "포타": 6995,
      "포탸": 6996,
      "푸카": 6997,
      "푸토": 6998,
      "푼든": 6999,
      "퓬둘": 7000,
      "학귄": 7001,
      "학뀄": 7002,
      "학콤": 7003,
      "한갛": 7004,
      "할쿄": 7005,
      "합릿": 7006,
      "합닛댜": 7007,
      "합니댜": 7008,
      "합님댜": 7009,
      "햅오": 7010,
      "햇른뒈": 7011,
      "햐공": 7012,
      "햐씬": 7013,
      "햐콤": 7014,
      "햐콥": 7015,
      "헉끼": 7016,
      "헷눈떼": 7017,
      "호뗀": 7018,
      "확씰": 7019,
      "홴텔": 7020,
      "횉텔": 7021,
      "좋았코": 7022,
      "좋운뒈": 7023,
      "합뉘답": 7024,
      "칼끎한": 7025,
      "팡음위": 7026,
      "핫쉭코": 7027,
      ".^": 7028,
      "1박": 7029,
      "1졈": 7030,
      "29": 7031,
      "2넌": 7032,
      "3충": 7033,
      "4명": 7034,
      "5쩐": 7035,
      "8쉬": 7036,
      "VIP": 7037,
      "bb": 7038,
      "간눙": 7039,
      "객쿳": 7040,
      "갸켝": 7041,
      "건묾": 7042,
      "관광": 7043,
      "관꽝": 7044,
      "근쩌": 7045,
      "긁련": 7046,
      "깔금": 7047,
      "깡수": 7048,
      "깨오": 7049,
      "꺁씰": 7050,
      "껙굿": 7051,
      "꾄챤": 7052,
      "끊냥": 7053,
      "끊쳐": 7054,
      "끼갸": 7055,
      "낙교": 7056,
      "낢표": 7057,
      "낼러": 7058,
      "냄째": 7059,
      "냐셔": 7060,
      "넌뭄": 7061,
      "넴요": 7062,
      "넴욧": 7063,
      "넹짱": 7064,
      "눅큄": 7065,
      "뉘닭": 7066,
      "두럿": 7067,
      "뒈꼬": 7068,
      "뒈는": 7069,
      "뒈얼": 7070,
      "듦엊": 7071,
      "땅황": 7072,
      "떨룰": 7073,
      "뗀눈": 7074,
      "뜨햐": 7075,
      "뜰뤼": 7076,
      "랄뤼": 7077,
      "랐써": 7078,
      "랜많": 7079,
      "랴윈": 7080,
      "럇써": 7081,
      "럶묵": 7082,
      "럶물": 7083,
      "럶뭄": 7084,
      "롬맨": 7085,
      "륨또": 7086,
      "릭카": 7087,
      "릭코": 7088,
      "린따": 7089,
      "립쀼": 7090,
      "링타": 7091,
      "맆따": 7092,
      "만은": 7093,
      "만쵁": 7094,
      "많야": 7095,
      "많코": 7096,
      "맏윗": 7097,
      "맏찝": 7098,
      "맡있": 7099,
      "맹유": 7100,
      "맺유": 7101,
      "먀쟈": 7102,
      "먀음웨": 7103,
      "먼쩌": 7104,
      "몫뗄": 7105,
      "몲텔": 7106,
      "묠루": 7107,
      "무료": 7108,
      "묽위": 7109,
      "묾론": 7110,
      "뮤죠": 7111,
      "뮨울": 7112,
      "뱐적": 7113,
      "변위": 7114,
      "별롱": 7115,
      "뵤눈": 7116,
      "뵤터": 7117,
      "분뜰": 7118,
      "뷔옹": 7119,
      "뷸펀": 7120,
      "뷸편": 7121,
      "뼝잃": 7122,
      "쀼꺄": 7123,
      "삐랴": 7124,
      "사써": 7125,
      "샤왱": 7126,
      "샤향": 7127,
      "셔피": 7128,
      "션퓨": 7129,
      "셥빚": 7130,
      "셩슈": 7131,
      "손뉨": 7132,
      "쇽쪼": 7133,
      "숙뱍": 7134,
      "숩닝": 7135,
      "숲닐": 7136,
      "슉파": 7137,
      "싣튀": 7138,
      "싫네": 7139,
      "싯썲": 7140,
      "싶은": 7141,
      "싸짱뉨": 7142,
      "썽걸": 7143,
      "썽먄": 7144,
      "썽빅": 7145,
      "썽쑤": 7146,
      "쏘햐": 7147,
      "쑵닐": 7148,
      "쒸윤": 7149,
      "쓸렵": 7150,
      "씁닝댜": 7151,
      "씩닿": 7152,
      "씬겅": 7153,
      "씬쨔": 7154,
      "씻셔": 7155,
      "씻써": 7156,
      "않교": 7157,
      "압위": 7158,
      "앞예": 7159,
      "앞폐": 7160,
      "야윷": 7161,
      "약깐": 7162,
      "약켱": 7163,
      "억퀴": 7164,
      "없써": 7165,
      "엊셔": 7166,
      "엎셔": 7167,
      "엔는": 7168,
      "엣썹": 7169,
      "엮헹": 7170,
      "연략": 7171,
      "연헹": 7172,
      "열헹": 7173,
      "엽썼": 7174,
      "엾욺": 7175,
      "엿쩌": 7176,
      "엿헹": 7177,
      "예얕": 7178,
      "예여": 7179,
      "옌눈": 7180,
      "옌오": 7181,
      "옥쿄": 7182,
      "옳레": 7183,
      "옻산": 7184,
      "왓눈떼": 7185,
      "왓는테": 7186,
      "요휴": 7187,
      "욕싫": 7188,
      "운뉘": 7189,
      "욹뤼": 7190,
      "욺뮈": 7191,
      "웅때": 7192,
      "웨엌": 7193,
      "웨쩌": 7194,
      "위댜": 7195,
      "윕씰": 7196,
      "윗숨": 7197,
      "윗쨍": 7198,
      "윟취": 7199,
      "인셍": 7200,
      "일용": 7201,
      "읾랗": 7202,
      "읾룸": 7203,
      "잃냐": 7204,
      "잃탄": 7205,
      "잇음": 7206,
      "잇엿셔": 7207,
      "잊욺": 7208,
      "잋교": 7209,
      "잎닉댜": 7210,
      "젝콩": 7211,
      "젼확": 7212,
      "졔읾": 7213,
      "좇슅": 7214,
      "좇식": 7215,
      "좋넷": 7216,
      "좋흙": 7217,
      "죃앙": 7218,
      "죠흠": 7219,
      "줏셧": 7220,
      "짱웨": 7221,
      "짱졈": 7222,
      "쩐환": 7223,
      "쩡헷": 7224,
      "쪼훔": 7225,
      "쯥뉘따": 7226,
      "쯥뤼댜": 7227,
      "찌썰": 7228,
      "찌햐": 7229,
      "찐쿠": 7230,
      "참됴": 7231,
      "챵졈": 7232,
      "처렴": 7233,
      "청컬": 7234,
      "초찍": 7235,
      "충깐": 7236,
      "츄천": 7237,
      "칠쨔": 7238,
      "칸뉘": 7239,
      "칸단": 7240,
      "컨위": 7241,
      "쿨런": 7242,
      "퀵갸": 7243,
      "클련": 7244,
      "탕황": 7245,
      "태료": 7246,
      "탭삐": 7247,
      "턍황": 7248,
      "턱갸": 7249,
      "턴눈": 7250,
      "텨됴": 7251,
      "팎예": 7252,
      "푸눈": 7253,
      "푹쉰": 7254,
      "퓨웨": 7255,
      "퓰펀": 7256,
      "하쥐": 7257,
      "학꽃": 7258,
      "한쿡": 7259,
      "한탸": 7260,
      "한눈테": 7261,
      "한는뒈": 7262,
      "함쿄": 7263,
      "합닒따": 7264,
      "핫쿄": 7265,
      "핸셔": 7266,
      "햄셔": 7267,
      "햄써": 7268,
      "햅편": 7269,
      "햇음": 7270,
      "했타": 7271,
      "했는테": 7272,
      "행위": 7273,
      "햐곤": 7274,
      "햐곱": 7275,
      "햐찜많": 7276,
      "헌뒈": 7277,
      "험머": 7278,
      "헛쉬": 7279,
      "헤또": 7280,
      "헷쑤": 7281,
      "혼짜": 7282,
      "홈폐": 7283,
      "확짱": 7284,
      "횁뗄": 7285,
      "휨뜬": 7286,
      "휴훼": 7287,
      "~~!!": 7288,
      "^^*": 7289,
      "효텔뤼": 7290,
      "좋았움": 7291,
      "10뿐": 7292,
      "좋야욕": 7293,
      "좋야욧": 7294,
      "좋야용": 7295,
      "좋앗여오": 7296,
      "합뉘떠": 7297,
      "2020": 7298,
      "2024": 7299,
      "........": 7300,
      "찐졀함": 7301,
      "췬절한": 7302,
      "찐절한": 7303,
      "함먼셔": 7304,
      "1쯩웨": 7305,
      "11쉬": 7306,
      "댜움몌": 7307,
      "댜움웨": 7308,
      "팡움위": 7309,
      "5썽쿱": 7310,
      "6얼": 7311,
      "갈쿰": 7312,
      "갊동": 7313,
      "갓운": 7314,
      "갚봤": 7315,
      "객끗": 7316,
      "곗쉭": 7317,
      "괜싾": 7318,
      "괜챨": 7319,
      "괭짱": 7320,
      "굻련": 7321,
      "귀갸": 7322,
      "귀됴": 7323,
      "긷태": 7324,
      "깊뷴": 7325,
      "깊뿐": 7326,
      "깩찔": 7327,
      "꺼윤": 7328,
      "꼐쇽": 7329,
      "꽁깐": 7330,
      "꽝얹": 7331,
      "낫써": 7332,
      "냐오": 7333,
      "냘쒸": 7334,
      "놂랐": 7335,
      "뇨휴": 7336,
      "뇰럇": 7337,
      "눅키": 7338,
      "눈치": 7339,
      "뉘닷": 7340,
      "뉜떼": 7341,
      "는텐": 7342,
      "닥까": 7343,
      "닮룬": 7344,
      "댑뷔": 7345,
      "댜카": 7346,
      "뎌뉘": 7347,
      "돼엇": 7348,
      "들됴": 7349,
      "들뤼": 7350,
      "딱캬": 7351,
      "땀면": 7352,
      "땃쉬": 7353,
      "떤뉘": 7354,
      "뜰립": 7355,
      "랴먼": 7356,
      "랸한": 7357,
      "럇수": 7358,
      "럯뮤": 7359,
      "럶묻": 7360,
      "렌만": 7361,
      "려욺": 7362,
      "렴문": 7363,
      "롬멘": 7364,
      "륌댜": 7365,
      "린탸": 7366,
      "릴따": 7367,
      "릴량": 7368,
      "만교": 7369,
      "만코": 7370,
      "많듦": 7371,
      "많히": 7372,
      "맛댜": 7373,
      "멕쥬": 7374,
      "멱눈": 7375,
      "몫텔": 7376,
      "몬뗄": 7377,
      "묘뉨": 7378,
      "묫햇": 7379,
      "문줴": 7380,
      "뮤죡": 7381,
      "받눈": 7382,
      "방인": 7383,
      "방잇": 7384,
      "뱌닥": 7385,
      "봤뎐": 7386,
      "뵤뉘": 7387,
      "뵤먼": 7388,
      "불펀": 7389,
      "붓떠": 7390,
      "뷰갸": 7391,
      "빠료": 7392,
      "빪료": 7393,
      "빵에": 7394,
      "빻음": 7395,
      "뻐오": 7396,
      "뼝윌": 7397,
      "쁜한": 7398,
      "사어": 7399,
      "샤진": 7400,
      "샤쟝륌": 7401,
      "섣셔": 7402,
      "셔삣": 7403,
      "션쀼": 7404,
      "셩됴": 7405,
      "솔뤼": 7406,
      "숩닛": 7407,
      "쉐욜": 7408,
      "쉭탕": 7409,
      "쉴눈": 7410,
      "쉴맣": 7411,
      "슉뺙": 7412,
      "슭럽": 7413,
      "습뉘타": 7414,
      "신는": 7415,
      "십운": 7416,
      "쌩귄": 7417,
      "써용": 7418,
      "썬텍": 7419,
      "쎄딱": 7420,
      "쎄욥": 7421,
      "쎄탁": 7422,
      "쏠뤼": 7423,
      "쏭됴": 7424,
      "쑤앙": 7425,
      "쑥갸": 7426,
      "쒸교": 7427,
      "쒸탸": 7428,
      "쓰따": 7429,
      "씁니타": 7430,
      "씩턍": 7431,
      "씬룬": 7432,
      "아오": 7433,
      "안교": 7434,
      "야뉜": 7435,
      "얏슇": 7436,
      "얩픈": 7437,
      "어귀": 7438,
      "어룸": 7439,
      "언됴": 7440,
      "없셨": 7441,
      "엡써": 7442,
      "엣섧": 7443,
      "여올": 7444,
      "여옻": 7445,
      "역켠": 7446,
      "엽써": 7447,
      "엾른": 7448,
      "엾방": 7449,
      "예는": 7450,
      "예쩌": 7451,
      "예토": 7452,
      "옛약": 7453,
      "옜오": 7454,
      "옳랴": 7455,
      "왔씁": 7456,
      "왝쟝": 7457,
      "욧셜": 7458,
      "우뉘": 7459,
      "우론": 7460,
      "우롯": 7461,
      "워써": 7462,
      "위룬": 7463,
      "위룸": 7464,
      "윈적": 7465,
      "윌칙": 7466,
      "윗코": 7467,
      "윟뉘댜": 7468,
      "윤쥐": 7469,
      "윤찌": 7470,
      "잇숲": 7471,
      "있용": 7472,
      "잎닝": 7473,
      "잎닢": 7474,
      "잎용": 7475,
      "절럼": 7476,
      "젼넉": 7477,
      "좋쥐": 7478,
      "좋핥": 7479,
      "죠굼": 7480,
      "죠큼": 7481,
      "쥐룬": 7482,
      "쥩안": 7483,
      "쥬인": 7484,
      "직퀀": 7485,
      "쩨쿠윈": 7486,
      "쪼왱": 7487,
      "쭈쨔": 7488,
      "쭈찼": 7489,
      "쭈찾": 7490,
      "쭌는": 7491,
      "쮜쇼": 7492,
      "찌권": 7493,
      "찌눈": 7494,
      "찌는": 7495,
      "찌셜": 7496,
      "찐쌰": 7497,
      "챵씰": 7498,
      "첼료": 7499,
      "출창": 7500,
      "취만": 7501,
      "츌짱": 7502,
      "치눈": 7503,
      "칠철": 7504,
      "칼략": 7505,
      "캇셩": 7506,
      "캠삥": 7507,
      "캠핑": 7508,
      "캬치": 7509,
      "캬폐": 7510,
      "컁쓰": 7511,
      "켠딛": 7512,
      "켱유": 7513,
      "콩샤": 7514,
      "쾨쩍": 7515,
      "큰낭": 7516,
      "킥까": 7517,
      "타른": 7518,
      "탕한": 7519,
      "택갸": 7520,
      "탠눈": 7521,
      "탸눈": 7522,
      "탸윌": 7523,
      "텬눈": 7524,
      "투윌": 7525,
      "틀립": 7526,
      "팡엔": 7527,
      "퍄됴": 7528,
      "퍼셔": 7529,
      "펜서": 7530,
      "편앉": 7531,
      "폭교": 7532,
      "퓬뜰": 7533,
      "퓬룬": 7534,
      "하는": 7535,
      "한꼬": 7536,
      "한쥐": 7537,
      "할계": 7538,
      "핥윈": 7539,
      "합뉩": 7540,
      "합코": 7541,
      "합닐댜": 7542,
      "합닉따": 7543,
      "합닛타": 7544,
      "합님타": 7545,
      "항오": 7546,
      "핵오": 7547,
      "햇룬뒈": 7548,
      "했눈뛔": 7549,
      "했는톄": 7550,
      "햐곶": 7551,
      "햐낟": 7552,
      "햐욧": 7553,
      "햐쥔": 7554,
      "햐퀘": 7555,
      "헉곳": 7556,
      "헙뉘따": 7557,
      "헛셔": 7558,
      "헛써": 7559,
      "헤토": 7560,
      "헷눈뒈": 7561,
      "혹텐": 7562,
      "홋텐": 7563,
      "횬짜": 7564,
      "훅갸": 7565,
      "휨튼": 7566,
      "좋앝코": 7567,
      "좋야왜": 7568,
      "좋야욘": 7569,
      "씁뉘닭": 7570,
      "좋햐용": 7571,
      "찐쩔함": 7572,
      "췬철햐": 7573,
      "많죡쓰": 7574,
      "깖끎한": 7575,
      "헤윤태": 7576,
      "쉿썰됴": 7577,
      "핫쉭교": 7578,
      "혹깡수": 7579,
      "확쟝쉴": 7580,
      "1뷴": 7581,
      "1뻑": 7582,
      "1쉬": 7583,
      "7월": 7584,
      "7쯩": 7585,
      "갓죡": 7586,
      "갛쭈": 7587,
      "갸셩피": 7588,
      "갸썽피": 7589,
      "거율": 7590,
      "걱위": 7591,
      "걸뤼": 7592,
      "공칸": 7593,
      "광얺": 7594,
      "괸찮": 7595,
      "군뎨": 7596,
      "귀룰": 7597,
      "깍꼬": 7598,
      "깝뉘따": 7599,
      "깩쉰": 7600,
      "꺄격": 7601,
      "껆금": 7602,
      "꾸인": 7603,
      "끈낭": 7604,
      "냉쟝": 7605,
      "냐옮": 7606,
      "냑갸": 7607,
      "네욤": 7608,
      "넬요": 7609,
      "넴짹": 7610,
      "녜옭": 7611,
      "누열": 7612,
      "눈뗀": 7613,
      "늑뀌": 7614,
      "닉쿄": 7615,
      "닉터": 7616,
      "닌테": 7617,
      "닙터": 7618,
      "닮패": 7619,
      "돼눈": 7620,
      "된댜": 7621,
      "됴료": 7622,
      "두렀": 7623,
      "둘역": 7624,
      "뒈엌": 7625,
      "듦콰": 7626,
      "딱쿄": 7627,
      "떡카": 7628,
      "똥헤": 7629,
      "람만": 7630,
      "랴율": 7631,
      "략꽤": 7632,
      "랸뉘": 7633,
      "럭교": 7634,
      "럶뭉": 7635,
      "럶뮨": 7636,
      "럼면": 7637,
      "럿뮤": 7638,
      "렇켸": 7639,
      "렘째": 7640,
      "렛오": 7641,
      "렴묶": 7642,
      "룸위": 7643,
      "뤠써": 7644,
      "륀뎨": 7645,
      "륄댜": 7646,
      "륄랗": 7647,
      "륏셉": 7648,
      "만햐": 7649,
      "만훈": 7650,
      "많초": 7651,
      "맏잊": 7652,
      "맛찝": 7653,
      "멍한": 7654,
      "멎있": 7655,
      "몹텔": 7656,
      "못텔": 7657,
      "묵교": 7658,
      "묵는": 7659,
      "문뉘": 7660,
      "뮤녜": 7661,
      "방잉": 7662,
      "뱌딱": 7663,
      "베청": 7664,
      "복됴": 7665,
      "뵤꼬": 7666,
      "뵤인눈": 7667,
      "부싼": 7668,
      "붓샨": 7669,
      "뷔쑤": 7670,
      "뷴윅": 7671,
      "뺘료": 7672,
      "뿌까": 7673,
      "뿍쉰": 7674,
      "뿐됴": 7675,
      "사왜": 7676,
      "삶착": 7677,
      "샤창닒": 7678,
      "샤짱닒": 7679,
      "샹위": 7680,
      "셩윈": 7681,
      "손닒": 7682,
      "수럽": 7683,
      "숩닙": 7684,
      "숳뤼댜": 7685,
      "쉐딱": 7686,
      "쉬션": 7687,
      "쉴네": 7688,
      "쉿삷": 7689,
      "슉박": 7690,
      "슡뱍": 7691,
      "슭료": 7692,
      "싣쩔": 7693,
      "싶얻": 7694,
      "싸윤": 7695,
      "싸챵": 7696,
      "싸짱닒": 7697,
      "쌀남": 7698,
      "쌀착": 7699,
      "쌔료": 7700,
      "썼교": 7701,
      "쏜눈": 7702,
      "쏠룰": 7703,
      "쑤앞": 7704,
      "쑤쥰": 7705,
      "쑥솟": 7706,
      "쑵뤼": 7707,
      "쒸였": 7708,
      "쓱갸": 7709,
      "씁님댜": 7710,
      "씨뤼": 7711,
      "씨쟝": 7712,
      "씩간": 7713,
      "씩원": 7714,
      "씸규": 7715,
      "씻쩔": 7716,
      "앉눈": 7717,
      "앉닌": 7718,
      "않닌": 7719,
      "않운": 7720,
      "않흖": 7721,
      "앞오": 7722,
      "야쑤": 7723,
      "야왜": 7724,
      "어려": 7725,
      "얻요": 7726,
      "얽먀": 7727,
      "없숨": 7728,
      "엉맣": 7729,
      "엘눈": 7730,
      "엘뉘": 7731,
      "엣션": 7732,
      "여옮": 7733,
      "여옰": 7734,
      "였댜": 7735,
      "였써": 7736,
      "옇먕": 7737,
      "예왜": 7738,
      "옥창": 7739,
      "옥코": 7740,
      "완버": 7741,
      "완셔": 7742,
      "왓는떼": 7743,
      "왔눈테": 7744,
      "욘쑤": 7745,
      "움로": 7746,
      "원레": 7747,
      "위쑴": 7748,
      "위었": 7749,
      "윅꼬": 7750,
      "윈뜨": 7751,
      "윌는": 7752,
      "윌찍": 7753,
      "윌출": 7754,
      "윔먼": 7755,
      "윕닌": 7756,
      "윕닐": 7757,
      "윕님": 7758,
      "읊롭": 7759,
      "읗때": 7760,
      "인용": 7761,
      "읽량": 7762,
      "읾칙": 7763,
      "잃출": 7764,
      "잇습": 7765,
      "잎리": 7766,
      "잎변": 7767,
      "잎프": 7768,
      "잎뤼타": 7769,
      "쟉교": 7770,
      "쟝예": 7771,
      "젊럼한": 7772,
      "져는": 7773,
      "졀맣": 7774,
      "좆식": 7775,
      "좋씁뉘댜": 7776,
      "죃꾜": 7777,
      "죃햐오": 7778,
      "죠쿰": 7779,
      "죠함": 7780,
      "줍펀": 7781,
      "쥐껀": 7782,
      "쥬눈": 7783,
      "쥬윌": 7784,
      "진많": 7785,
      "짝코": 7786,
      "짱냔": 7787,
      "쨍껴": 7788,
      "쨩뉨": 7789,
      "쨩뮨": 7790,
      "쩜됴": 7791,
      "쪄음": 7792,
      "쪼굼": 7793,
      "쫴코": 7794,
      "쭈찻": 7795,
      "쭉쪼": 7796,
      "찍월": 7797,
      "찜큐": 7798,
      "찜테": 7799,
      "찟셜": 7800,
      "창먄": 7801,
      "창쇼": 7802,
      "챠단": 7803,
      "청껄": 7804,
      "청속": 7805,
      "쳉켜": 7806,
      "초용": 7807,
      "쵓쉭": 7808,
      "쵤약": 7809,
      "충갼": 7810,
      "췬규": 7811,
      "츄어": 7812,
      "츄역": 7813,
      "카셩": 7814,
      "카취": 7815,
      "캄썽": 7816,
      "캬꼬": 7817,
      "캬썽": 7818,
      "캭켝": 7819,
      "쾬찬": 7820,
      "쿄위": 7821,
      "쿠냥": 7822,
      "킬룰": 7823,
      "탸른": 7824,
      "튄눈": 7825,
      "트려": 7826,
      "틂됴": 7827,
      "틂려": 7828,
      "판눈": 7829,
      "팡을": 7830,
      "펀않": 7831,
      "표타": 7832,
      "푿텨": 7833,
      "풉뷴": 7834,
      "학게": 7835,
      "학꽁": 7836,
      "한걍": 7837,
      "한번": 7838,
      "한는뎨": 7839,
      "할눈": 7840,
      "할윈": 7841,
      "합곪": 7842,
      "합는": 7843,
      "합닙따": 7844,
      "핫눈": 7845,
      "해윤": 7846,
      "핸써": 7847,
      "햐쥠많": 7848,
      "향쿄": 7849,
      "헌떼": 7850,
      "헐교": 7851,
      "헙뉘타": 7852,
      "혼쟈": 7853,
      "혼텐": 7854,
      "홀뗀": 7855,
      "홑뗀": 7856,
      "환붊": 7857,
      "환뿔": 7858,
      "홰텐": 7859,
      "흖테": 7860,
      "10분": 7861,
      "10씨": 7862,
      "씁뉘닦": 7863,
      "얘악햇": 7864,
      "췬졀한": 7865,
      "옇헹위": 7866,
      "숩뉘터": 7867,
      "찐젊함": 7868,
      "화쟝실": 7869,
      "방뮨핥": 7870,
      "좋씁뉘타": 7871,
      "좋숩뉘따": 7872,
      "엘립페": 7873,
      "황쟝실": 7874,
      "쑤옇쟝": 7875,
      "욧션부": 7876,
      "햐씩교": 7877,
      "얘뿌꼬": 7878,
      "!)": 7879,
      "03": 7880,
      "09": 7881,
      "2명": 7882,
      "2박": 7883,
      "2월": 7884,
      "2팏": 7885,
      "34": 7886,
      "3깨": 7887,
      "3만": 7888,
      "3밗": 7889,
      "4쯩": 7890,
      "5얼": 7891,
      "5졈": 7892,
      "5쩜": 7893,
      "9쉬": 7894,
      "NS": 7895,
      "SNS": 7896,
      "oo": 7897,
      "각켝": 7898,
      "갇셩": 7899,
      "갗운": 7900,
      "갸오": 7901,
      "갹거": 7902,
      "겨뤼": 7903,
      "괜천": 7904,
      "국윈": 7905,
      "군뒈": 7906,
      "군랑": 7907,
      "군쪄": 7908,
      "굶루": 7909,
      "글런": 7910,
      "긷댜": 7911,
      "긺료": 7912,
      "까면": 7913,
      "까셩": 7914,
      "깖굼": 7915,
      "깠눈떼": 7916,
      "깸빙": 7917,
      "꺁꿋": 7918,
      "꺁실": 7919,
      "껀묽": 7920,
      "껄뤼": 7921,
      "껨삥": 7922,
      "끄료": 7923,
      "끎련": 7924,
      "끼됴": 7925,
      "끼룰": 7926,
      "낀눈": 7927,
      "낢룸": 7928,
      "냐욤": 7929,
      "냐프": 7930,
      "냔빻": 7931,
      "냘시": 7932,
      "널꾜": 7933,
      "넒교": 7934,
      "넓운": 7935,
      "넘한": 7936,
      "넸욜": 7937,
      "놓꼬": 7938,
      "놓훈": 7939,
      "뇬뜨": 7940,
      "뇰위": 7941,
      "눈텟": 7942,
      "닌눈": 7943,
      "닐터": 7944,
      "닒터": 7945,
      "닙닮": 7946,
      "단젊": 7947,
      "닫까": 7948,
      "닮빼": 7949,
      "댜까": 7950,
      "덱까": 7951,
      "두눈": 7952,
      "두룬": 7953,
      "둔위": 7954,
      "둥위": 7955,
      "따만": 7956,
      "딸를": 7957,
      "땀빼": 7958,
      "땃씨": 7959,
      "땋한": 7960,
      "때삐": 7961,
      "땐눈": 7962,
      "땔료": 7963,
      "락꾜": 7964,
      "람위": 7965,
      "램쌔": 7966,
      "럭코": 7967,
      "렙오": 7968,
      "려뭍": 7969,
      "려어": 7970,
      "력수": 7971,
      "례요": 7972,
      "로한": 7973,
      "론뚜": 7974,
      "룩킴": 7975,
      "뤼캬": 7976,
      "뤽쿄": 7977,
      "륩푸땁": 7978,
      "맆떠": 7979,
      "만꿈": 7980,
      "만쿰": 7981,
      "많둘": 7982,
      "많핫": 7983,
      "맞위": 7984,
      "맞차": 7985,
      "맡칩": 7986,
      "먀쉐": 7987,
      "먀욺": 7988,
      "먹눈": 7989,
      "먾언": 7990,
      "먾쵁": 7991,
      "멋짚": 7992,
      "멜뤼": 7993,
      "면쩌": 7994,
      "몰뗄": 7995,
      "묠륵": 7996,
      "문난": 7997,
      "뭇엿": 7998,
      "뮤었": 7999,
      "뮬뤼": 8000,
      "밉뉘댜": 8001,
      "받딱": 8002,
      "밞웨": 8003,
      "뱌뇨": 8004,
      "벎료": 8005,
      "변웨": 8006,
      "별롬": 8007,
      "뵤윈는": 8008,
      "분들": 8009,
      "분룬": 8010,
      "뷕갸": 8011,
      "뷰샬": 8012,
      "뷸뻔": 8013,
      "빛산": 8014,
      "빛츄": 8015,
      "뻔했": 8016,
      "뻥뮬": 8017,
      "뻥읽": 8018,
      "뼈난": 8019,
      "뽀는": 8020,
      "뽄는": 8021,
      "뾰댜": 8022,
      "뿌눈": 8023,
      "뿐뤼": 8024,
      "뿔위": 8025,
      "쀼텨": 8026,
      "샐료": 8027,
      "샤유": 8028,
      "샤쥘": 8029,
      "섈료": 8030,
      "서온": 8031,
      "섧위": 8032,
      "셋샹": 8033,
      "셜명": 8034,
      "숑졍": 8035,
      "수됴": 8036,
      "수윔": 8037,
      "술렵": 8038,
      "숫한": 8039,
      "숲뉘탸": 8040,
      "쉬귀": 8041,
      "쉬설": 8042,
      "쉬쟝": 8043,
      "쉿삶": 8044,
      "싶뤼": 8045,
      "쌓때": 8046,
      "써음": 8047,
      "썰욘": 8048,
      "썹삣": 8049,
      "썽컬": 8050,
      "쏭졍": 8051,
      "쑤엽": 8052,
      "쑤춘": 8053,
      "쑥숀": 8054,
      "쑬렵": 8055,
      "쑵니": 8056,
      "쓰땐": 8057,
      "쓰투": 8058,
      "씁닢댜": 8059,
      "씁닐따": 8060,
      "씨꼬": 8061,
      "씨썲": 8062,
      "씩건": 8063,
      "씸먾": 8064,
      "씻삷": 8065,
      "앉위": 8066,
      "앍오": 8067,
      "았췸": 8068,
      "야닢": 8069,
      "야욤": 8070,
      "얏쉬": 8071,
      "얏써": 8072,
      "얩뼈": 8073,
      "언냑": 8074,
      "엄요": 8075,
      "없셔": 8076,
      "었숩": 8077,
      "엉욘": 8078,
      "엉챵": 8079,
      "엊써": 8080,
      "엎룬": 8081,
      "엎움": 8082,
      "에눈": 8083,
      "엔써": 8084,
      "엡셔": 8085,
      "엣섰": 8086,
      "엽셔": 8087,
      "엽셧": 8088,
      "엾뻬": 8089,
      "엾숲": 8090,
      "였눈테": 8091,
      "영맣": 8092,
      "영먕": 8093,
      "영헹": 8094,
      "옆위": 8095,
      "예욤": 8096,
      "옥쌍": 8097,
      "옭레": 8098,
      "완뻑": 8099,
      "완찬": 8100,
      "왈천": 8101,
      "왐셔": 8102,
      "왝콴": 8103,
      "요코": 8104,
      "욕샹": 8105,
      "욜네": 8106,
      "용울": 8107,
      "우록": 8108,
      "운찌": 8109,
      "욺씩": 8110,
      "움료": 8111,
      "웜셔": 8112,
      "위름": 8113,
      "위싸": 8114,
      "위썬": 8115,
      "위여": 8116,
      "위푸": 8117,
      "위칟됴": 8118,
      "윔뮈": 8119,
      "윕닝": 8120,
      "윕싫": 8121,
      "윗른": 8122,
      "윗엿": 8123,
      "윗충": 8124,
      "윗칙": 8125,
      "윙투": 8126,
      "윳수": 8127,
      "을로": 8128,
      "읒료": 8129,
      "읕료": 8130,
      "인뛔": 8131,
      "인위": 8132,
      "인톄": 8133,
      "일눈": 8134,
      "일뎨": 8135,
      "읾냐": 8136,
      "잃딴": 8137,
      "잃츌": 8138,
      "잇고": 8139,
      "잇꾜": 8140,
      "잇따": 8141,
      "있샹": 8142,
      "있쥐": 8143,
      "잉용": 8144,
      "잊슴": 8145,
      "잊눈테": 8146,
      "잎랴": 8147,
      "잎싫": 8148,
      "쟉운": 8149,
      "쟘먀": 8150,
      "쟝잚": 8151,
      "젝갸": 8152,
      "젼녘": 8153,
      "젼눈": 8154,
      "젼멓": 8155,
      "젼웨": 8156,
      "졀먕": 8157,
      "졍퇘": 8158,
      "졔잃": 8159,
      "좆찍": 8160,
      "좋껫": 8161,
      "좋꼰": 8162,
      "좋넸": 8163,
      "좋켓": 8164,
      "좋콜": 8165,
      "좋콥": 8166,
      "죠훔": 8167,
      "중예": 8168,
      "쥩건": 8169,
      "쥰눈": 8170,
      "짠눈": 8171,
      "짢눈": 8172,
      "쨩닒": 8173,
      "쩐쩨": 8174,
      "쩜위": 8175,
      "쩡껄": 8176,
      "쩡돈": 8177,
      "쪽굶": 8178,
      "쪽끔": 8179,
      "쫓씩": 8180,
      "쭉갸": 8181,
      "쭉교": 8182,
      "찍코": 8183,
      "찜예": 8184,
      "착갸": 8185,
      "창운": 8186,
      "창토": 8187,
      "천눈": 8188,
      "첨됴": 8189,
      "첨위": 8190,
      "체읾": 8191,
      "체잃": 8192,
      "초훔": 8193,
      "촉큼": 8194,
      "촛찍": 8195,
      "추윈": 8196,
      "추편": 8197,
      "춧셧": 8198,
      "춧셨": 8199,
      "충웨": 8200,
      "충위": 8201,
      "춰셔": 8202,
      "췌공": 8203,
      "췌꽂": 8204,
      "췌야": 8205,
      "췌척": 8206,
      "츄까": 8207,
      "치는": 8208,
      "칙껀": 8209,
      "친처": 8210,
      "칫됴": 8211,
      "카켝": 8212,
      "칵켝": 8213,
      "캄면": 8214,
      "캑굿": 8215,
      "캭꺽": 8216,
      "켜삐": 8217,
      "켠묽": 8218,
      "쿤냥": 8219,
      "크냥": 8220,
      "타움예": 8221,
      "탄뉘": 8222,
      "탓갸": 8223,
      "탓쉬": 8224,
      "탸음": 8225,
      "톄위": 8226,
      "퇴는": 8227,
      "퉤여": 8228,
      "틂윈": 8229,
      "판적": 8230,
      "팡빻": 8231,
      "팡읊": 8232,
      "팡읾": 8233,
      "포어": 8234,
      "푸룐": 8235,
      "푼뉘": 8236,
      "풀편": 8237,
      "퓨꺄": 8238,
      "학꼼": 8239,
      "한낚": 8240,
      "한편": 8241,
      "한눈뎨": 8242,
      "할려": 8243,
      "합뤼따": 8244,
      "합닢댜": 8245,
      "합니타": 8246,
      "핫쉽": 8247,
      "핫슅": 8248,
      "핫쒸": 8249,
      "해요": 8250,
      "핼셔": 8251,
      "햇떤": 8252,
      "햇울": 8253,
      "햇여오": 8254,
      "했섭": 8255,
      "했코": 8256,
      "햋눈떼": 8257,
      "햐곳": 8258,
      "햐굡": 8259,
      "햐끼": 8260,
      "햐닥": 8261,
      "햐만": 8262,
      "햐며": 8263,
      "햐욕": 8264,
      "햐웃": 8265,
      "햐짊많": 8266,
      "헌콴": 8267,
      "헌퉤": 8268,
      "험만": 8269,
      "헷셨": 8270,
      "헷숩": 8271,
      "헷눈뎨": 8272,
      "헷는뎨": 8273,
      "헹울": 8274,
      "홉뗀": 8275,
      "화위": 8276,
      "화챵싫": 8277,
      "확귄": 8278,
      "확쉴": 8279,
      "활창": 8280,
      "횉뗄": 8281,
      "휴끼": 8282,
      "흖뎨": 8283,
      "..!!": 8284,
      "...!": 8285,
      "효텔1": 8286,
      "좋야서오": 8287,
      "위옹학": 8288,
      "좋햐욘": 8289,
      "좋햐욥": 8290,
      "ㅋㅋㅋㅋㅋㅋㅋㅋ": 8291,
      "ㅜㅜㅜ": 8292,
      "찐젊헛": 8293,
      "30푼": 8294,
      "30퓬": 8295,
      "깔끎한": 8296,
      "꺌큼한": 8297,
      "5셩큽": 8298,
      "엘립붸": 8299,
      "윈떼뤼": 8300,
      "먀움예": 8301,
      "핫씩쿄": 8302,
      "ㅡㅡㅡㅡ": 8303,
      "황쟝싫": 8304,
      "합닙타": 8305,
      "좋악오": 8306,
      "슈엉짱": 8307,
      "좋암오": 8308,
      "28충": 8309,
      "■■■■": 8310,
      "쑤엉짱": 8311,
      "3쯩": 8312,
      "4멍": 8313,
      "갈금": 8314,
      "갊셩": 8315,
      "갔운": 8316,
      "갚뉘타": 8317,
      "갸셩삐": 8318,
      "갹카": 8319,
      "갹캬": 8320,
      "갼만": 8321,
      "걔곡": 8322,
      "겻토": 8323,
      "곡객": 8324,
      "공간": 8325,
      "관운": 8326,
      "광얹": 8327,
      "귀까": 8328,
      "귀랴": 8329,
      "긁료": 8330,
      "깆데": 8331,
      "까캅": 8332,
      "깡룽": 8333,
      "꺄썽": 8334,
      "껀쥐": 8335,
      "껆쿰": 8336,
      "껍뉘댜": 8337,
      "꼰녀": 8338,
      "꾄찬": 8339,
      "꾜통": 8340,
      "꾼쳐": 8341,
      "꿜뤼": 8342,
      "낙코": 8343,
      "난팡": 8344,
      "낟셔": 8345,
      "낡룸": 8346,
      "냐뿌": 8347,
      "냠차": 8348,
      "넒운": 8349,
      "녜옥": 8350,
      "눅김": 8351,
      "눈데": 8352,
      "눈텍": 8353,
      "눼셔": 8354,
      "뉘닥": 8355,
      "뉨탸": 8356,
      "닉갸": 8357,
      "닐랴": 8358,
      "닥꾜": 8359,
      "댜캬": 8360,
      "덯황": 8361,
      "뎌략": 8362,
      "도여": 8363,
      "동앉": 8364,
      "동캉": 8365,
      "돛짝": 8366,
      "두력": 8367,
      "둘럭": 8368,
      "둘럿": 8369,
      "둘운": 8370,
      "듦렴": 8371,
      "듦륌": 8372,
      "따먼": 8373,
      "따읽": 8374,
      "땝뷔": 8375,
      "떡갸": 8376,
      "떼문": 8377,
      "떼뮬": 8378,
      "뙤교": 8379,
      "뛔눈": 8380,
      "락쿄": 8381,
      "란교": 8382,
      "람운": 8383,
      "럶묶": 8384,
      "럽뮤": 8385,
      "려묽": 8386,
      "려뭅": 8387,
      "렴뭏": 8388,
      "롭뷔": 8389,
      "룐냐": 8390,
      "루겟": 8391,
      "룸읊": 8392,
      "뤠위": 8393,
      "뤼갸": 8394,
      "륨뭬": 8395,
      "릴랗": 8396,
      "립타": 8397,
      "링따": 8398,
      "만았": 8399,
      "만쿄": 8400,
      "많들": 8401,
      "맛칩": 8402,
      "맞타": 8403,
      "맡윗": 8404,
      "맵유": 8405,
      "먼죹": 8406,
      "멈묽": 8407,
      "메울": 8408,
      "멘뉘": 8409,
      "멸셔": 8410,
      "몃친": 8411,
      "목텔": 8412,
      "묩뗄": 8413,
      "묩텔": 8414,
      "문위": 8415,
      "문읊": 8416,
      "묻쓴": 8417,
      "물료": 8418,
      "뭬뉘": 8419,
      "뮤냔": 8420,
      "뮤얻": 8421,
      "뮨뉘": 8422,
      "뮨예": 8423,
      "믈료": 8424,
      "받는": 8425,
      "방익": 8426,
      "뱌탁": 8427,
      "벌롤": 8428,
      "벤썬": 8429,
      "변녜": 8430,
      "변채": 8431,
      "별뇨": 8432,
      "뵤읾": 8433,
      "부갚": 8434,
      "분위": 8435,
      "붐갸": 8436,
      "붚뷴": 8437,
      "뷰눈": 8438,
      "뷰뗘": 8439,
      "뷰죡": 8440,
      "뷴튼": 8441,
      "빵읾": 8442,
      "빻뮬": 8443,
      "빻은": 8444,
      "뻔함": 8445,
      "뿌샬": 8446,
      "뿡겅": 8447,
      "쀼예": 8448,
      "삐수": 8449,
      "샤있": 8450,
      "샹택": 8451,
      "셔뤼": 8452,
      "셩쑥": 8453,
      "셩윌": 8454,
      "수갸": 8455,
      "숩닌댜": 8456,
      "쉬간": 8457,
      "쉭캰": 8458,
      "쉴먕": 8459,
      "쉴운": 8460,
      "슉솟": 8461,
      "슉쇽": 8462,
      "슉숀": 8463,
      "슉팏": 8464,
      "슡쪼": 8465,
      "스면": 8466,
      "실먕": 8467,
      "십은": 8468,
      "싸씬": 8469,
      "싸위": 8470,
      "썬먕": 8471,
      "쎄욜": 8472,
      "쏙갸": 8473,
      "쑤위": 8474,
      "쑤쭌": 8475,
      "쒸엇": 8476,
      "쒸엊": 8477,
      "씨코": 8478,
      "씩땅": 8479,
      "안움": 8480,
      "않예": 8481,
      "않훈": 8482,
      "알오": 8483,
      "앞뻬": 8484,
      "야닒": 8485,
      "야쮸": 8486,
      "약위": 8487,
      "약캅": 8488,
      "얀훌": 8489,
      "얀흠": 8490,
      "얍폐": 8491,
      "얗한": 8492,
      "얘옹": 8493,
      "얘청": 8494,
      "억요": 8495,
      "언위": 8496,
      "얹써": 8497,
      "얼려": 8498,
      "얼름": 8499,
      "엉짱": 8500,
      "엊교": 8501,
      "엎욕": 8502,
      "엔닙": 8503,
      "엔셔": 8504,
      "엠눈": 8505,
      "엣섯": 8506,
      "여러": 8507,
      "엾엇": 8508,
      "옅숲": 8509,
      "옆오": 8510,
      "예또": 8511,
      "옥챵": 8512,
      "옮레": 8513,
      "옰레": 8514,
      "와써": 8515,
      "왔숩": 8516,
      "욘쳔": 8517,
      "욜랴": 8518,
      "운태": 8519,
      "울로": 8520,
      "웃션": 8521,
      "웨올": 8522,
      "위떠": 8523,
      "위쌍": 8524,
      "위악": 8525,
      "위틀": 8526,
      "윈룬": 8527,
      "윈쮜": 8528,
      "윈칙": 8529,
      "윈텐": 8530,
      "윌랐": 8531,
      "윗샀": 8532,
      "유넝": 8533,
      "윤넝": 8534,
      "율때": 8535,
      "읊롬": 8536,
      "읖료": 8537,
      "인옹": 8538,
      "인트": 8539,
      "잃런": 8540,
      "잃왱": 8541,
      "잃칙": 8542,
      "있쓺": 8543,
      "있옹": 8544,
      "잊씁": 8545,
      "잎뿔": 8546,
      "잎큐": 8547,
      "잎닙댜": 8548,
      "잚못": 8549,
      "쟝뉘": 8550,
      "쟝인": 8551,
      "쟝첨": 8552,
      "저셔": 8553,
      "적인": 8554,
      "젊데": 8555,
      "젊렴": 8556,
      "졈운": 8557,
      "좁교": 8558,
      "좋꼽": 8559,
      "좋꼿": 8560,
      "좋꽂": 8561,
      "좋콕": 8562,
      "좋후": 8563,
      "죃숩": 8564,
      "죃씁": 8565,
      "죡끎": 8566,
      "중씸": 8567,
      "쥑갸": 8568,
      "쥔처": 8569,
      "진눈": 8570,
      "짝갸": 8571,
      "쩌눈": 8572,
      "쩡쪼": 8573,
      "쩨쿠": 8574,
      "쪼식": 8575,
      "쬐꾜": 8576,
      "쭐챵": 8577,
      "쭝위": 8578,
      "쮜만": 8579,
      "찜땍": 8580,
      "척닿": 8581,
      "청쑈": 8582,
      "청쪼": 8583,
      "청한": 8584,
      "첵카": 8585,
      "쳐념": 8586,
      "촉위": 8587,
      "쵸훈": 8588,
      "추먈": 8589,
      "추싸": 8590,
      "춥변": 8591,
      "췬쿠": 8592,
      "췸댈": 8593,
      "츙푼": 8594,
      "치컨": 8595,
      "칙끼": 8596,
      "칙월": 8597,
      "친잘": 8598,
      "칟솖": 8599,
      "칠눈": 8600,
      "칠졀": 8601,
      "카컥": 8602,
      "칼굼": 8603,
      "캅폐": 8604,
      "캇쥐": 8605,
      "캉쭈": 8606,
      "캑신": 8607,
      "캭꼬": 8608,
      "컹운": 8609,
      "케오": 8610,
      "콤콤": 8611,
      "콴림": 8612,
      "퀘쩍": 8613,
      "퀸는": 8614,
      "탁쿄": 8615,
      "탄쩜": 8616,
      "탠는": 8617,
      "텐는": 8618,
      "통뱐": 8619,
      "툐한": 8620,
      "툭휘": 8621,
      "툰는": 8622,
      "트뤼": 8623,
      "포꼬": 8624,
      "폭꼬": 8625,
      "폭됴": 8626,
      "푼뤼": 8627,
      "풋떠": 8628,
      "퓨는": 8629,
      "퓰편": 8630,
      "한납": 8631,
      "한냔": 8632,
      "한눌": 8633,
      "한짬": 8634,
      "할꼬": 8635,
      "함계": 8636,
      "합닉댜": 8637,
      "핫싫": 8638,
      "핫쎄오": 8639,
      "핫쉰눈": 8640,
      "했교": 8641,
      "했운": 8642,
      "했눈톄": 8643,
      "햐겟": 8644,
      "햐곬": 8645,
      "햐꿰": 8646,
      "햐셧": 8647,
      "햐욜": 8648,
      "햐콘": 8649,
      "햐탸": 8650,
      "헌관": 8651,
      "헌른": 8652,
      "헤션": 8653,
      "홅뗀": 8654,
      "홱뗀": 8655,
      "홴뗄": 8656,
      "홸뗄": 8657,
      "홽뗄": 8658,
      "훨신": 8659,
      "힘들": 8660,
      "효텔룬": 8661,
      "좋았습": 8662,
      "좋았오": 8663,
      "효뗄웨": 8664,
      "10푼": 8665,
      "좋앝교": 8666,
      "씁뉘닥": 8667,
      "좋얏서": 8668,
      "합뉘닫": 8669,
      "합뉘닸": 8670,
      "위용핥": 8671,
      "칼꿈학교": 8672,
      "방뮨햇": 8673,
      "좋씁닛": 8674,
      "많촉쓰": 8675,
      "껙꿋한": 8676,
      "깖큼한": 8677,
      "욧선부": 8678,
      "5셩끕": 8679,
      "꽝않뤼": 8680,
      "2윈씰": 8681,
      "좋눼요": 8682,
      "광않뤼": 8683,
      "활쟝쉴": 8684,
      "활쟝실": 8685,
      "췌코위": 8686,
      "환쟝쉴": 8687,
      "랴윤쥐": 8688,
      "야윳할": 8689,
      "4썽굽": 8690,
      "2걔": 8691,
      "2얼": 8692,
      "36": 8693,
      "4만": 8694,
      "5뿐": 8695,
      "5쳔": 8696,
      "5퓬": 8697,
      "7많": 8698,
      "갇툰": 8699,
      "갚뉘댜": 8700,
      "개쿳": 8701,
      "객쉬": 8702,
      "갸눙": 8703,
      "갸뜬": 8704,
      "갸성": 8705,
      "갸썽뷔": 8706,
      "걍츄": 8707,
      "건묽": 8708,
      "겅헒": 8709,
      "겋혐": 8710,
      "견치": 8711,
      "겻됴": 8712,
      "관릿": 8713,
      "괜찮": 8714,
      "괭쟝": 8715,
      "괭쟝휘": 8716,
      "교위": 8717,
      "굣잎": 8718,
      "구윈": 8719,
      "군떼": 8720,
      "굳위": 8721,
      "굴레": 8722,
      "굻량": 8723,
      "귀뷴": 8724,
      "귁꺄": 8725,
      "귄뎨": 8726,
      "귐많": 8727,
      "귑뷴": 8728,
      "그련": 8729,
      "깆됴": 8730,
      "깍꺄": 8731,
      "깜동": 8732,
      "깥교": 8733,
      "깩쉬": 8734,
      "깹술": 8735,
      "꺄먼": 8736,
      "꺽쩡": 8737,
      "껱쿳": 8738,
      "꼴료": 8739,
      "꾸낭": 8740,
      "뀌한": 8741,
      "뀜위": 8742,
      "끈낳": 8743,
      "끗한": 8744,
      "낙쿄": 8745,
      "낢샨": 8746,
      "냅뿌": 8747,
      "냐와": 8748,
      "냠먀": 8749,
      "넉뭄": 8750,
      "널코": 8751,
      "넓물": 8752,
      "넓쿄": 8753,
      "넹용": 8754,
      "놔셔": 8755,
      "뇰랐": 8756,
      "눈뗌": 8757,
      "눌료": 8758,
      "뉘닺": 8759,
      "뉘얻": 8760,
      "는뎄": 8761,
      "는치": 8762,
      "는텡": 8763,
      "닉꼬": 8764,
      "닌뎨": 8765,
      "닐랗": 8766,
      "닝터": 8767,
      "단뉘": 8768,
      "닮룰": 8769,
      "닮른": 8770,
      "닿읽": 8771,
      "덕뷴": 8772,
      "덞먼": 8773,
      "뎐뉘": 8774,
      "뎔략": 8775,
      "돼교": 8776,
      "됨만": 8777,
      "됴록": 8778,
      "두럽": 8779,
      "뒈억": 8780,
      "들립": 8781,
      "듦엌": 8782,
      "따교": 8783,
      "따씨": 8784,
      "따쿄": 8785,
      "딴닉": 8786,
      "딸룰": 8787,
      "땍꾜": 8788,
      "뙈셔": 8789,
      "뚜뤼": 8790,
      "뚜윈": 8791,
      "뜨려": 8792,
      "란뉘": 8793,
      "랒써": 8794,
      "랴뮈": 8795,
      "랴토": 8796,
      "러뮤": 8797,
      "런뮤": 8798,
      "런투": 8799,
      "럿써": 8800,
      "레오": 8801,
      "렌뜨": 8802,
      "렴물": 8803,
      "렷써": 8804,
      "렸써": 8805,
      "례욜": 8806,
      "룬눈": 8807,
      "룬뎅": 8808,
      "뤼냐": 8809,
      "륑한": 8810,
      "륨셥": 8811,
      "리눈": 8812,
      "릭캬": 8813,
      "림타": 8814,
      "릿쓰": 8815,
      "많함": 8816,
      "맒교": 8817,
      "맨유": 8818,
      "먈핥": 8819,
      "먹울": 8820,
      "먹읊": 8821,
      "메웁": 8822,
      "묘룩": 8823,
      "묘툰": 8824,
      "문울": 8825,
      "물위": 8826,
      "묽로": 8827,
      "뮈얾": 8828,
      "뮤였": 8829,
      "뮨난": 8830,
      "뮬됴": 8831,
      "받땃": 8832,
      "방엘": 8833,
      "번귀": 8834,
      "번함": 8835,
      "벌뇨": 8836,
      "별록": 8837,
      "볘입": 8838,
      "봤눈테": 8839,
      "뵤익": 8840,
      "뵤코": 8841,
      "뵨는": 8842,
      "부툐": 8843,
      "뷴둘위": 8844,
      "뷸룰": 8845,
      "빵우": 8846,
      "뻥음": 8847,
      "뼝벎": 8848,
      "뼝윈": 8849,
      "뼝짱": 8850,
      "뽀똥": 8851,
      "뽀위눈": 8852,
      "뽁교": 8853,
      "뿌교": 8854,
      "쁠료": 8855,
      "사욘": 8856,
      "사용": 8857,
      "샤운": 8858,
      "섞오": 8859,
      "선됴": 8860,
      "섦오": 8861,
      "섰오": 8862,
      "섶핏": 8863,
      "셋오": 8864,
      "셔욜": 8865,
      "션토": 8866,
      "셤먼": 8867,
      "셰욜": 8868,
      "숳뉘따": 8869,
      "쉬꼬": 8870,
      "쉬먼": 8871,
      "쉭껀": 8872,
      "쉽교": 8873,
      "슉견": 8874,
      "슉송": 8875,
      "슡빡": 8876,
      "실눈": 8877,
      "십읊": 8878,
      "싸짱": 8879,
      "써욘": 8880,
      "썸요": 8881,
      "썼요": 8882,
      "썽껼": 8883,
      "썽됴": 8884,
      "쏘립": 8885,
      "쏘한": 8886,
      "쑤토": 8887,
      "쑥교": 8888,
      "쑥쇽": 8889,
      "쒸웠": 8890,
      "씁닉댜": 8891,
      "씨만": 8892,
      "씨예": 8893,
      "씨칸": 8894,
      "씩꼬": 8895,
      "씩싸": 8896,
      "씸때": 8897,
      "아켱": 8898,
      "악간": 8899,
      "앉교": 8900,
      "앉꼬": 8901,
      "앉훔": 8902,
      "않는": 8903,
      "않웃": 8904,
      "앎썽": 8905,
      "암오": 8906,
      "앗오": 8907,
      "야욜": 8908,
      "약칸": 8909,
      "얀았": 8910,
      "얀훔": 8911,
      "양쉽": 8912,
      "얘젼": 8913,
      "얘펏": 8914,
      "얘펴": 8915,
      "어쩌": 8916,
      "없셧": 8917,
      "었욤": 8918,
      "었눈테": 8919,
      "엉됴": 8920,
      "엉창": 8921,
      "엎빵": 8922,
      "엎셨": 8923,
      "엠써": 8924,
      "엠오": 8925,
      "엣선": 8926,
      "엣성": 8927,
      "엣썬": 8928,
      "여욯": 8929,
      "역퀴": 8930,
      "엮오": 8931,
      "옆교": 8932,
      "옆는": 8933,
      "예아": 8934,
      "예욘": 8935,
      "옙픈": 8936,
      "옛석": 8937,
      "옜쩌": 8938,
      "옥샹": 8939,
      "옥턍": 8940,
      "온는": 8941,
      "옴션": 8942,
      "완벽": 8943,
      "왓닥": 8944,
      "왓눈뒈": 8945,
      "왹콴": 8946,
      "요꼬": 8947,
      "요쁜": 8948,
      "요한": 8949,
      "욤만": 8950,
      "움몌": 8951,
      "웨욥": 8952,
      "위량": 8953,
      "위섣": 8954,
      "위쌩": 8955,
      "위욱": 8956,
      "위한": 8957,
      "윈뉘": 8958,
      "윈씨": 8959,
      "윈청": 8960,
      "윈카": 8961,
      "윌란": 8962,
      "윌졍": 8963,
      "윕실": 8964,
      "윕닐댜": 8965,
      "윗셔": 8966,
      "윗셨": 8967,
      "윗쓺": 8968,
      "윗움": 8969,
      "윙옹": 8970,
      "은료": 8971,
      "인척": 8972,
      "인치": 8973,
      "일랴": 8974,
      "읽용": 8975,
      "읾옹": 8976,
      "읾탄": 8977,
      "입용": 8978,
      "잇옹": 8979,
      "있쑵": 8980,
      "있울": 8981,
      "잉련": 8982,
      "잊쑴": 8983,
      "잊었셔": 8984,
      "잎닛": 8985,
      "잎닝댜": 8986,
      "잚많": 8987,
      "잚묫": 8988,
      "쟝읊": 8989,
      "쟝잇": 8990,
      "져럼한": 8991,
      "젼뱐": 8992,
      "젼환": 8993,
      "졀태": 8994,
      "졉끈": 8995,
      "졉큰": 8996,
      "졍톤": 8997,
      "좋뤠": 8998,
      "좋슿": 8999,
      "좋치": 9000,
      "좋콩": 9001,
      "좋터": 9002,
      "좾씩": 9003,
      "죃쯥": 9004,
      "죠합": 9005,
      "쥘쌰": 9006,
      "쥬변": 9007,
      "쥬착": 9008,
      "쥬찹": 9009,
      "쥬펀": 9010,
      "직얹": 9011,
      "쨘훈": 9012,
      "쩐쳬": 9013,
      "쩐홧": 9014,
      "쩡똔": 9015,
      "쩡퓌": 9016,
      "쩨쿠인": 9017,
      "쪼움": 9018,
      "쪼한": 9019,
      "쭉까": 9020,
      "쭉뱍": 9021,
      "쭝푼": 9022,
      "쮜댜": 9023,
      "찌갸": 9024,
      "찐큐": 9025,
      "찢또": 9026,
      "챵은": 9027,
      "챵토": 9028,
      "처눈": 9029,
      "첨운": 9030,
      "청졍": 9031,
      "첵큭": 9032,
      "쳍끄": 9033,
      "쵓씩": 9034,
      "추쨔": 9035,
      "충엡": 9036,
      "췌꼽": 9037,
      "췌적": 9038,
      "취퀀": 9039,
      "칠절": 9040,
      "칠쩔": 9041,
      "칠차": 9042,
      "칱안": 9043,
      "칵꺄": 9044,
      "캇셩삐": 9045,
      "캉츄": 9046,
      "캭코": 9047,
      "커위": 9048,
      "케꿎": 9049,
      "케끝": 9050,
      "케셔": 9051,
      "켠뒤": 9052,
      "코눈": 9053,
      "코충": 9054,
      "콩싸": 9055,
      "콴리": 9056,
      "쾐찬": 9057,
      "크낳": 9058,
      "키눈": 9059,
      "탄녔": 9060,
      "탈눈": 9061,
      "태한": 9062,
      "탸어": 9063,
      "탸윈": 9064,
      "텐눈": 9065,
      "텝뷔": 9066,
      "통않": 9067,
      "툴려": 9068,
      "툴뤼": 9069,
      "툴륌": 9070,
      "팡에": 9071,
      "팡인": 9072,
      "팸먼": 9073,
      "편의": 9074,
      "포교": 9075,
      "포윈눈": 9076,
      "폭코": 9077,
      "표따": 9078,
      "푼뚤": 9079,
      "푼룬": 9080,
      "풀뤽": 9081,
      "퓌헤": 9082,
      "퓔로": 9083,
      "퓨꺼": 9084,
      "퓨룰": 9085,
      "퓨싼": 9086,
      "퓬들": 9087,
      "피헤": 9088,
      "학킨": 9089,
      "한낢": 9090,
      "한낯": 9091,
      "한쑴": 9092,
      "할뉴": 9093,
      "할는": 9094,
      "핥먼": 9095,
      "합눈": 9096,
      "합뉩댜": 9097,
      "합뉠댜": 9098,
      "핫싣": 9099,
      "항꾜": 9100,
      "햇댜": 9101,
      "했욺": 9102,
      "했씁뉘댜": 9103,
      "햋눈뒈": 9104,
      "햋눈뎨": 9105,
      "햐꼰": 9106,
      "햐꼿": 9107,
      "햐낱": 9108,
      "햐어": 9109,
      "햐콕": 9110,
      "햐콩": 9111,
      "향꼬": 9112,
      "헉콥": 9113,
      "헌냐": 9114,
      "헌변": 9115,
      "헤섬": 9116,
      "호텐": 9117,
      "혹껑": 9118,
      "홱텔": 9119,
      "횃텔": 9120,
      "횹뗄": 9121,
      "휜륑": 9122,
      "휠뉭": 9123,
      "좋앗숲": 9124,
      "좋앗움": 9125,
      "좋얏씁": 9126,
      "합뉘닳": 9127,
      "합뉘담": 9128,
      "췬졀헛": 9129,
      "숩뉘당": 9130,
      "좋햐왜": 9131,
      "췬쩔핫": 9132,
      "칼끎함": 9133,
      "췬철한": 9134,
      "췬절핫": 9135,
      "팡뮨할": 9136,
      "팡뮨핥": 9137,
      "TV갸": 9138,
      "30뿐": 9139,
      "숲뉘당": 9140,
      "깖꿈학코": 9141,
      "댜움예": 9142,
      "좋숲뉘타": 9143,
      "친젊햐": 9144,
      "요션부": 9145,
      "쾅앉뤼": 9146,
      "화창싫": 9147,
      "싣썰됴": 9148,
      "요선쀼": 9149,
      "젼먕위": 9150,
      "햐쉬교": 9151,
      "좋앍오": 9152,
      "쬐코위": 9153,
      "푼둘됴": 9154,
      "좋한오": 9155,
      "-)": 9156,
      "-^": 9157,
      ".^^": 9158,
      "1층": 9159,
      "3뻔": 9160,
      "4일": 9161,
      "55": 9162,
      "5효": 9163,
      "6월": 9164,
      "600": 9165,
      "8월": 9166,
      ":-)": 9167,
      "CS": 9168,
      "CT": 9169,
      "CU": 9170,
      "LCT": 9171,
      "^.^": 9172,
      "ng": 9173,
      "te": 9174,
      "~!!!": 9175,
      "갇셩뷔": 9176,
      "갓울": 9177,
      "개끝": 9178,
      "갸깍": 9179,
      "갼뉘": 9180,
      "갼단": 9181,
      "건위": 9182,
      "겋위": 9183,
      "겍꿋": 9184,
      "겝슐": 9185,
      "겨윤": 9186,
      "견쥐": 9187,
      "계오": 9188,
      "곗씩": 9189,
      "곡굽": 9190,
      "공싸": 9191,
      "괸천": 9192,
      "귀데": 9193,
      "귀또": 9194,
      "긷데": 9195,
      "긷때": 9196,
      "까뉘": 9197,
      "깍켝": 9198,
      "깖싸": 9199,
      "깟썽": 9200,
      "깠셩": 9201,
      "깥위": 9202,
      "깻꿋": 9203,
      "깽꿋": 9204,
      "꺽컥": 9205,
      "껀뒷": 9206,
      "꼐곡": 9207,
      "꼐콕": 9208,
      "꼬눈": 9209,
      "꼬오": 9210,
      "꾕쟝": 9211,
      "꾼뒈": 9212,
      "꿰셔": 9213,
      "꿴짠": 9214,
      "꿸챦": 9215,
      "뀨오": 9216,
      "끽까": 9217,
      "낏됴": 9218,
      "낢많": 9219,
      "낫셔": 9220,
      "낮셔": 9221,
      "낵카": 9222,
      "냐옥": 9223,
      "냑꾜": 9224,
      "넘뭍": 9225,
      "네욕": 9226,
      "네욘": 9227,
      "년뮤": 9228,
      "녈뮤": 9229,
      "녜옳": 9230,
      "녜옹": 9231,
      "놂려": 9232,
      "뇰람": 9233,
      "뇰랴": 9234,
      "뉘닮": 9235,
      "뉘닸": 9236,
      "뉘닿": 9237,
      "뉜눈": 9238,
      "뉠떠": 9239,
      "뉩뉘댜": 9240,
      "는찌": 9241,
      "니단": 9242,
      "닥캬": 9243,
      "단너": 9244,
      "단룬": 9245,
      "닮먾": 9246,
      "닸씨": 9247,
      "닺눈": 9248,
      "댜면": 9249,
      "댜우몌": 9250,
      "덞만": 9251,
      "데꾜": 9252,
      "데츙": 9253,
      "덱고": 9254,
      "델뉭": 9255,
      "돈눈": 9256,
      "돼언": 9257,
      "뒈얻": 9258,
      "뒈쥐": 9259,
      "들러": 9260,
      "듦러": 9261,
      "듦역": 9262,
      "듦운": 9263,
      "듦울": 9264,
      "듦읽": 9265,
      "따뉘": 9266,
      "따많": 9267,
      "딴룬": 9268,
      "딴쩜": 9269,
      "딴한": 9270,
      "떻께": 9271,
      "떼뤼": 9272,
      "떼윌": 9273,
      "떼잃": 9274,
      "뗌뮬": 9275,
      "또오": 9276,
      "뜯됴": 9277,
      "러욺": 9278,
      "럭뮤": 9279,
      "런쮜": 9280,
      "럶묾": 9281,
      "럶뭇": 9282,
      "렘섹": 9283,
      "려묶": 9284,
      "려묾": 9285,
      "려율": 9286,
      "렴무": 9287,
      "렴뭅": 9288,
      "렴뭉": 9289,
      "렴뮨": 9290,
      "례욧": 9291,
      "뤠욤": 9292,
      "뤼였": 9293,
      "리터": 9294,
      "린떠": 9295,
      "립뉘따": 9296,
      "릿타": 9297,
      "만꼬": 9298,
      "만써": 9299,
      "만쪼": 9300,
      "많쪼": 9301,
      "많쿄": 9302,
      "많힉": 9303,
      "맏있": 9304,
      "맑할": 9305,
      "맒할": 9306,
      "맡쟈": 9307,
      "맣한": 9308,
      "먀우": 9309,
      "먼져": 9310,
      "먼찌": 9311,
      "먾끔": 9312,
      "먾쏙": 9313,
      "먾죠": 9314,
      "먾쿰": 9315,
      "먾헌": 9316,
      "멋쥡": 9317,
      "메욱": 9318,
      "멘뉘튀": 9319,
      "면치": 9320,
      "면태": 9321,
      "몃찐": 9322,
      "묘덴": 9323,
      "묘둘": 9324,
      "묘읾": 9325,
      "묫텔": 9326,
      "묵겼": 9327,
      "묵엿": 9328,
      "묵운": 9329,
      "묽룐": 9330,
      "묾됴": 9331,
      "묾룐": 9332,
      "뮤촉": 9333,
      "받닸": 9334,
      "밧눈": 9335,
      "방읽": 9336,
      "번위": 9337,
      "변쩨": 9338,
      "별론": 9339,
      "복또": 9340,
      "봤눈뒈": 9341,
      "뵤교": 9342,
      "부가": 9343,
      "분둘": 9344,
      "불까": 9345,
      "뷘눈": 9346,
      "뷴뜬": 9347,
      "뷸까": 9348,
      "빠위": 9349,
      "빵또": 9350,
      "빵엣": 9351,
      "뻫뮨": 9352,
      "뼛셔": 9353,
      "뽀읾": 9354,
      "뽁꼬": 9355,
      "뿌산": 9356,
      "뿌탑": 9357,
      "뿐뚤": 9358,
      "뿡켱": 9359,
      "삣쯔": 9360,
      "사욤": 9361,
      "샤남": 9362,
      "샤취": 9363,
      "샤항": 9364,
      "샤쟝릶": 9365,
      "섕갸": 9366,
      "섣오": 9367,
      "섶요": 9368,
      "섶피": 9369,
      "셉벅": 9370,
      "셍꺽": 9371,
      "셔핏": 9372,
      "션눈": 9373,
      "셨써": 9374,
      "셩빅": 9375,
      "셰욤": 9376,
      "수끄": 9377,
      "수투": 9378,
      "수퉤": 9379,
      "숙쑈": 9380,
      "순는": 9381,
      "숩니댜": 9382,
      "숩닢따": 9383,
      "숩님따": 9384,
      "숲니": 9385,
      "숲닙": 9386,
      "쉐뜨": 9387,
      "쉬꾜": 9388,
      "쉬삷": 9389,
      "쉬였": 9390,
      "쉴뤼": 9391,
      "신쭉": 9392,
      "싶눼오": 9393,
      "싸유": 9394,
      "싸위투": 9395,
      "쌥뼉": 9396,
      "써뷔": 9397,
      "써윤": 9398,
      "썲셔": 9399,
      "썽멁": 9400,
      "썽슈": 9401,
      "쐬꼬": 9402,
      "쑤쩐": 9403,
      "쑥솔": 9404,
      "쑥솖": 9405,
      "쑥쏢": 9406,
      "쑥쬬": 9407,
      "쒸썰": 9408,
      "쒸었": 9409,
      "쓰템": 9410,
      "씁릭": 9411,
      "씁니따": 9412,
      "씁닝따": 9413,
      "씨면": 9414,
      "씬른": 9415,
      "씬차": 9416,
      "씬처": 9417,
      "씸태": 9418,
      "씻션": 9419,
      "안는": 9420,
      "안앗": 9421,
      "앉낼": 9422,
      "앉늑": 9423,
      "앉닒": 9424,
      "앉울": 9425,
      "앉움": 9426,
      "앉쥬": 9427,
      "앉췸": 9428,
      "않뉠": 9429,
      "않은": 9430,
      "않훔": 9431,
      "앋셔": 9432,
      "앓쥬": 9433,
      "았쉭": 9434,
      "았요": 9435,
      "앝셔": 9436,
      "앝췸": 9437,
      "야뤼": 9438,
      "야찌": 9439,
      "얀늑": 9440,
      "얀흙": 9441,
      "얄교": 9442,
      "얄레": 9443,
      "얌뭇": 9444,
      "얏쉿": 9445,
      "얕췸": 9446,
      "얘쁩": 9447,
      "얘얇": 9448,
      "얩뿐": 9449,
      "얩퍼": 9450,
      "어요": 9451,
      "어욧": 9452,
      "억기": 9453,
      "언욧": 9454,
      "업룬": 9455,
      "없썼": 9456,
      "었교": 9457,
      "었숲": 9458,
      "엉월": 9459,
      "엌귀": 9460,
      "엌켠": 9461,
      "엌퀴": 9462,
      "엎써": 9463,
      "엎예": 9464,
      "엎욥": 9465,
      "엎코": 9466,
      "엎쿄": 9467,
      "에욧": 9468,
      "엠셔": 9469,
      "여옷": 9470,
      "역뀌": 9471,
      "열룩": 9472,
      "열오": 9473,
      "엶려": 9474,
      "엶쉼": 9475,
      "엷룸": 9476,
      "엷행": 9477,
      "엷헹": 9478,
      "엽셨": 9479,
      "엽쉬": 9480,
      "엽쟝": 9481,
      "엾꾜": 9482,
      "엾임": 9483,
      "엾헹": 9484,
      "였뎐": 9485,
      "였쯥": 9486,
      "였는뎨": 9487,
      "옅귀": 9488,
      "옇쌍": 9489,
      "옇오": 9490,
      "예끼": 9491,
      "예청": 9492,
      "옛섯": 9493,
      "옛썼": 9494,
      "옛억": 9495,
      "옥쪼": 9496,
      "온쑤": 9497,
      "온토": 9498,
      "옰랴": 9499,
      "완쳘": 9500,
      "왈썬": 9501,
      "왗셔": 9502,
      "왦먼": 9503,
      "왳선": 9504,
      "요꾜": 9505,
      "요휘": 9506,
      "욘돌": 9507,
      "욜눈": 9508,
      "우머": 9509,
      "우멩": 9510,
      "우훙": 9511,
      "운넝": 9512,
      "운치": 9513,
      "욺됴": 9514,
      "욺예": 9515,
      "움씨": 9516,
      "움위": 9517,
      "웨썼": 9518,
      "위수": 9519,
      "위췻": 9520,
      "위칡": 9521,
      "위툴": 9522,
      "윈쩍": 9523,
      "윈척": 9524,
      "윌랖": 9525,
      "윌료": 9526,
      "윌룬": 9527,
      "윔면": 9528,
      "윔칫": 9529,
      "윕뿌": 9530,
      "윕닉댜": 9531,
      "윗뜨": 9532,
      "윗서셔": 9533,
      "윙씨": 9534,
      "윙칙": 9535,
      "윳썬": 9536,
      "윽료": 9537,
      "읊론": 9538,
      "음엔": 9539,
      "이옹": 9540,
      "읽뱐": 9541,
      "읽텨": 9542,
      "읾랍": 9543,
      "잃텨": 9544,
      "임랗": 9545,
      "임왱": 9546,
      "잇읊": 9547,
      "있은": 9548,
      "있음": 9549,
      "잊앚": 9550,
      "잊쥐": 9551,
      "잋꼬": 9552,
      "잋른": 9553,
      "잎쿠": 9554,
      "쟈눈": 9555,
      "쟈쳬": 9556,
      "쟉똥": 9557,
      "쟝토": 9558,
      "저오": 9559,
      "젝캬": 9560,
      "져문": 9561,
      "져뮈": 9562,
      "졍돈": 9563,
      "좋곗": 9564,
      "좋궷": 9565,
      "좋억": 9566,
      "좋언": 9567,
      "좋취": 9568,
      "좋켸": 9569,
      "좋콘": 9570,
      "좋씁뉘탸": 9571,
      "좋넷오": 9572,
      "죠끎": 9573,
      "쥑껀": 9574,
      "쥑첩": 9575,
      "쥔쨩": 9576,
      "쥬챰": 9577,
      "직건": 9578,
      "질만": 9579,
      "짐많": 9580,
      "집많": 9581,
      "짓됴": 9582,
      "짓만": 9583,
      "짖됴": 9584,
      "짜쥔": 9585,
      "짢는": 9586,
      "쨍각": 9587,
      "쩌요": 9588,
      "쩌럼한": 9589,
      "쩐눈": 9590,
      "쩐는": 9591,
      "쩝끊": 9592,
      "쩝오": 9593,
      "쩝푼": 9594,
      "쩡돐": 9595,
      "쩡한": 9596,
      "쩨갸": 9597,
      "쫍교": 9598,
      "쫴꾜": 9599,
      "쫴악": 9600,
      "쮸썬": 9601,
      "찌먼": 9602,
      "찍갼": 9603,
      "찐룬": 9604,
      "찜몌": 9605,
      "찟썰": 9606,
      "찮눈": 9607,
      "찰못": 9608,
      "창잊": 9609,
      "척뀌": 9610,
      "천빤": 9611,
      "천홧": 9612,
      "첨인": 9613,
      "청했": 9614,
      "체갸": 9615,
      "체콩": 9616,
      "첵꾸윈": 9617,
      "쳔먕": 9618,
      "쳬쿠윈": 9619,
      "초끔": 9620,
      "초슅": 9621,
      "촛식": 9622,
      "쵀씩": 9623,
      "쵀옹": 9624,
      "출짱": 9625,
      "춧씬": 9626,
      "충양": 9627,
      "충엥": 9628,
      "췌곰": 9629,
      "췌콘": 9630,
      "췌쿠": 9631,
      "췌큰": 9632,
      "췸굳": 9633,
      "췸굿": 9634,
      "췸예": 9635,
      "츙쩐": 9636,
      "츙퓬": 9637,
      "카썽": 9638,
      "카카": 9639,
      "캐굿": 9640,
      "캬찌": 9641,
      "컨티": 9642,
      "케써": 9643,
      "켠묾": 9644,
      "콕객": 9645,
      "콤빵": 9646,
      "콩언": 9647,
      "콩향": 9648,
      "콴링": 9649,
      "쾐짠": 9650,
      "쿄욱": 9651,
      "쿡갸": 9652,
      "쿤쩌": 9653,
      "퀴룰": 9654,
      "퀴웨": 9655,
      "키룰": 9656,
      "킥꺄": 9657,
      "택꾜": 9658,
      "탬뮬": 9659,
      "턍휘": 9660,
      "텨웨": 9661,
      "통헤": 9662,
      "퇘셔": 9663,
      "퇴억": 9664,
      "툭갸": 9665,
      "틀려": 9666,
      "파람": 9667,
      "팡엣": 9668,
      "팡항": 9669,
      "팡향": 9670,
      "팥댜": 9671,
      "펀학께": 9672,
      "편학궤": 9673,
      "펼뇨": 9674,
      "폰눈": 9675,
      "표인": 9676,
      "표험": 9677,
      "푸산": 9678,
      "푿뗘": 9679,
      "풀룰": 9680,
      "퓬뚤": 9681,
      "플룐": 9682,
      "학꼭": 9683,
      "학쌩": 9684,
      "한났": 9685,
      "한낭": 9686,
      "한니": 9687,
      "한슘": 9688,
      "한탁": 9689,
      "합계": 9690,
      "합쿄": 9691,
      "합닝따": 9692,
      "합닉타": 9693,
      "항쌍": 9694,
      "해줏": 9695,
      "햇슈": 9696,
      "햇욺": 9697,
      "햇씁뉘": 9698,
      "햇룬뎨": 9699,
      "했떤": 9700,
      "했쑵": 9701,
      "했울": 9702,
      "했서오": 9703,
      "했침많": 9704,
      "했룬뒈": 9705,
      "했눈퉤": 9706,
      "행요": 9707,
      "햋눈테": 9708,
      "햐닉": 9709,
      "햐쉭": 9710,
      "햐엷": 9711,
      "햐턱": 9712,
      "향눈": 9713,
      "향쌍": 9714,
      "헉퀘": 9715,
      "헌뉘": 9716,
      "헌뎨": 9717,
      "헕꼬": 9718,
      "험교": 9719,
      "험케": 9720,
      "헙뤼댜": 9721,
      "헤츄": 9722,
      "헴셔": 9723,
      "헹뽁": 9724,
      "혼뗀": 9725,
      "활챵": 9726,
      "홭윈": 9727,
      "홭쟝": 9728,
      "횅뗄": 9729,
      "횹텐": 9730,
      "휨들": 9731,
      "휨듦": 9732,
      "...)": 9733,
      "~~~~~": 9734,
      "ㅠㅠㅠㅠㅠ": 9735,
      "효텔인": 9736,
      "좋앝숲": 9737,
      "씁뉘닫": 9738,
      "2019": 9739,
      ".......": 9740,
      "옇헹울": 9741,
      "숩뉘닺": 9742,
      "숩뉘떠": 9743,
      "찐졀학": 9744,
      "찐철함": 9745,
      "좋흖뒈": 9746,
      "좋흖테": 9747,
      "TV됴": 9748,
      "방문할": 9749,
      "칼큼학교": 9750,
      "10000": 9751,
      "12쉬": 9752,
      "묘뗄링": 9753,
      "5썽큽": 9754,
      "쯥뉘떠": 9755,
      "화창쉴": 9756,
      "2윈쉴": 9757,
      "쑤옇짱": 9758,
      "좋핫셔": 9759,
      "뷴둘됴": 9760,
      "환쟝실": 9761,
      "켐삥짱": 9762,
      "혹컁수": 9763,
      "넴쌕까": 9764,
      "확쟝씰": 9765,
      "활짱씰": 9766,
      "zzzz": 9767,
      "☆☆☆☆☆": 9768,
      "2썽": 9769,
      "5윈": 9770,
      "가치": 9771,
      "갊딴": 9772,
      "값뉘타": 9773,
      "갔격": 9774,
      "갖야오": 9775,
      "같셩": 9776,
      "갸운": 9777,
      "갹교": 9778,
      "갼능": 9779,
      "걋눈뎨": 9780,
      "걋셩뷔": 9781,
      "걔꼭": 9782,
      "격예": 9783,
      "격쩡": 9784,
      "고통": 9785,
      "관릭": 9786,
      "괸싾": 9787,
      "교눈": 9788,
      "굣쉬": 9789,
      "구랬": 9790,
      "귀를": 9791,
      "귀엔": 9792,
      "귁까": 9793,
      "귑푼": 9794,
      "규욤": 9795,
      "긱카": 9796,
      "깃또": 9797,
      "까꺄": 9798,
      "깜딴": 9799,
      "깝뉘타": 9800,
      "깩신": 9801,
      "깹꿋": 9802,
      "꺁끗": 9803,
      "꺄운": 9804,
      "꺄쮜": 9805,
      "꺼아": 9806,
      "꺼율": 9807,
      "꺽걱": 9808,
      "꺽격": 9809,
      "껄금": 9810,
      "꽁간": 9811,
      "꾹인": 9812,
      "끄꼬": 9813,
      "끎런": 9814,
      "끓료": 9815,
      "끼량": 9816,
      "끼뷴": 9817,
      "낄를": 9818,
      "난빻": 9819,
      "냅뷰": 9820,
      "냐운": 9821,
      "냐윤": 9822,
      "냔띠": 9823,
      "냠싼": 9824,
      "넋묾": 9825,
      "넒쿄": 9826,
      "넣묻": 9827,
      "네럭": 9828,
      "네뷰": 9829,
      "넥갸": 9830,
      "넥욕": 9831,
      "넨눈": 9832,
      "녠오": 9833,
      "놂랒": 9834,
      "놓운": 9835,
      "누큄": 9836,
      "눅뀌": 9837,
      "눼옹": 9838,
      "뉘됴": 9839,
      "뉘먼": 9840,
      "뉘웨": 9841,
      "는텔": 9842,
      "닒떠": 9843,
      "님떠": 9844,
      "닛터": 9845,
      "닫씨": 9846,
      "닭눈": 9847,
      "댜너": 9848,
      "댜먾": 9849,
      "던눈": 9850,
      "데코": 9851,
      "뎨얼": 9852,
      "돎료": 9853,
      "동얀": 9854,
      "돼얻": 9855,
      "됩뤼": 9856,
      "됩뉘따": 9857,
      "두른": 9858,
      "둔됴": 9859,
      "둘러": 9860,
      "둘렸": 9861,
      "뒈엄": 9862,
      "들역": 9863,
      "듦렀": 9864,
      "딸랴": 9865,
      "땁탑": 9866,
      "땝피": 9867,
      "떡까": 9868,
      "떼먀": 9869,
      "똥앉": 9870,
      "똥챵": 9871,
      "뙈오": 9872,
      "뙤꼬": 9873,
      "뚤여": 9874,
      "뜨력": 9875,
      "랒쓰": 9876,
      "램섀": 9877,
      "랴타": 9878,
      "러써": 9879,
      "럭갸": 9880,
      "렁었": 9881,
      "렇뮤": 9882,
      "렉끼": 9883,
      "렌눈": 9884,
      "렌두": 9885,
      "렝쟝": 9886,
      "려냐": 9887,
      "려뭇": 9888,
      "려운": 9889,
      "렴묽": 9890,
      "렴뭄": 9891,
      "렴뭍": 9892,
      "례욤": 9893,
      "례읾": 9894,
      "론냐": 9895,
      "론눈": 9896,
      "룬델": 9897,
      "뤠욜": 9898,
      "뤼닥": 9899,
      "뤼먼": 9900,
      "뤼부": 9901,
      "륌위": 9902,
      "륫밞": 9903,
      "름타": 9904,
      "릴타": 9905,
      "림먼": 9906,
      "림터": 9907,
      "만원": 9908,
      "만익": 9909,
      "만잃": 9910,
      "만찌": 9911,
      "많앗": 9912,
      "많았": 9913,
      "많앝": 9914,
      "맏따": 9915,
      "맏잇": 9916,
      "맞잇": 9917,
      "맞칩": 9918,
      "맬유": 9919,
      "먀윤": 9920,
      "먁허": 9921,
      "먈슴": 9922,
      "먹교": 9923,
      "먾위": 9924,
      "메틂": 9925,
      "멘뤼": 9926,
      "멜뉘": 9927,
      "멱운": 9928,
      "면칙": 9929,
      "멸뤽": 9930,
      "멸써": 9931,
      "몬텔": 9932,
      "몰륵": 9933,
      "묽론": 9934,
      "뮤눌": 9935,
      "받교": 9936,
      "밧았": 9937,
      "밧타": 9938,
      "방엠": 9939,
      "밭탁": 9940,
      "번웨": 9941,
      "번채": 9942,
      "변뉘": 9943,
      "별로": 9944,
      "본눈": 9945,
      "봤떤": 9946,
      "봤눈떼": 9947,
      "뵤는": 9948,
      "부같": 9949,
      "부땁": 9950,
      "부퇘": 9951,
      "분틂": 9952,
      "붇산": 9953,
      "붓텨": 9954,
      "뷴뤼": 9955,
      "뷸됴": 9956,
      "뷸변": 9957,
      "빛쓰": 9958,
      "빠토": 9959,
      "빨로": 9960,
      "빰예": 9961,
      "빻토": 9962,
      "뻘뇨": 9963,
      "뻬먼": 9964,
      "뽀눈": 9965,
      "뿐는": 9966,
      "뿐한": 9967,
      "뿔됴": 9968,
      "뿟짠": 9969,
      "쀼같": 9970,
      "사워": 9971,
      "선오": 9972,
      "섣됴": 9973,
      "섦또": 9974,
      "섧됴": 9975,
      "섰써": 9976,
      "션택": 9977,
      "셥퓟": 9978,
      "셥피": 9979,
      "셰딱": 9980,
      "쇽쵸": 9981,
      "숑쩡": 9982,
      "숑토": 9983,
      "수카": 9984,
      "숙빡": 9985,
      "숩닌": 9986,
      "숩닝댜": 9987,
      "숩닝타": 9988,
      "쉐요": 9989,
      "쉬룬": 9990,
      "쉬삶": 9991,
      "쉬써": 9992,
      "쉭꾸": 9993,
      "쉰위": 9994,
      "쉴는": 9995,
      "슈쥰": 9996,
      "슈쭌": 9997,
      "슉속": 9998,
      "슉쏙": 9999,
      "슡밗": 10000,
      "스먼": 10001,
      "식갼": 10002,
      "싣삷": 10003,
      "싫멓": 10004,
      "십울": 10005,
      "싱셜": 10006,
      "싶쁜": 10007,
      "싼책": 10008,
      "쌍운": 10009,
      "쌍한": 10010,
      "쌔벅": 10011,
      "쌔뼉": 10012,
      "쌩갸": 10013,
      "썅황": 10014,
      "썬용": 10015,
      "썰럼": 10016,
      "썽걺": 10017,
      "쏘용": 10018,
      "쑤까": 10019,
      "쑤쳘": 10020,
      "쑥견": 10021,
      "쑥까": 10022,
      "쑥컨": 10023,
      "쑨는": 10024,
      "쒸꼬": 10025,
      "쒸셜": 10026,
      "쒸욺": 10027,
      "쒸칸": 10028,
      "쓰됴": 10029,
      "쓱까": 10030,
      "쓸를": 10031,
      "씁뤼탸": 10032,
      "씁님타": 10033,
      "씁닢타": 10034,
      "씁닙타": 10035,
      "씨른": 10036,
      "씨삷": 10037,
      "씨셔": 10038,
      "씩샤": 10039,
      "씩컨": 10040,
      "씩쿄": 10041,
      "씬껑": 10042,
      "씸한": 10043,
      "아왜": 10044,
      "악한": 10045,
      "않네": 10046,
      "않뉜": 10047,
      "않울": 10048,
      "알췸": 10049,
      "야슇": 10050,
      "야써": 10051,
      "야인": 10052,
      "야쮜": 10053,
      "약겅": 10054,
      "얀낵": 10055,
      "얀뉩": 10056,
      "얀닢": 10057,
      "얀운": 10058,
      "얀촉": 10059,
      "얏쉰": 10060,
      "얏쮜": 10061,
      "얘욥": 10062,
      "얘쩡": 10063,
      "어욤": 10064,
      "언쉭": 10065,
      "얹왜": 10066,
      "얻는뎨": 10067,
      "업꾜": 10068,
      "업코": 10069,
      "엉써": 10070,
      "엌까": 10071,
      "엌껸": 10072,
      "엎꼬": 10073,
      "엎여": 10074,
      "엔오": 10075,
      "엣섟": 10076,
      "역깆": 10077,
      "역위": 10078,
      "연오": 10079,
      "엾씨": 10080,
      "였헹": 10081,
      "옅헹": 10082,
      "옇맣": 10083,
      "옛섶": 10084,
      "옛썽": 10085,
      "옹풂": 10086,
      "완로": 10087,
      "왔쑵": 10088,
      "왔는뒈": 10089,
      "왜ㅎㅎ": 10090,
      "왜ㅠㅠ": 10091,
      "욕짱": 10092,
      "욧쩐": 10093,
      "우롭": 10094,
      "운뇨": 10095,
      "욹뇨": 10096,
      "욺먼": 10097,
      "웃썬": 10098,
      "워오": 10099,
      "월써": 10100,
      "웰켬": 10101,
      "위따": 10102,
      "위뜰": 10103,
      "위머": 10104,
      "위불": 10105,
      "위사": 10106,
      "위앗": 10107,
      "위쩠": 10108,
      "윅께": 10109,
      "윅쮜": 10110,
      "윅찍": 10111,
      "윈투": 10112,
      "윈한": 10113,
      "윌넣": 10114,
      "윌뎨": 10115,
      "윌려": 10116,
      "윌쭐": 10117,
      "윕꾸": 10118,
      "윕뿔": 10119,
      "윕닢댜": 10120,
      "윕닌따": 10121,
      "윕닢타": 10122,
      "윗썰": 10123,
      "윗쑴": 10124,
      "윗씨": 10125,
      "을롬": 10126,
      "익용": 10127,
      "읾판": 10128,
      "잃용": 10129,
      "입왱": 10130,
      "있섰": 10131,
      "있쑴": 10132,
      "잊고": 10133,
      "잊련": 10134,
      "잊앗": 10135,
      "잋여": 10136,
      "잋움": 10137,
      "잎련": 10138,
      "잎뼈": 10139,
      "잎왱": 10140,
      "잚됴": 10141,
      "쟈언": 10142,
      "쟌눈": 10143,
      "쟘만": 10144,
      "젊때": 10145,
      "젊태": 10146,
      "젭팡문": 10147,
      "젼빤": 10148,
      "졉쿤": 10149,
      "졍멀": 10150,
      "좋질": 10151,
      "좋킨": 10152,
      "좋숲뉘댜": 10153,
      "좋숩뉘탸": 10154,
      "좿쉭": 10155,
      "좿씩": 10156,
      "죃댜": 10157,
      "죃안": 10158,
      "죃압": 10159,
      "죃욺": 10160,
      "죠훌": 10161,
      "줄챠": 10162,
      "줌찾": 10163,
      "쥔짤": 10164,
      "쥩얹": 10165,
      "쥩퀀": 10166,
      "짚많": 10167,
      "짜단": 10168,
      "짜찐": 10169,
      "짜췌": 10170,
      "짠는": 10171,
      "짤람": 10172,
      "짱됴": 10173,
      "쩐쟝": 10174,
      "쩐허": 10175,
      "쩝군썽": 10176,
      "쩡뙈": 10177,
      "쩡속": 10178,
      "쩡솖": 10179,
      "쪼함": 10180,
      "쪼흠": 10181,
      "쫏슅": 10182,
      "쭝뿐": 10183,
      "쭝오": 10184,
      "쭝젼": 10185,
      "쮜건": 10186,
      "쮜햐": 10187,
      "찌교": 10188,
      "차눈": 10189,
      "착귀": 10190,
      "창또": 10191,
      "창울": 10192,
      "처됴": 10193,
      "처럼": 10194,
      "척읾": 10195,
      "천예": 10196,
      "철데": 10197,
      "청숄": 10198,
      "청햇": 10199,
      "최약": 10200,
      "추착": 10201,
      "춘눈": 10202,
      "춥뻔": 10203,
      "충엔": 10204,
      "췌꼼": 10205,
      "취교": 10206,
      "췸굵": 10207,
      "췸꿀": 10208,
      "췸먼": 10209,
      "췻쑈": 10210,
      "츌창": 10211,
      "츤닛": 10212,
      "치토": 10213,
      "칱건": 10214,
      "칵카": 10215,
      "칸룽": 10216,
      "캅교": 10217,
      "캅운": 10218,
      "캅쥐": 10219,
      "캅뉘따": 10220,
      "캬셩": 10221,
      "캭귀": 10222,
      "켓써": 10223,
      "켠뒤션": 10224,
      "켠뒷선": 10225,
      "켭삐": 10226,
      "콕캑": 10227,
      "콘눈": 10228,
      "콩캰": 10229,
      "콴릴": 10230,
      "쾐천": 10231,
      "쿄똥": 10232,
      "쿄충": 10233,
      "쿠오": 10234,
      "쿳햐교": 10235,
      "퀘적": 10236,
      "퀵카": 10237,
      "키갸": 10238,
      "키뤼": 10239,
      "타먼": 10240,
      "탁꾜": 10241,
      "탈를": 10242,
      "태맡": 10243,
      "태물": 10244,
      "택까": 10245,
      "탸쿄": 10246,
      "터움": 10247,
      "턱카": 10248,
      "텨눈": 10249,
      "투예": 10250,
      "툿한": 10251,
      "트럿": 10252,
      "특휘": 10253,
      "틀됴": 10254,
      "파닥": 10255,
      "판왕": 10256,
      "팓타": 10257,
      "팡엘": 10258,
      "팡일": 10259,
      "팡잇": 10260,
      "팡잎": 10261,
      "퍼냔": 10262,
      "펑읾": 10263,
      "펑잃": 10264,
      "편난": 10265,
      "폰는": 10266,
      "폼면": 10267,
      "표탸": 10268,
      "푸교": 10269,
      "푸또": 10270,
      "푸툐": 10271,
      "푼됴": 10272,
      "풑싼": 10273,
      "퓬뤼": 10274,
      "플료": 10275,
      "필랴": 10276,
      "하눈": 10277,
      "학겠": 10278,
      "학길": 10279,
      "한낡": 10280,
      "한낫": 10281,
      "핥궤": 10282,
      "핥눈": 10283,
      "함켸": 10284,
      "합닛따": 10285,
      "합닐타": 10286,
      "핫슉": 10287,
      "해왜": 10288,
      "핸윤": 10289,
      "햅변": 10290,
      "햅써": 10291,
      "햇엄": 10292,
      "했움": 10293,
      "했턴": 10294,
      "햋쩌": 10295,
      "햐꼴": 10296,
      "햐떤": 10297,
      "햐랴": 10298,
      "햐쒸": 10299,
      "헐쒼": 10300,
      "험꿰": 10301,
      "헙교": 10302,
      "헤쓺": 10303,
      "헤편": 10304,
      "헷섯": 10305,
      "헷쑵": 10306,
      "홍뗀": 10307,
      "확윌": 10308,
      "환퀴": 10309,
      "황청": 10310,
      "훅귀": 10311,
      "훅뀌": 10312,
      "휜눈": 10313,
      "효텔운": 10314,
      "좋았꼬": 10315,
      "좋았쯥": 10316,
      "효뗄운": 10317,
      "좋앝씁": 10318,
      "좋앗교": 10319,
      "씁뉘당": 10320,
      "씁뉘닺": 10321,
      "씁뉘탓": 10322,
      "좋얏교": 10323,
      "합뉘닮": 10324,
      "합뉘당": 10325,
      "20뷴": 10326,
      "얘악한": 10327,
      "숩뉘단": 10328,
      "좋햐욕": 10329,
      "찐쩔핫": 10330,
      "찐철한": 10331,
      "췬절함": 10332,
      "숲뉘터": 10333,
      "12많": 10334,
      "잎뉘떠": 10335,
      "갹걱됴": 10336,
      "방움뮈": 10337,
      "깔큼학교": 10338,
      "찜데됴": 10339,
      "췌약위": 10340,
      "있여셔": 10341,
      "있여욤": 10342,
      "깸삥짱": 10343,
      "씻셜됴": 10344,
      "헤운때": 10345,
      "화짱쉴": 10346,
      "방음위": 10347,
      "옻션부": 10348,
      "쉬섧위": 10349,
      "잊엊셔": 10350,
      "넴쌕카": 10351,
      "휼룽한": 10352,
      "환짱싫": 10353,
      "활짱싫": 10354,
      "황창쉴": 10355,
      "좋앉요": 10356,
      "1씩갼": 10357,
      "2씅": 10358,
      "2캐": 10359,
      "3인": 10360,
      "5분": 10361,
      "5쉬": 10362,
      "5윌": 10363,
      "8씨": 10364,
      "간는": 10365,
      "갇썽": 10366,
      "갖은": 10367,
      "갗따": 10368,
      "같운": 10369,
      "갛룽": 10370,
      "갹코": 10371,
      "걋썽": 10372,
      "걋은": 10373,
      "걋셩삐": 10374,
      "걍릉": 10375,
      "거뉘": 10376,
      "걱졍": 10377,
      "게꿋": 10378,
      "겨위": 10379,
      "견뮨": 10380,
      "경위": 10381,
      "곗속": 10382,
      "곤눈": 10383,
      "공옹": 10384,
      "관륌": 10385,
      "관림": 10386,
      "괸싼": 10387,
      "교씬": 10388,
      "교충": 10389,
      "구롭": 10390,
      "군써": 10391,
      "굵런": 10392,
      "긷툐": 10393,
      "길를": 10394,
      "긺랴": 10395,
      "까오": 10396,
      "까폐": 10397,
      "까썽피": 10398,
      "깍졍": 10399,
      "깖착": 10400,
      "깠울": 10401,
      "깠눈뎨": 10402,
      "깡쓰": 10403,
      "깥야오": 10404,
      "깩끅": 10405,
      "깹쑬": 10406,
      "꺈금": 10407,
      "꺌굼": 10408,
      "껍삐": 10409,
      "껙찔": 10410,
      "껜꿋": 10411,
      "껱끅": 10412,
      "껱씰": 10413,
      "껴율": 10414,
      "꼭객": 10415,
      "꼰는": 10416,
      "꼿씨": 10417,
      "꽁언": 10418,
      "꾸렇": 10419,
      "끈테": 10420,
      "끌럽": 10421,
      "끌료": 10422,
      "끓렇": 10423,
      "끗네": 10424,
      "끝학꼬": 10425,
      "끼까": 10426,
      "낡깠": 10427,
      "낢운": 10428,
      "낢짜": 10429,
      "남먼": 10430,
      "냄쎄": 10431,
      "냅퓨": 10432,
      "냐써": 10433,
      "냠먼": 10434,
      "넒여": 10435,
      "넜묽": 10436,
      "네북": 10437,
      "네옮": 10438,
      "네욥": 10439,
      "넥코": 10440,
      "넨요": 10441,
      "넨욜": 10442,
      "넵요": 10443,
      "넹왜": 10444,
      "녈분": 10445,
      "논뜨": 10446,
      "놀려": 10447,
      "놉운": 10448,
      "놓앗": 10449,
      "누수": 10450,
      "눅꺼": 10451,
      "눈떽": 10452,
      "눈뗐": 10453,
      "눼올": 10454,
      "뉘여": 10455,
      "뉘예": 10456,
      "늑큄": 10457,
      "는뎁": 10458,
      "는뗍": 10459,
      "는텟": 10460,
      "닒먼": 10461,
      "닝떠": 10462,
      "담많": 10463,
      "닿움": 10464,
      "댑퓌": 10465,
      "덕갸": 10466,
      "덞많": 10467,
      "데학": 10468,
      "둘은": 10469,
      "뒈엊": 10470,
      "든위": 10471,
      "들여": 10472,
      "딨션": 10473,
      "딱강": 10474,
      "딱딱": 10475,
      "딸눈": 10476,
      "때고": 10477,
      "땍카": 10478,
      "떼료": 10479,
      "떽갸": 10480,
      "똥않": 10481,
      "뙤는": 10482,
      "뙤엊": 10483,
      "뚜뻑": 10484,
      "뚜쑥": 10485,
      "뚤려": 10486,
      "뜬는": 10487,
      "뜬뤼": 10488,
      "래된": 10489,
      "랠된": 10490,
      "랸댜": 10491,
      "러왔": 10492,
      "런뒈": 10493,
      "런었": 10494,
      "런테": 10495,
      "럷뮤": 10496,
      "럽교": 10497,
      "렀웠": 10498,
      "렉귀": 10499,
      "렌는": 10500,
      "려물": 10501,
      "력꼬": 10502,
      "련뜨": 10503,
      "련찌": 10504,
      "렴묾": 10505,
      "례욘": 10506,
      "례쥐": 10507,
      "롬많": 10508,
      "료뷔": 10509,
      "료삐": 10510,
      "루뀜": 10511,
      "루눈": 10512,
      "룸타": 10513,
      "뤠잇": 10514,
      "뤼담": 10515,
      "뤼카": 10516,
      "륀냐": 10517,
      "륀떼": 10518,
      "륌뮈염": 10519,
      "른는": 10520,
      "리여": 10521,
      "린룬": 10522,
      "림탸": 10523,
      "립뉘타": 10524,
      "많뜰": 10525,
      "많음": 10526,
      "많잎": 10527,
      "많하": 10528,
      "많힝": 10529,
      "맏쥫": 10530,
      "맛잋": 10531,
      "먈많": 10532,
      "멂뤼": 10533,
      "멘넌": 10534,
      "멱꼬": 10535,
      "멱코": 10536,
      "면쥑": 10537,
      "목뗄": 10538,
      "몲뗄": 10539,
      "몲룩": 10540,
      "몸뗄": 10541,
      "몹투": 10542,
      "묵을": 10543,
      "묵읊": 10544,
      "문졔": 10545,
      "묽뇰": 10546,
      "묽뤼": 10547,
      "뭍운": 10548,
      "뮤껐": 10549,
      "뮤눼": 10550,
      "뮬료": 10551,
      "밖웨": 10552,
      "받쥐": 10553,
      "밞예": 10554,
      "방잃": 10555,
      "방잎": 10556,
      "방예셔": 10557,
      "뱌람": 10558,
      "번한": 10559,
      "번햇": 10560,
      "번헷": 10561,
      "벤산": 10562,
      "벤셜": 10563,
      "변챵": 10564,
      "별졈": 10565,
      "별한": 10566,
      "복코": 10567,
      "봤는뎨": 10568,
      "뵤읽": 10569,
      "부감": 10570,
      "부갛": 10571,
      "부룬": 10572,
      "부웨": 10573,
      "분뉘": 10574,
      "붇떠": 10575,
      "붉펀": 10576,
      "붉췬젊": 10577,
      "붚뿐": 10578,
      "뷔산": 10579,
      "뷜로": 10580,
      "뷴룬": 10581,
      "븃샬": 10582,
      "빨랴": 10583,
      "빵잃": 10584,
      "빻또": 10585,
      "빻웨": 10586,
      "뻔채": 10587,
      "뻔햇": 10588,
      "뻥운": 10589,
      "뻫위": 10590,
      "뽀닥": 10591,
      "뽁코": 10592,
      "뽁토": 10593,
      "뽸댜": 10594,
      "뿌료": 10595,
      "뿌촉": 10596,
      "뿌카": 10597,
      "뿌코": 10598,
      "뿐뉠": 10599,
      "뿐윅": 10600,
      "뿔들": 10601,
      "뿔료": 10602,
      "뿔뤼": 10603,
      "샤췬": 10604,
      "샬짝": 10605,
      "서옵": 10606,
      "선눈": 10607,
      "섣써": 10608,
      "섥람": 10609,
      "섰셔": 10610,
      "셉뼉": 10611,
      "셍갸": 10612,
      "션또": 10613,
      "셰욕": 10614,
      "쇼뤽": 10615,
      "쇼릿": 10616,
      "숙갸": 10617,
      "숙밗": 10618,
      "숩닢댜": 10619,
      "쉬뉘": 10620,
      "쉬쩖": 10621,
      "쉬쿄": 10622,
      "쉭곡": 10623,
      "쉭꿀": 10624,
      "쉰랗": 10625,
      "쉰코": 10626,
      "쉴울": 10627,
      "슅갼": 10628,
      "슅꼬": 10629,
      "슉쏢": 10630,
      "슉쏭": 10631,
      "슡팍": 10632,
      "슨눈": 10633,
      "슷한": 10634,
      "식닿": 10635,
      "싯삷": 10636,
      "싯쩔": 10637,
      "싻교": 10638,
      "싼쟝": 10639,
      "쌍닿휘": 10640,
      "썬때": 10641,
      "썬욧": 10642,
      "썰요": 10643,
      "썹빗": 10644,
      "썽울": 10645,
      "썽쪼": 10646,
      "쏙쪼": 10647,
      "쏜륌": 10648,
      "쏠를": 10649,
      "쐬악": 10650,
      "쑤냐": 10651,
      "쑤먼": 10652,
      "쑥쏙": 10653,
      "쑬쟝": 10654,
      "쑵닐댜": 10655,
      "쒸꾜": 10656,
      "쒸얻": 10657,
      "쓰렵": 10658,
      "쓰빠": 10659,
      "씁릿": 10660,
      "씁닉따": 10661,
      "씨쁜": 10662,
      "씩카": 10663,
      "씬꼬": 10664,
      "씹푼": 10665,
      "아겅": 10666,
      "아웨": 10667,
      "앉흖": 10668,
      "앍쥬": 10669,
      "앞익": 10670,
      "야일": 10671,
      "약카": 10672,
      "얀교": 10673,
      "얀냇": 10674,
      "얀앝": 10675,
      "얀웨": 10676,
      "얄랐": 10677,
      "얗뻬": 10678,
      "얘얗": 10679,
      "얘퍼": 10680,
      "얠약": 10681,
      "억길": 10682,
      "언빡": 10683,
      "얹략": 10684,
      "얹요": 10685,
      "얼룸": 10686,
      "얽용": 10687,
      "얾먀": 10688,
      "업욘": 10689,
      "업쿄": 10690,
      "없왜": 10691,
      "없욜": 10692,
      "엉욧": 10693,
      "엌웨": 10694,
      "엎뻬": 10695,
      "엎쉬": 10696,
      "엎썼": 10697,
      "에는": 10698,
      "엑써": 10699,
      "엔뤼": 10700,
      "엘써": 10701,
      "여욭": 10702,
      "연휘": 10703,
      "엽는": 10704,
      "엾빵": 10705,
      "엾눼오": 10706,
      "옃셔": 10707,
      "옅교": 10708,
      "옅행": 10709,
      "옆눈": 10710,
      "예쩡": 10711,
      "옌억": 10712,
      "옐얕": 10713,
      "옘뮌한": 10714,
      "옙퍼": 10715,
      "옛아": 10716,
      "옜낢": 10717,
      "옹한": 10718,
      "왓따": 10719,
      "왓숩": 10720,
      "왓는뎨": 10721,
      "왜쩡": 10722,
      "왝씰": 10723,
      "왝죠": 10724,
      "왱위": 10725,
      "요네": 10726,
      "요는": 10727,
      "요쥐": 10728,
      "요쿄": 10729,
      "욕고": 10730,
      "욕쵸": 10731,
      "욘슉": 10732,
      "욥쁜": 10733,
      "우노": 10734,
      "우만": 10735,
      "운데": 10736,
      "울록": 10737,
      "울룝": 10738,
      "움명한": 10739,
      "웃핥": 10740,
      "웩관": 10741,
      "위낳": 10742,
      "위동": 10743,
      "위쑬": 10744,
      "위찍": 10745,
      "위쿄": 10746,
      "위풀": 10747,
      "위예오": 10748,
      "윅까": 10749,
      "윅찢": 10750,
      "윌렇": 10751,
      "윌츌": 10752,
      "윌행": 10753,
      "윔만한": 10754,
      "윕붉": 10755,
      "윕쟝": 10756,
      "윕칟": 10757,
      "윗싸": 10758,
      "윗썩": 10759,
      "윗옹": 10760,
      "윗쮜": 10761,
      "유썬": 10762,
      "율데": 10763,
      "은테": 10764,
      "음찍": 10765,
      "읍료": 10766,
      "익쿠": 10767,
      "인갸": 10768,
      "인찌": 10769,
      "읽냐": 10770,
      "읽랍": 10771,
      "읽런": 10772,
      "읽려": 10773,
      "잇얹": 10774,
      "있눈테": 10775,
      "있씁뉘댜": 10776,
      "있엿셔": 10777,
      "잊곯": 10778,
      "잊공": 10779,
      "잊께": 10780,
      "잊따": 10781,
      "잊슬": 10782,
      "잊엌": 10783,
      "잊쩌": 10784,
      "잊녜오": 10785,
      "잊얻셔": 10786,
      "잎닉": 10787,
      "잎닐": 10788,
      "잎붊": 10789,
      "잎뻔": 10790,
      "잎실": 10791,
      "잎창": 10792,
      "잚울": 10793,
      "장닒": 10794,
      "쟉은": 10795,
      "쟐묫": 10796,
      "쟝쏘": 10797,
      "적욺": 10798,
      "정맒": 10799,
      "졍뙈": 10800,
      "좁운": 10801,
      "좋굘": 10802,
      "좋뀄": 10803,
      "좋넥": 10804,
      "좋얼": 10805,
      "좋윌": 10806,
      "좋치많": 10807,
      "좋쯥뉘": 10808,
      "좾쉭": 10809,
      "죃곱": 10810,
      "죃숳": 10811,
      "죃앍": 10812,
      "죠핥오": 10813,
      "준챠": 10814,
      "줴꽁": 10815,
      "쥐른": 10816,
      "쥑교": 10817,
      "쥑졉": 10818,
      "쥔헹": 10819,
      "쥩권": 10820,
      "쥬뮨": 10821,
      "쥬짭": 10822,
      "짖만": 10823,
      "짙만": 10824,
      "짜는": 10825,
      "짝꼬": 10826,
      "짝넌": 10827,
      "쨍깍": 10828,
      "쨍칵": 10829,
      "쨩운": 10830,
      "쨩쨩": 10831,
      "쩝군셩": 10832,
      "쩡껸": 10833,
      "쩡솎": 10834,
      "쩡손": 10835,
      "쩡숄": 10836,
      "쩨공": 10837,
      "쪄셔": 10838,
      "쪽끎": 10839,
      "쪽큼": 10840,
      "쬐고": 10841,
      "쬐꽤": 10842,
      "쭈인": 10843,
      "쭈찹": 10844,
      "쭉팍": 10845,
      "쭙뉘댜": 10846,
      "쯥닙": 10847,
      "찌깐": 10848,
      "찌컨": 10849,
      "찍깐": 10850,
      "찐굿": 10851,
      "찐네": 10852,
      "찜굿": 10853,
      "참많": 10854,
      "창걸": 10855,
      "창임": 10856,
      "창켤": 10857,
      "챵뮬": 10858,
      "챵운": 10859,
      "처귄": 10860,
      "처녘": 10861,
      "척인": 10862,
      "천웨": 10863,
      "청닒": 10864,
      "첵까": 10865,
      "첵꺄": 10866,
      "쳬끄윈": 10867,
      "촉굶": 10868,
      "촛슅": 10869,
      "쵯쌍": 10870,
      "추섯": 10871,
      "추짯": 10872,
      "충간": 10873,
      "췌곯": 10874,
      "취됴": 10875,
      "취악": 10876,
      "췰는": 10877,
      "췸귤": 10878,
      "췸꾼": 10879,
      "칙많": 10880,
      "친찰": 10881,
      "칠잚": 10882,
      "칫많": 10883,
      "칭많": 10884,
      "칱월": 10885,
      "칱퀀": 10886,
      "카써": 10887,
      "카쪽": 10888,
      "캬뉘": 10889,
      "캬오": 10890,
      "커윤": 10891,
      "켜귀": 10892,
      "켸오": 10893,
      "코순": 10894,
      "콴는": 10895,
      "쿠렇": 10896,
      "퀘척": 10897,
      "퀴됴": 10898,
      "크랑": 10899,
      "큰랑": 10900,
      "큰철": 10901,
      "클료": 10902,
      "킥카": 10903,
      "타꼬": 10904,
      "타코": 10905,
      "타튿": 10906,
      "탄했": 10907,
      "탓쒸": 10908,
      "탔오": 10909,
      "태뷔": 10910,
      "탸룬": 10911,
      "탸원": 10912,
      "턍한": 10913,
      "터룬": 10914,
      "퇘옅": 10915,
      "퇴였": 10916,
      "특퀴": 10917,
      "틀럿": 10918,
      "틀운": 10919,
      "파롯": 10920,
      "팓댜": 10921,
      "팔람": 10922,
      "팔롓": 10923,
      "팔로": 10924,
      "팟댜": 10925,
      "팡욹": 10926,
      "팡잊": 10927,
      "펀예": 10928,
      "펀채": 10929,
      "펀헉": 10930,
      "펀학계": 10931,
      "펑윈": 10932,
      "편채": 10933,
      "포눈": 10934,
      "퐈셔": 10935,
      "퐈아": 10936,
      "푸는": 10937,
      "푸짠": 10938,
      "푼또": 10939,
      "푼뜬": 10940,
      "푼웨": 10941,
      "풀랗": 10942,
      "풂편": 10943,
      "퓨툐": 10944,
      "퓬뜬": 10945,
      "퓬틂": 10946,
      "퓰를": 10947,
      "플뤽": 10948,
      "핒수": 10949,
      "학곗": 10950,
      "학꼲": 10951,
      "학콣": 10952,
      "한냑": 10953,
      "한랴": 10954,
      "한눈떼": 10955,
      "함몄": 10956,
      "합린": 10957,
      "핫섰": 10958,
      "핫실": 10959,
      "핫썼": 10960,
      "핫쒜": 10961,
      "햅번": 10962,
      "햇쑴": 10963,
      "햇운": 10964,
      "햇쿄": 10965,
      "햇숩뉘": 10966,
      "햇눈퉤": 10967,
      "햇윤데": 10968,
      "했댜": 10969,
      "했설": 10970,
      "했오": 10971,
      "했는뛔": 10972,
      "행뽁": 10973,
      "햋뎐": 10974,
      "햐굘": 10975,
      "햐기": 10976,
      "햐꼭": 10977,
      "햐낳": 10978,
      "햐뉴": 10979,
      "햐룻": 10980,
      "햐앗": 10981,
      "햐옅": 10982,
      "햐퀴": 10983,
      "햐눈뒈": 10984,
      "헉곬": 10985,
      "헉키": 10986,
      "헌톄": 10987,
      "헕교": 10988,
      "헕류": 10989,
      "험마": 10990,
      "헙닐": 10991,
      "헙쇼": 10992,
      "헤셨": 10993,
      "헤썩": 10994,
      "헤썼": 10995,
      "헤얗": 10996,
      "헤옻": 10997,
      "헤서오": 10998,
      "헥셔": 10999,
      "헵변": 11000,
      "헷석": 11001,
      "헷섬": 11002,
      "헷섰": 11003,
      "헷섶": 11004,
      "헷썼": 11005,
      "협쇼": 11006,
      "홈뗀": 11007,
      "확낀": 11008,
      "홱뗄": 11009,
      "홴텐": 11010,
      "횬챠": 11011,
      "휨둘": 11012,
      "휴키": 11013,
      "휸륭": 11014,
      "힌링": 11015,
      "효뗄1": 11016,
      "좋앝셔": 11017,
      "좋운떼": 11018,
      "씁뉘단": 11019,
      "씁뉘닮": 11020,
      "씁뉘닳": 11021,
      "씁뉘답": 11022,
      "합뉘닺": 11023,
      "얘악할": 11024,
      "위옹햇": 11025,
      "위옹헷": 11026,
      "옇헹읊": 11027,
      "좋햐욜": 11028,
      "좋햐욧": 11029,
      "찐졀한": 11030,
      "좋은뎨": 11031,
      "췬젊한": 11032,
      "췬쩔함": 11033,
      "칼끎학교": 11034,
      "췬철핫": 11035,
      "꺌끎햐교": 11036,
      "칼꿈한": 11037,
      "칼꿈학꼬": 11038,
      "화쟝찔": 11039,
      "꺌꿈학교": 11040,
      "함먼써": 11041,
      "꺌큼함": 11042,
      "객씰됴": 11043,
      "헤윤떼": 11044,
      "11월": 11045,
      "깖큼학교": 11046,
      "죠쉭됴": 11047,
      "캑끗한": 11048,
      "괜챦앗": 11049,
      "죠옹한": 11050,
      "략교오": 11051,
      "핫쉭꾜": 11052,
      "핫씨꼬": 11053,
      "꽝앉뤼": 11054,
      "40뷴": 11055,
      "쉬섦됴": 11056,
      "칼쿰한": 11057,
      "방욺뮈": 11058,
      "뮤엿뵤댜": 11059,
      "얏쒸운": 11060,
      "숄뤼갸": 11061,
      "씻섦또": 11062,
      "야쒸윤": 11063,
      "략코욤": 11064,
      "씨섦됴": 11065,
      "황창씰": 11066,
      "홧쟝씰": 11067,
      "화쌍싫": 11068,
      "+)": 11069,
      "02": 11070,
      "05": 11071,
      "06": 11072,
      "0젊": 11073,
      "1읾": 11074,
      "1잃": 11075,
      "1쩜": 11076,
      "2깨": 11077,
      "2변": 11078,
      "2잃": 11079,
      "35": 11080,
      "3많": 11081,
      "3뱍": 11082,
      "3쭝": 11083,
      "4쉬": 11084,
      "4잃": 11085,
      "5깨": 11086,
      "5씨": 11087,
      "5읽": 11088,
      "7만": 11089,
      "9얼": 11090,
      "9쯩": 11091,
      "><": 11092,
      "AI": 11093,
      "Goo": 11094,
      "IC": 11095,
      "JW": 11096,
      "OP": 11097,
      "TOP": 11098,
      "ou": 11099,
      "ve": 11100,
      "~♡": 11101,
      "…!": 11102,
      "……": 11103,
      "ㅅㅇ": 11104,
      "각교": 11105,
      "간뉘": 11106,
      "갇뜬": 11107,
      "갇쪽": 11108,
      "갇탸오": 11109,
      "갊만": 11110,
      "값뉘따": 11111,
      "갖저": 11112,
      "갗죡": 11113,
      "같썽": 11114,
      "갚격": 11115,
      "갚뉘따": 11116,
      "갸는": 11117,
      "갸쩡": 11118,
      "갹귀": 11119,
      "걋써": 11120,
      "걋셩피": 11121,
      "걔쇽": 11122,
      "거욹": 11123,
      "겉됴": 11124,
      "겍싫": 11125,
      "견뮤": 11126,
      "결여": 11127,
      "결횬": 11128,
      "곗쉰": 11129,
      "곡끕": 11130,
      "곧위": 11131,
      "곪팡위": 11132,
      "공향": 11133,
      "관꼐": 11134,
      "관릴": 11135,
      "구레": 11136,
      "군량": 11137,
      "군테": 11138,
      "굴뤼": 11139,
      "굻료": 11140,
      "굽위": 11141,
      "귀는": 11142,
      "귈랴": 11143,
      "귈료": 11144,
      "귑푠": 11145,
      "근냥": 11146,
      "긁렇": 11147,
      "까먼": 11148,
      "까쪽": 11149,
      "까쿄": 11150,
[...]
